{"<pad>":0,"<s>":1,"</s>":2,"<unk>":3,"<mask>":4,"!":5,"\"":6,"#":7,"$":8,"%":9,"&":10,"'":11,"(":12,")":13,"*":14,"+":15,",":16,"-":17,".":18,"/":19,"0":20,"1":21,"2":22,"3":23,"4":24,"5":25,"6":26,"7":27,"8":28,"9":29,":":30,";":31,"<":32,"=":33,">":34,"?":35,"@":36,"A":37,"B":38,"C":39,"D":40,"E":41,"F":42,"G":43,"H":44,"I":45,"J":46,"K":47,"L":48,"M":49,"N":50,"O":51,"P":52,"Q":53,"R":54,"S":55,"T":56,"U":57,"V":58,"W":59,"X":60,"Y":61,"Z":62,"[":63,"\\":64,"]":65,"^":66,"_":67,"`":68,"a":69,"b":70,"c":71,"d":72,"e":73,"f":74,"g":75,"h":76,"i":77,"j":78,"k":79,"l":80,"m":81,"n":82,"o":83,"p":84,"q":85,"r":86,"s":87,"t":88,"u":89,"v":90,"w":91,"x":92,"y":93,"z":94,"{":95,"|":96,"}":97,"~":98,"¡":99,"¢":100,"£":101,"¤":102,"¥":103,"¦":104,"§":105,"¨":106,"©":107,"ª":108,"«":109,"¬":110,"®":111,"¯":112,"°":113,"±":114,"²":115,"³":116,"´":117,"µ":118,"¶":119,"·":120,"¸":121,"¹":122,"º":123,"»":124,"¼":125,"½":126,"¾":127,"¿":128,"À":129,"Á":130,"Â":131,"Ã":132,"Ä":133,"Å":134,"Æ":135,"Ç":136,"È":137,"É":138,"Ê":139,"Ë":140,"Ì":141,"Í":142,"Î":143,"Ï":144,"Ð":145,"Ñ":146,"Ò":147,"Ó":148,"Ô":149,"Õ":150,"Ö":151,"×":152,"Ø":153,"Ù":154,"Ú":155,"Û":156,"Ü":157,"Ý":158,"Þ":159,"ß":160,"à":161,"á":162,"â":163,"ã":164,"ä":165,"å":166,"æ":167,"ç":168,"è":169,"é":170,"ê":171,"ë":172,"ì":173,"í":174,"î":175,"ï":176,"ð":177,"ñ":178,"ò":179,"ó":180,"ô":181,"õ":182,"ö":183,"÷":184,"ø":185,"ù":186,"ú":187,"û":188,"ü":189,"ý":190,"þ":191,"ÿ":192,"Ā":193,"ā":194,"Ă":195,"ă":196,"Ą":197,"ą":198,"Ć":199,"ć":200,"Ĉ":201,"ĉ":202,"Ċ":203,"ċ":204,"Č":205,"č":206,"Ď":207,"ď":208,"Đ":209,"đ":210,"Ē":211,"ē":212,"Ĕ":213,"ĕ":214,"Ė":215,"ė":216,"Ę":217,"ę":218,"Ě":219,"ě":220,"Ĝ":221,"ĝ":222,"Ğ":223,"ğ":224,"Ġ":225,"ġ":226,"Ģ":227,"ģ":228,"Ĥ":229,"ĥ":230,"Ħ":231,"ħ":232,"Ĩ":233,"ĩ":234,"Ī":235,"ī":236,"Ĭ":237,"ĭ":238,"Į":239,"į":240,"İ":241,"ı":242,"Ĳ":243,"ĳ":244,"Ĵ":245,"ĵ":246,"Ķ":247,"ķ":248,"ĸ":249,"Ĺ":250,"ĺ":251,"Ļ":252,"ļ":253,"Ľ":254,"ľ":255,"Ŀ":256,"ŀ":257,"Ł":258,"ł":259,"Ń":260,"ĠÐ":261,"Ð¾":262,"Ðµ":263,"Ð°":264,"ÑĤ":265,"Ð¸":266,"Ñģ":267,"Ð½":268,"ÑĢ":269,"Ð¾Ð":270,"Ð»":271,"Ñĥ":272,"Ð°Ð":273,"ÐµÐ":274,"Ñı":275,"Ñĭ":276,"ÑĮ":277,"ĠÐ¿":278,"Ðº":279,"ĠÑģ":280,"ĠÐ²":281,"ĠÐ½":282,"Ñĩ":283,"Ð²":284,"Ð´":285,"ÑģÑĤ":286,"Ð¼":287,"ĠÐ¾":288,"ĠÐ¸":289,"ÐµÐ½":290,"Ñħ":291,"Ð¾Ð²":292,"Ð°Ð»":293,"ĠÐº":294,"ÑĤÐ¾":295,"ÐµÑĢ":296,"ÑĪ":297,"Ð¾Ð»":298,"ĠÐ´":299,"Ð¾Ð¼":300,"ÐµÑĤ":301,"ĠÐ¼":302,"ÐµÐ»":303,"Ñİ":304,"ĠÑĤ":305,"³Ð¾":306,"ĠÐ¿ÑĢ":307,"Ð°Ð½":308,"Ð¿":309,"ĠÐ±":310,"âĢ":311,"Ð½Ð¾":312,"Ð°ÑĤ":313,"Ð¾Ð´":314,"Ð±":315,"Ð¸Ð»":316,"Ð·":317,"Ð¸ÑĤ":318,"ĠÑĢ":319,"Ð°Ðº":320,"ĠÑĩ":321,"ĠÐ·":322,"Ð¾Ð¹":323,"ĠÐ½Ð°":324,"Ð½Ñĭ":325,"ÑĨ":326,"ÐµÐ¼":327,"ÑģÑı":328,"ĠÑĥ":329,"Ð¾ÑĢ":330,"Âł":331,"ĠÐ½Ðµ":332,"Ð¹":333,"ÑģÐº":334,"Ð³":335,"Ð¸Ð½":336,"Ð¶":337,"Ð°Ð¼":338,"Ñī":339,"Ð°Ð·":340,"ĠÐ¿Ð¾":341,"Ð°Ð²":342,"ÐµÐ´":343,"Ð½Ð¸":344,"Ð°ÑĢ":345,"ĠÑ":346,"ĠÐµ":347,"Ð»Ð¸":348,"âĢĶ":349,"ÑģÑĮ":350,"ĠÐ³":351,"Ð¾Ð½":352,"ÐµÐ½Ð¸":353,"Ð¾ÑĤ":354,"Ð¾Ð±":355,"Ð¾Ð³Ð¾":356,"ÐµÐ¹":357,"Ð¾Ð³":358,"ĠÐ»":359,"Ð¸Ð¼":360,"Ð°ÑĤÑĮ":361,"ĠÐ¾ÑĤ":362,"Ð½Ð°":363,"ĠÐ±Ñĭ":364,"ĠÑį":365,"Ð¸Ð²":366,"Ð°Ð´":367,"ĠÑĩÑĤÐ¾":368,"ÑģÑĤÐ²":369,"Ð¾Ð¶":370,"Ð°Ñģ":371,"ÑĢÑĥ":372,"Ð¾Ðº":373,"Ð¾Ñģ":374,"ÐµÐ²":375,"ĠÐ°":376,"Ð¾Ð»ÑĮ":377,"ĠÐĴ":378,"ĠÑģÑĤ":379,"Ð½Ñĥ":380,"ÑĤÐ¾ÑĢ":381,"Ð¸Ðº":382,"ÐµÐº":383,"ĠÐ¶":384,"ĠÐ¾Ð±":385,"âĢĵ":386,"ÂłÐ":387,"ĠÐ²Ñĭ":388,"ĠÐŁ":389,"Ð¸Ñħ":390,"Ð´Ð°":391,"Ð»Ñı":392,"ĠÐ¡":393,"Ð¾Ð·":394,"ĠÐĿ":395,"Ð°Ñı":396,"Ð¾ÑģÑĤ":397,"ĠÑı":398,"ÐµÐ»ÑĮ":399,"Ð»Ð°":400,"Ð¸ÑĤÑĮ":401,"Ð¸Ðµ":402,"ÐµÐ·":403,"Ð¸Ð¹":404,"ĠÐ²Ñģ":405,"Ġ-":406,"Ð¸Ñı":407,"ĠÐļ":408,"Ð°Ð»Ð¸":409,"Ð³Ð¾":410,"ĠÐ¸Ð·":411,"Ð¸Ñĩ":412,"ĠÑģÐ²":413,"ĠÐºÐ°Ðº":414,"Ð¸ÑĢ":415,"ÐµÑģ":416,"ĠÐ¿Ð¾Ð´":417,"ĠÐŀ":418,"Ð¸Ð´":419,"ÐµÐ±":420,"Ð°Ð»Ð°":421,"ÐµÑģÑĤ":422,"Ð°Ð¶":423,"Ð¾Ð¿":424,"ÑĦ":425,"Ð¸Ð¸":426,"ĠÐľ":427,"ÐºÐ°":428,"ÑĥÐ´":429,"Â«":430,"Â»":431,"ĠÑħ":432,"ÑĥÑĤ":433,"ÐµÐ³Ð¾":434,"ÑıÑĤ":435,"ÑĢÐ°":436,"Ð»Ð¾":437,"Ð½Ð¾Ð¹":438,"Ð°Ð±":439,"ĠÂ«":440,"ÐµÑĩ":441,"ÐºÐ¾":442,"Ð°Ð»ÑĮ":443,"ĠÑģÐ»":444,"ĠÑĢÐ°Ð·":445,"ÐºÐ¸":446,"ĠÑĤÐ°Ðº":447,"ĠÐĲ":448,"Ð¸Ð·":449,"ĠÐ¾Ð½":450,"ĠÐ·Ð°":451,"Ð°Ð¿":452,"Ð¾Ñĩ":453,"ĠÐ¢":454,"ĠÐĶ":455,"Ð°ÐµÑĤ":456,"ĠÐ¿ÐµÑĢ":457,"Ð½Ð¾Ð³Ð¾":458,"Ð¸Ñģ":459,"ĠÐĺ":460,"Ð½Ðµ":461,"ÐµÐ¿":462,"ÂłâĢĶ":463,"ĠÐºÐ¾":464,"Ð½ÑĭÐ¹":465,"Ð°Ð¼Ð¸":466,"ĠÑįÑĤ":467,"Ð°Ñİ":468,"ÐµÐ½Ð¸Ñı":469,"ĠÐµÐ³Ð¾":470,"ÑĭÐ²":471,"Ð°Ð¹":472,"ĠÑįÑĤÐ¾":473,"Ð½ÑĭÑħ":474,"Ð½ÑĭÐµ":475,"ĠÑģÐº":476,"ĠÐ¿Ð¾Ð»":477,"ÑĥÑĩ":478,"Ð¿ÑĢ":479,"Ð½ÑĭÐ¼":480,"ÑīÐµ":481,"ÐµÑĪ":482,"Ð½Ð¾ÑģÑĤ":483,"ÐºÑĥ":484,"ÐµÐ¶":485,"ÑģÐ»":486,"Ð¸Ð»Ð°":487,"ĠâĢĶ":488,"Ð¸Ð»Ð¸":489,"ÐµÐ³":490,"ÐµÐ½Ð¸Ðµ":491,"ÑĥÐ¼":492,"ĠÐł":493,"ĠÐ²ÑģÐµ":494,"ĠÐºÐ¾ÑĤÐ¾ÑĢ":495,"ĠÐ¿ÑĢÐ¾":496,"ÑĥÐ¶":497,"ĠÑĦ":498,"ÑĥÑİ":499,"Ð°Ð³":500,"ĠÐĳ":501,"ĠÑĪ":502,"ĠÑĤÐ¾":503,"ÑĭÐ¹":504,"ĠÑģÐ²Ð¾":505,"ÐµÑģÐº":506,"ÑĢÐ°Ð½":507,"Ð¾Ð¼Ñĥ":508,"Ð¾Ð»ÑĮÐºÐ¾":509,"Ñĳ":510,"Ð¾Ð³Ð´Ð°":511,"Ð¸ÑģÑĤ":512,"âĢ¦":513,"Ġ1":514,"ÐµÐ½ÑĮ":515,"ÑĥÑĢ":516,"ĠÐ¾Ð´":517,"ĠÐ½Ð¾":518,"Ð¸ÑĨ":519,"ÑħÐ¾Ð´":520,"Ð°Ñħ":521,"ĠÐ³Ð¾":522,"ÐµÐ½ÑĤ":523,"Ð°ÑģÑĤ":524,"ÑĢÑĥÐ³":525,"Ð½Ñı":526,"ÑĭÐµ":527,"ĠÐºÑĢ":528,"ĠÐĵ":529,"ĠÐ¿ÑĢÐ¸":530,"Ð¶Ðµ":531,"Ð¾Ðµ":532,"ÐµÐ½Ð½Ð¾":533,"Ġ(":534,"ĠÑģÐ¿":535,"Ð´Ðµ":536,"Ð°Ð»Ð¾":537,"ÑģÑĤÑĢ":538,"ĠÐ´Ð²":539,"Ð¸ÑĤÐµÐ»ÑĮ":540,"ÑĪÐµ":541,"ĠÐ¿ÑĢÐµÐ´":542,"ÑģÐ¿":543,"ÑĭÑħ":544,"ĠÐ¶Ðµ":545,"ÑĢÐµÐ¼":546,"ĠÑģÐ°Ð¼":547,"ÑĭÐ¼":548,"ĠÑģÐ¾":549,"ÑĤÑĮ":550,"Ð½Ð¸Ðº":551,"Ñį":552,"ĠÑĢÑĥ":553,"ĠÐĽ":554,"ĠÑĢÐ°Ñģ":555,"ĠÐ±ÑĭÐ»Ð¾":556,"ĠÐ¸Ð¼":557,"ÑĢÐ¸":558,"Ð¾Ð²Ð¾ÑĢ":559,"ĠÐ¯":560,"Ð¡":561,"Ð½Ð°Ñı":562,"ÂłâĢĵ":563,"ĠÐ¾Ð½Ð°":564,"ĠÐ²Ð¾":565,"ÐµÐ½Ñı":566,"ÑĥÐ¿":567,"Ð½Ð¾Ðµ":568,"ÑĨÐ¸":569,"ĠÑģÐ¼":570,"Ð½Ð¾Ð²":571,"ĠÐ±ÑĥÐ´":572,"ÑģÑĤÐ°Ð²":573,"ÑĥÑĪ":574,"ĠÐºÐ¾Ð½":575,"Ð°Ð»ÑģÑı":576,"ĠÑĨ":577,"ĠÐ³Ð»":578,"Ð¸ÑĩÐµÑģÐº":579,"ĠÐ²Ð¾Ð·":580,"ĠÐ»Ñİ":581,"ĠÐ´Ð»Ñı":582,"Ð¾Ð±Ñĭ":583,"Ð½ÑĥÐ»":584,"ÑģÐ»Ð¸":585,"ĠÐķ":586,"ĠÐŃ":587,"ĠâĢĵ":588,"Ð¸Ð»ÑģÑı":589,"ĠÐ¿Ð¾ÑĤ":590,"ĠÐ¿Ð¾Ðº":591,"ĠÐ¼Ñĭ":592,"Ð»ÑĮ":593,"ÑĤÐ¸":594,"ĠÐµÐµ":595,"ÐĴ":596,"Ð¾ÑĪ":597,"Ð»Ñİ":598,"ĠÑĤÑĭ":599,"ÑĥÐ±":600,"ÐµÐ»Ð¸":601,"Ð¾Ð²Ð°Ð½":602,"ĠÐ±ÑĭÐ»":603,"ĠÑĤÑĢ":604,"ĠÐ³Ð¾Ð´":605,"ĠÐ¼ÐµÐ½Ñı":606,"Ð°ÑĪ":607,"Ðŀ":608,"ĠÐ²Ð·":609,"ÑĮÑİ":610,"ĠÐ¾Ðº":611,"ÑĢÐ°Ð·":612,"ÐŁ":613,"ĠÐ¼Ð¾Ð¶":614,"ĠÐ£":615,"Ð¼Ñĥ":616,"ĠÐĹ":617,"Ð²ÐµÑĢ":618,"ÐµÑħ":619,"ĠÑģÐºÐ°Ð·":620,"Ð°ÑİÑĤ":621,"Ð¸Ð½Ð°":622,"ÐµÑĤÑģÑı":623,"ĠÐ´Ð¾":624,"ĠÐºÐ¾Ð¼":625,"Ġ2":626,"ĠÐ´ÐµÐ»":627,"Ð½Ð¾Ð¼":628,"ÐµÐ¼Ñĥ":629,"ÑĢÑı":630,"ÐĿ":631,"ĠÐ´ÑĢÑĥÐ³":632,"Ð½Ð¸Ð¼":633,"ĠÐ»Ð¸":634,"..":635,"Ð¾Ñı":636,"ÐµÐµ":637,"Ð°ÑĤÑĮÑģÑı":638,"ÐĲ":639,"ÐµÐ±Ñı":640,"ĠÑĤÐ¾Ð»ÑĮÐºÐ¾":641,"ĠÐ²ÑĢÐµÐ¼":642,"ĠÐ¾Ñģ":643,"ĠÐ±Ð¾Ð»ÑĮ":644,"Ð´Ñĥ":645,"Ð½Ð¾ÑģÑĤÐ¸":646,"ĠÐ¿Ð»":647,"ÑĭÑĤ":648,"Ð½ÑĥÑİ":649,"ĠÐ¿Ð¾ÑģÐ»":650,"ĠÐ¸Ñħ":651,"ÑıÑĤÑĮ":652,"ÑĢÐ¾Ð´":653,"ĠÐ¸Ð½":654,"ÐºÐµ":655,"ĠÑĩÑĤ":656,"ĠÐ³Ð¾Ð»":657,"Ð²ÐµÑĤ":658,"ÑĨÐ¸Ð¸":659,"ÐºÐ¾Ð²":660,"Ð´ÐµÐ»":661,"Ðļ":662,"ĠÐ´Ð¾Ð»":663,"ĠÐ¼Ð½Ðµ":664,"ĠÐ¾Ð¿":665,"ĠÐ¾Ð½Ð¸":666,"ĠÑĥÐ¶Ðµ":667,"ĠÐ½Ð°Ð´":668,"ĠÐµÑīÐµ":669,"ÑģÑĤÐ²ÐµÐ½":670,"ÑĢÐ°Ð²":671,"ĠÑģÐ¾Ð±":672,"Ð»ÐµÐ½":673,"ÐµÐ»Ð¾Ð²":674,"ĠÐ½Ð°Ð¿":675,"ÑĢÐ¾Ñģ":676,"ÑģÑĤÐ²Ð¾":677,"ĠÐ¼Ð¾Ð³":678,"ĠÐ²Ð¸Ð´":679,"ĠÑĩÑĤÐ¾Ð±Ñĭ":680,"ĠÐĿÐ¾":681,"ĠÐ§":682,"ÐµÑĨ":683,"ÑĬ":684,"ÑĥÑģÑĤ":685,"Ð¸Ð»ÑĮ":686,"Ð°Ð±Ð¾ÑĤ":687,"Ð°ÑĤÐµÐ»ÑĮ":688,"ÑģÑĤÐ²Ð°":689,"ĠÐºÐ¾Ð³Ð´Ð°":690,"Ð¸Ð»Ð¾":691,"ĠĊ":692,"ĠÐŀÐ½":693,"ĠÐ¸Ð»Ð¸":694,"Ð¸Ð¼Ð¸":695,"ĠÐ¾Ñĩ":696,"Ð¸Ð³":697,"Ð°Ð½Ð¸Ñı":698,"ĠÑģÐ¾Ð²":699,"ÑĢÐ¾Ð²":700,"ĠÐ¿Ð¾Ð²":701,"ĠÐ¿Ð¾Ð¼":702,"ĠÐ²ÐµÑĢ":703,"Ð°ÐµÑĤÑģÑı":704,"Ġ\"":705,"ÐµÐ±Ðµ":706,"ĠÐ·Ð°Ðº":707,"Ð°Ñĩ":708,"Ð½Ð°Ñĩ":709,"ÐµÑĢÑĮ":710,"ÑĭÑĪ":711,"ÑĢÐ¾":712,"Ð¼Ð¸":713,"Â».":714,"ĠÐ±ÐµÐ·":715,"ĠÐ½Ð°Ñĩ":716,"ÐµÑĪÑĮ":717,"ÑĢÐ°ÑĤ":718,"ÑĤÐµÑĢ":719,"ĠÐ¿ÑĢÐ°Ð²":720,"ĠÑĥÐ´":721,"ÐµÑĢÐ¶":722,"ĠÐºÐ¾ÑĢ":723,"ÑĥÑģ":724,"ĠÐ¥":725,"ÑĤÐ°":726,"Ðĺ":727,"ÑĢÐµÐ´":728,"ÑģÐºÐ¾Ð¹":729,"Ð°Ð½Ð¾Ð²":730,"ÐµÐ»Ð°":731,"Ð½Ð¾ÑģÑĤÑĮ":732,"ÑĤÐ¾Ð²":733,"Ð°Ð»Ð¸ÑģÑĮ":734,"ĠÐ¿Ð¾ÑĢ":735,"ĠÐ¤":736,"ĠÑĩÐµÐ»Ð¾Ð²":737,"ÑĥÑħ":738,"Ð°Ð»Ð¾ÑģÑĮ":739,"Ð°Ð¶Ðµ":740,"Ðł":741,"ĠÑħÐ¾ÑĤ":742,"ÑģÑĤÑĮ":743,"ĠÐ³Ð¾Ð²Ð¾ÑĢ":744,"ĠÐ½Ð¸":745,"Ðľ":746,"Ð°Ð½Ð¸Ðµ":747,"ÐºÐ¾Ð¹":748,"ĠÐ¾ÑģÑĤ":749,"ĠÐ·Ð°Ð¼":750,"Ð°Ð½Ð´":751,"Ð¸Ð½Ñĥ":752,"ĠÐ½Ð¸Ðº":753,"ÐµÑĤÑĮ":754,"ÑģÐºÐ¾Ð³Ð¾":755,"Ð½ÑĭÐ¼Ð¸":756,"ÑĤÐµ":757,"Ð»Ð°Ð´":758,"Ð¸ÑĤÑĮÑģÑı":759,"ĠÑĩÐµÐ¼":760,"ĠÑģÐ»Ð¾Ð²":761,"Ð¸ÑĤÑģÑı":762,"ĠÑĩÐµÑĢ":763,"ÐµÑĢÐ°":764,"Ð°Ð»Ð°ÑģÑĮ":765,"Â»,":766,"ÑĪÐ¸":767,"ĠÐ½Ð°Ñģ":768,"Ð³ÑĢ":769,"Ð¾ÑĤÑĢ":770,"ĠÐ¼Ð¾":771,"ÑİÑĤ":772,"ÑĤÑĢ":773,"Ð¢":774,"ĠÐ·Ð°Ð¿":775,"ĠÐµÑģÐ»Ð¸":776,"ĠÐµÐ¼Ñĥ":777,"ÑĪÑĮ":778,"ĠÐ¿Ð¾Ñģ":779,"ĠÐ¿Ð¾Ñĩ":780,"ÐĶ":781,"ĠÐ²ÑĢÐµÐ¼Ñı":782,"ĠÐ¿ÑĢÐ¾ÑģÑĤ":783,"ĠÐ±ÑĭÐ»Ð°":784,"ĠÐ»ÑİÐ±":785,"Ð¸Ð·Ð½":786,"ĠÐ¿Ð¾Ð¿":787,"Ð¾ÑģÑģ":788,"ĠÐ¼ÐµÑģÑĤ":789,"Ð°ÑİÑī":790,"Ġ19":791,"ĠÐ¿ÑĢÐ¸Ð½":792,"ĠÑĥÑĩ":793,"Ð¸Ð»Ð°ÑģÑĮ":794,"Ð¼Ð°":795,"ĠÑĩÐµÐ»Ð¾Ð²ÐµÐº":796,"ÑģÐºÐ¸Ð¹":797,"ÑĨÐ°":798,"Ð°Ð¶Ð´":799,"Ð»Ðµ":800,"ĠÐ±ÑĭÐ»Ð¸":801,"ĠÐ·Ð½":802,"ÑıÐ·":803,"Ð¾Ð¶Ðµ":804,"ĠÐ¿Ð°ÑĢ":805,"Ð¿ÑĢÐ°Ð²":806,"ÐµÐ½Ð¸Ð¸":807,"Ð¸ÑĤÐµ":808,"ÑĢÑĭ":809,"ĠÐ¿Ð¾Ð·":810,"Ð¸ÑĢÐ¾Ð²":811,"ÐµÑī":812,"Ð³Ð»Ñı":813,"Ð½ÑĥÐ»Ð°":814,"ĠÐ´Ð°Ð¶Ðµ":815,"ĠÐ½Ð°Ð·":816,"Ð¸Ñİ":817,"ÐºÐ¾Ð¼":818,"Ð¿Ð¾Ð»":819,"Ð»ÐµÐº":820,"ĠÐ±ÑĥÐ´ÐµÑĤ":821,"ÑıÐ²":822,"ĠÑĤÐµÐ¼":823,"ĠÐ±Ð¾Ð»":824,"ÑģÐµ":825,"ÐµÐ»Ñı":826,"ĠÑĢÐ°Ð±Ð¾ÑĤ":827,"ĠÐ¾ÑĤÐº":828,"ĠÐ½Ð°ÑĪ":829,"ĠÑģÐµÐ±Ñı":830,"Ð»Ð¸Ð²":831,"Ð¸Ð»Ð¸ÑģÑĮ":832,"Ð½ÐµÐ¹":833,"ĠÐ¿ÑĢÐ¾ÑĤ":834,"ĠÐ¼Ð¾Ð¶ÐµÑĤ":835,"ĠÐ¿ÑĢÐ¾Ð´":836,"ÑĮÑı":837,"ĠÐ´Ð¾Ð»Ð¶":838,"ÂłÐĿ":839,"ĠÐ³Ð»Ð°Ð·":840,"ÐµÐ½Ð°":841,"ÑĥÐ²":842,"ĠÑģÐºÐ°Ð·Ð°Ð»":843,"Ð´Ð¸":844,"ĠÐ½ÐµÐ³Ð¾":845,"ĠÑĤÐ¾Ð³Ð¾":846,"ĠÑįÑĤÐ¾Ð¼":847,"ÐµÑģÑģ":848,"ÑĥÐ½":849,"ĠÐŃÑĤÐ¾":850,"ĠÑģÑĤÐ°ÑĢ":851,"ĠÐ¿ÐµÑĢÐ²":852,"ĠÐ´Ð¾Ð¼":853,"ĠÐ¿ÐµÑĢÐµÐ´":854,"ÑıÐ´":855,"Ð¸Ð½Ñĭ":856,"ĠÑģÑĤÐ¾":857,"ĠÐºÐ¾Ð»":858,"ĠÐ¸ÑģÐ¿":859,"ĠÐ·Ð°Ð²":860,"ĠÑĥÐ²":861,"ĠÑĢÐµÑĪ":862,"ÐµÐ»Ð¾":863,"ĠÐ³Ð´Ðµ":864,"ĠÐ½ÐµÐ¼":865,"ĠÐ½Ð¾Ð²":866,"ĠÐ³Ð¾Ð»Ð¾Ð²":867,"ĠÐ¼Ð¾Ð»":868,"ĠÐŁÑĢ":869,"ĠÐµÑģÑĤÑĮ":870,"ĠÑĥÐ±":871,"ĠÐ¾ÑĩÐµÐ½ÑĮ":872,"ĠÐ³ÑĢ":873,"ĠÐ¿ÑĢÐ¾Ð²":874,"ĠÐ±ÑĭÑĤÑĮ":875,"ĠÐ¿Ð¾ÑģÑĤ":876,"ĠÑįÑĤÐ¾Ð³Ð¾":877,"ĠÐ½ÐµÐ¿":878,"ĠÐ½ÐµÑĤ":879,"Ð¾ÑģÑĤÐ¸":880,"ĠÐĿÐµ":881,"Ð¾Ð±ÑĢ":882,"ĠÑĩÐ°ÑģÑĤ":883,"ĠÐ³Ð¾Ð´Ð°":884,"ĠÑģÑĩ":885,"Ð¾Ñħ":886,"ÐµÐ¹ÑģÑĤÐ²":887,").":888,"Ġ20":889,"ĠÑģÐ¾ÑģÑĤ":890,"Ð¸Ð±":891,"Ð°Ð½ÑĤ":892,"Ð¼ÐµÑĢ":893,"ÑĩÐ°Ñģ":894,"ĠÐ·Ð½Ð°":895,"ĠÐĿÐ°":896,"Ð°Ð½Ð°":897,"ĠÑģÐ»ÑĥÑĩ":898,"ÑĥÑī":899,"ĠÑģÐ»ÐµÐ´":900,"ĠÐ·Ð°Ð´":901,"ÑĥÐ´Ð°":902,"ĠÐ¿ÑĢÐ¸Ð²":903,"ĠÐ°Ð²":904,"ĠÑĤÐ¾Ð¼":905,"Ð°Ð²ÑĪ":906,"ÑĥÐ»ÑĮ":907,"ĠÐ¿Ð¾Ð»ÑĥÑĩ":908,"ĠÑģÑĤÐ¾ÑĢ":909,"Ð¼Ð¾Ð¶":910,"ĠÑģÐ´ÐµÐ»":911,"ÑĥÐº":912,"Ð»ÑİÑĩ":913,"ĠÐ±Ð»":914,"ĠÐ°ÑĢ":915,"Ð¾ÑĢÐ¾ÑĪ":916,"ÑıÐ»":917,"ÐµÐ¿ÐµÑĢÑĮ":918,"ÑĨÐµ":919,"Ð¿ÐµÑĢ":920,"ĠÐ¾ÑĤÐ²ÐµÑĤ":921,"Ð¸Ð»Ð¾ÑģÑĮ":922,"ĠÐ»ÐµÑĤ":923,"ÑĢÑĥÐ´":924,"ÑģÐºÐ¸Ñħ":925,"ÑĥÐ»":926,"ÑĢÑĥÐ¶":927,"Ð¸ÑĤÐµÐ»ÑĮÐ½Ð¾":928,"ÐµÐ½Ñĭ":929,"ĠÐºÑĤÐ¾":930,"ĠÐ´Ð¾ÑģÑĤ":931,"ÐµÑĤÐµ":932,"ĠÐ½ÐµÐ´":933,"Ðĵ":934,"Ðĳ":935,"ĠÐ±Ð¾Ð»ÑĮÑĪ":936,"ÐµÐ½Ð¸ÐµÐ¼":937,"ÑĨÑĭ":938,"ĠÐ½Ð¸Ñĩ":939,"ÐµÐ´ÑĮ":940,"Ð²Ð°ÑĤ":941,"ÐµÐ½Ð¸Ð¹":942,"ĠÑĤÐ°Ð¼":943,"ĠÐ¨":944,"ĠÐŁÐ¾":945,"ĠÐ½Ð°Ð¼":946,"ÑĢÐµ":947,"ÐµÐ¹ÑĩÐ°Ñģ":948,"ÑĩÐ½Ð¾":949,"ÑĥÐ·":950,"ĠÐºÐ¾ÑĤÐ¾ÑĢÑĭÐµ":951,"Ð½Ð¸ÐºÐ°":952,"ĠÑģÑĤÑĢÐ°Ð½":953,"ÑĥÐ³":954,"Ð´ÐµÑģÑĮ":955,"ĠÐļÐ°Ðº":956,"ÑĥÑīÐµ":957,"ĠÐ»Ð¸ÑĨ":958,"Ð¸Ð¶":959,"Ð¾ÑĢÐ¼":960,"ĠÐºÐ¾ÑĤÐ¾ÑĢÑĭÐ¹":961,"ÑıÑī":962,"ÑģÑĤÑĢÐ¾":963,"Ð»Ð°Ñģ":964,"Ð½ÐµÐµ":965,"ÑĨÐ¸Ñı":966,"ĠÐ¿Ð¾ÑģÐ»Ðµ":967,"ĠÐ½Ð¸Ñħ":968,"Ð¾Ð»ÑĮÐ·":969,"ĠÐ¾Ð±ÑĬ":970,"ĠÐ¶ÐµÐ½":971,"ÑĢÑĭÐ²":972,"ĠÐ¸ÑģÑĤ":973,"ÐµÐ½Ð¸Ñİ":974,"Ð½ÑĥÐ»ÑģÑı":975,"ÑıÐ¼":976,"ĠÐ¾Ð´Ð¸Ð½":977,"ĠÐ¼Ð¾Ð¶Ð½Ð¾":978,"Ð°ÐµÐ¼":979,"ÐµÑĤÐ°":980,"Ð¸ÐºÐ°":981,"ĠÑģÐµÐ±Ðµ":982,"ÐµÑģÑı":983,"ĠÐ·Ð°Ð±":984,"ĠÐŀÐ½Ð°":985,"Ð°ÑĢÑĤ":986,"ĠÐ¢Ð°Ðº":987,"Ð½Ð°Ðº":988,"ÑıÑģ":989,"Ð¾Ð½Ð°":990,"ĠÐ²Ð¾Ð»":991,"Ð¸Ð½Ðµ":992,"ĠÐ½ÑĥÐ¶":993,"ĠÐ½ÐµÑģÐº":994,"ÑĢÑĥÐ¿":995,"ÐµÑĢÑĤ":996,"Ð¸ÐºÐ¸":997,"ĠÑĤÐµÐ±Ñı":998,"ÐµÑĢÐ¸":999,"ĠÑģÐ¿ÑĢ":1000,"ÑģÑĤÐ²Ð¾Ð²":1001,"Ðķ":1002,"ĠÐ¼Ð¸Ð½":1003,"Ð»ÐµÐ½Ð¸Ñı":1004,"ĠÐ´ÐµÐ²":1005,"ÑĭÐ±":1006,"ÑĢÐ°Ñģ":1007,"ĠÑĥÐº":1008,"ĠÐĶÐ¶":1009,"ĠÐ¿Ð¾ÑģÐ»ÐµÐ´":1010,"...":1011,"ĠÐ±Ð¾Ð»ÑĮÑĪÐµ":1012,"ĠÐ½Ð°ÑģÑĤ":1013,"ĠÑĢÐ°Ð·Ð²":1014,"ÂłÂł":1015,"ĠÑģÐµÑĢ":1016,"ĠÐłÐ¾ÑģÑģ":1017,"ĠÑįÑĤÐ¾ÑĤ":1018,"ĠÐ³Ð¾ÑĢÐ¾Ð´":1019,"ÑĥÑİÑī":1020,"ÑĭÐ¼Ð¸":1021,"Ð°Ð·ÑĭÐ²":1022,"ĠÑģÑĤÐ¾Ð»":1023,"ÐµÐ¶Ð´Ñĥ":1024,"ÑĢÐ°Ñī":1025,"ĠÐ²Ð¾ÑĤ":1026,"ĠÐ±Ð¾Ð»ÐµÐµ":1027,"ĠÐ¿ÑĢÐ¾ÑĤÐ¸Ð²":1028,"Ð½Ð¸ÐºÐ¾Ð²":1029,"ĠÐ¡ÑĤ":1030,"ĠÑıÐ²":1031,"ĠÑįÐº":1032,"ÐµÑĢÑĪ":1033,"Ð²ÐµÑģÑĤ":1034,"ÐĽ":1035,"Ð¾Ð±Ñī":1036,"ÑĥÐ´ÑĮ":1037,"ĠÐ¿ÑĢÐ¾ÑģÑĤÐ¾":1038,"ĠÐ´ÐµÐ¹ÑģÑĤÐ²":1039,"ĠÐ½ÐµÐ²":1040,"ĠÐ´ÑĥÐ¼":1041,"),":1042,"ĠÐ²Ð¾Ð´":1043,"ĠÐ¼Ð¸ÑĢ":1044,"ĠÐ¾ÑĢ":1045,"Ð½ÑĥÑĤÑĮ":1046,"ĠÐ½Ð¸ÑĩÐµÐ³Ð¾":1047,"Ð³Ð»ÑıÐ´":1048,"Ð¼ÐµÑģÑĤ":1049,"Ð·Ð°":1050,"Ð»Ð°Ð²":1051,"ĠÐ²ÑĭÑģ":1052,"Ð¼Ð¾ÑĤÑĢ":1053,"Ð¾ÑģÑĤÑĮ":1054,"ĠÐ¿Ð¾Ð³":1055,"ĠÐ²Ð¾Ñģ":1056,"ÑİÑī":1057,"Ð²Ð¾":1058,"Ð»Ð¸Ñĩ":1059,"Ð°ÑıÑģÑĮ":1060,"ĠÐ¿ÑĢÐµÐ´ÑģÑĤÐ°Ð²":1061,"ĠÐ¸ÑģÐº":1062,"Ġ3":1063,"Ð¯":1064,"ĠÐ²Ð¾Ð¿":1065,"ĠÐ¶Ð¸Ð²":1066,"ĠÐ´ÐµÐ½ÑĮ":1067,"ĠÑĢÐ¾Ð´":1068,"Ð°ÐºÑĤ":1069,"Ð¾Ð¶Ð´":1070,"Ð¸ÑģÐº":1071,"ĠÐ¼Ð½":1072,"ĠÐ¼ÑĥÐ¶":1073,"ÑĪÐ¸ÑģÑĮ":1074,"Ð¸Ð¿":1075,"ÐµÑĤÑĭ":1076,"Ð½Ð¾Ð¼Ñĥ":1077,"ÑĪÐµÐ»":1078,"ÑĥÐµÑĤ":1079,"ĠÐ·Ð²":1080,"ĠÐ¿Ð¾Ð±":1081,"Ð´Ð¸Ð½":1082,"ĠÑģÑĤÑĢ":1083,"ÂłÐĴ":1084,"ĠÐµÐ¹":1085,"ÐºÐ°Ð¼Ð¸":1086,"Ð¸Ð¾Ð½":1087,"ĠÐĲÐ½":1088,"Ð°Ð½Ð¸Ð¸":1089,"ĠÑĥÐ¼":1090,"ÐµÑģÐ¿":1091,"ĠÐ·Ð°Ð½":1092,"ĠÑĤÑĥÑĤ":1093,"ĠÐ»ÑİÐ´":1094,"ÑĨÐ¸Ð¾Ð½":1095,"ĠÐ·Ð´ÐµÑģÑĮ":1096,"ĠÑģÐ¾Ð·":1097,"Ð»Ð°ÑģÑĤ":1098,"ĠÑĥÐ»":1099,"ĠÑĤÐ¾Ð¶Ðµ":1100,"ÑĥÑĤÑĮ":1101,"ĠÑģÐ¸Ð»":1102,"ÑģÐºÐ¸Ðµ":1103,"ÐµÐºÑĤ":1104,"Ð¾Ð»Ð½":1105,"ĠĠ":1106,"Ð»Ð¸Ð½":1107,"ĠÐ¿ÑĢÐ¾Ð¸Ð·":1108,"ĠÑģÐµÐ¹ÑĩÐ°Ñģ":1109,"Ð»ÐµÐ½Ð¸Ðµ":1110,"ĠÐ½Ð°Ð²":1111,"ĠÐ²Ð¾Ð¹":1112,"ĠÑģÐ¿ÑĢÐ¾Ñģ":1113,"Ð¾Ð»Ð¶":1114,"ÂłÐŁ":1115,"Ð¾Ð¼Ð½":1116,"Ð¸Ð²ÑĪ":1117,"ĠÐ²Ð°Ñģ":1118,"Ð²Ð¾ÑĢ":1119,"ĠÑĩÐµÑĢÐµÐ·":1120,"ĠÑħÐ¾ÑĢÐ¾ÑĪ":1121,"ĠÑĤÐµÐ±Ðµ":1122,"ĠÑĥÐ¶":1123,"ĠÐ²ÑģÐµÑħ":1124,"ĠÐ¼Ð°ÑĤ":1125,"ĠÐ¾Ð±ÑĢÐ°Ð·":1126,"ĠÐ¿Ð¾ÑĤÐ¾Ð¼":1127,"ĠÑĢÐµÐ·":1128,"ĠÐ²ÑģÐµÐ³Ð¾":1129,"Ð¸Ñī":1130,"Ð¸ÐµÐ¼":1131,"ĠÐ¶ÐµÐ»":1132,"Ð£":1133,"ÑįÑĤ":1134,"ĠÑģÑĢÐµÐ´":1135,"ĠÑĤÐµÑĢ":1136,"ĠÑģÐ¾Ð¾Ð±Ñī":1137,"ÑģÐ°":1138,"ĠÐ»ÑĥÑĩ":1139,"ÐµÐºÐ¾":1140,"00":1141,"ĠÐ·Ð°ÑĤ":1142,"ÐµÐ»ÐµÐ¹":1143,"ĠÐ³Ð¾ÑĢ":1144,"ĉĉ":1145,"ĠÐ²ÑģÑĤÑĢ":1146,"ÐµÐ½Ð½ÑĭÐ¹":1147,"ĠÐ½ÐµÑģÐºÐ¾Ð»ÑĮÐºÐ¾":1148,"ĠÐ½Ð°Ðº":1149,"Ð½Ð¸Ñĩ":1150,"ÑıÐ¶":1151,"ĠÑĤÐµÐ¿ÐµÑĢÑĮ":1152,"ÑĤÐµÑĢÐµÑģ":1153,"ÐºÑĤ":1154,"Ð¸ÑĪ":1155,"ÑĨÐµÐ²":1156,"ĠÑĥÑģÑĤ":1157,"ĠÐ½ÐµÐ¹":1158,"Ð¾Ð½Ñĭ":1159,"ÑıÐ½":1160,"ĠÑĢÐ°Ð´":1161,"ĠÐ·ÐµÐ¼":1162,"ÑĢÐ°Ð¶":1163,"ÂłÐĶ":1164,"ĠÐ²Ð´":1165,"Ð³Ð°Ð½":1166,"Ð¾Ð²Ð°":1167,"ĠÐ¿Ð¾Ð½":1168,"ĠÐ³Ð¾Ð´Ñĥ":1169,"ĠÐ½Ð¸Ð¼":1170,"ĠÐ¿ÑĢÐ¾Ð±":1171,"ĠÐ¾ÑģÑĤÐ°Ð²":1172,"Ð¸ÑĢÐ¾Ð²Ð°Ð½":1173,"Ð»Ð¸ÑģÑĮ":1174,"ĠÐ´Ð°":1175,"ĠÐ¾ÑĤÐ½Ð¾":1176,"Ð¾ÑĢÑĤ":1177,"Ð²Ð°":1178,"ÑĭÐ»":1179,"ÐºÐ°Ñħ":1180,"Ð³Ð¸":1181,"ĠÐ´Ð¾ÑĢ":1182,"ÑĢÐ¾Ð¼":1183,"ĠÐ²Ð¾Ð¿ÑĢÐ¾Ñģ":1184,"ÐµÑĩÐ½Ð¾":1185,"ĠÐĴÑĭ":1186,"Ð¾Ñī":1187,"ÑĥÑģÐº":1188,"Ð¼ÐµÐ½":1189,"ĠÐ³Ð»Ð°Ð²":1190,"ĠÑĥÑģÐ¿":1191,"ĠÐºÐ¾Ð¼Ð¿":1192,"Ð½Ð¸ÐºÐ¸":1193,"ĠÐķÑģÐ»Ð¸":1194,"ĠÑĤÐ°ÐºÐ¶Ðµ":1195,"ĠÐ´ÐµÑĤ":1196,"ĠÐ±ÑĢ":1197,"ĠÑĩÑĥÐ²":1198,"ĠÐŀÑĤ":1199,"ÐµÑģÑĤÐ¸":1200,"ĠÐĸ":1201,"Ð»ÐµÑĤ":1202,"ĠÐ½Ð°Ð´Ð¾":1203,"ÐµÐ½Ð½ÑĭÑħ":1204,"ĠÑģÐ²Ð¾ÐµÐ¹":1205,"Ð²Ð¾Ð»":1206,"ĠÑĢÐ°Ð½":1207,"ÐµÐ½Ð½ÑĭÐµ":1208,"ÑĢÐ°ÑĪ":1209,"Ð½Ð¾Ð²Ð°":1210,"ĠÐºÐ°Ð¶Ð´":1211,"ĠÐ´ÑĢ":1212,"ÐºÐ¸Ð¹":1213,"ÂłÐ¢":1214,"ĠÑĤÐµÑħ":1215,"Ð°Ð²Ð½Ð¾":1216,"ĠÐ¼ÐµÐ¶Ð´Ñĥ":1217,"ĠÐ¼Ð½Ð¾Ð³Ð¾":1218,"ĠÐ²Ð¾Ð·Ð¼Ð¾Ð¶":1219,"ĠÑĤÐ¾ÑĤ":1220,"ĠÐºÐ°ÑĢ":1221,"ÑģÑĤÐ²Ðµ":1222,"ĠÐ²Ð°Ð¼":1223,"ĠÐ½Ð°ÑħÐ¾Ð´":1224,"ĠÐ°Ð½":1225,"Ð¸Ð¼Ð¾":1226,"Ð°ÑİÑĤÑģÑı":1227,"ÐĹ":1228,"Ð°ÑģÐº":1229,"Ð½ÑıÐ»":1230,"ÑĥÐ»ÑĮÑĤ":1231,"Ð¾ÑģÐº":1232,"ÐµÑĢÐ³":1233,"ÐµÐ³Ð´Ð°":1234,"ĠÐ¿Ð¾Ð½Ð¸Ð¼":1235,"Ð±Ð¾ÑĢ":1236,"ĠÐ¸Ñģ":1237,"Ð°Ð»ÑĮÐ½Ð¾":1238,"Ð½Ð°ÐºÐ¾":1239,"Ð²Ð¾Ð´":1240,"ĠÑĥÑģ":1241,"ĠÐ»Ð¸ÑĪÑĮ":1242,"Ð½Ð¸Ðµ":1243,"ĠÐ¿ÑĢÐ¾ÑĪ":1244,"ĠÑĥÑĤ":1245,"ĠÐĶÐ°":1246,"ĠÐ¿ÑĢÐ¸Ðº":1247,"ĠÐ¢Ñĭ":1248,"ĠÐ²ÐµÐ»":1249,"ĠÑįÑĤÐ¾Ð¹":1250,"ĠÐ¿Ð¾ÐºÐ°":1251,"ÑĨÐ¸Ñİ":1252,"ĠÑĢÐ°ÑģÑģ":1253,"ĠÐ¼Ð°Ð»":1254,"ĠÐ³Ð»Ð°Ð·Ð°":1255,"ÑĭÑĩ":1256,"ĠÑĥÐ¿":1257,"ĠÐ³Ð¾Ð»Ð¾Ñģ":1258,"ĠÑĥÐ·":1259,"ĠÑħÐ¾Ñĩ":1260,"ĠÐ¿ÑĢÐ¸Ð¼":1261,"ĠÑĢÐ°ÑģÑģÐº":1262,"ĠÐ¾ÐºÐ°Ð·":1263,"ĠÑģÐµÐ¼":1264,"ĠÑģÐ²Ð¾Ñİ":1265,"Ð¸Ð·Ð½Ð¸":1266,"ĠÐ·Ð½Ð°Ñĩ":1267,"Ð¾Ð²Ð°ÑĤÑĮ":1268,"ĠÐ´Ð¾Ð±":1269,"ĠÐºÑĢÐ°Ñģ":1270,"ĠÐ¿ÑĢÐ¸Ñģ":1271,"ĠÐ¼Ð¾ÑĢ":1272,"ĠÐ¿ÑĢÐ¾Ð´Ð¾Ð»Ð¶":1273,"ĠÑģÑĤÐ¾ÑĢÐ¾Ð½":1274,"Ð¾Ð½Ñĩ":1275,"ĠÑģÐ²ÑıÐ·":1276,"Ð»Ð¾Ð¶":1277,"ÂłÐĲ":1278,"ĠÑĤÐµÐ»":1279,"ĠÑĥÐ³":1280,"ĠÐ§ÑĤÐ¾":1281,"Ð²Ð°ÑĢ":1282,"Ð¼Ñĭ":1283,"ÐµÑĢÐµÐ²":1284,"ÑĢÐ°ÑĦ":1285,"ĠÐ¶Ð¸Ð·Ð½Ð¸":1286,"ĠÐ¶ÐµÐ½Ñī":1287,"ĠÐ½ÐµÐµ":1288,"ĠÑĥÑģÐ»":1289,"Ð¾Ð»Ð¾Ð³":1290,"ÐµÐ½Ð¾":1291,"Ð½Ñİ":1292,"Ð»ÐµÐ´":1293,"Ð»ÐµÐ¼":1294,"ĠÑĥÐ²Ð¸Ð´":1295,"ĠÐ¿Ð¾Ð¶":1296,"ÑģÐºÐ°Ñı":1297,"ĠÐ½ÐµÐ±":1298,"ÑĢÐ°Ð¼":1299,"Ð¸ÑĢÑĥ":1300,"Ð½Ð¸Ð¹":1301,"ĠÐ¶Ð¸Ð·Ð½":1302,"ÑģÑĤÐ²ÐµÐ½Ð½Ð¾":1303,"ĠÐ¿Ð¾ÑĤÐ¾Ð¼Ñĥ":1304,"ĠÐ´Ð¾Ðº":1305,"ĠÐ½Ð¾Ð³":1306,"ÐµÐ½Ð½Ð¾Ð¹":1307,"Ð¾ÑģÐ¾Ð±":1308,"Ð¸ÑıÑĤ":1309,"ĠÐ¾ÑģÐ¾Ð±":1310,"ÑĪÐ¸Ð¹":1311,"ĠÐ¸Ð¼Ðµ":1312,"Ð¼Ð°Ð½":1313,"ĠÐľÐ°ÑĢ":1314,"ÑģÑĤÑĥÐ¿":1315,"Ð°Ð³Ð¾":1316,"ĠÐŀÐ´":1317,"ÑĤÐ°Ðº":1318,"Ð³Ð°":1319,"ĠÐľÑĭ":1320,"ÑģÐµÐ¼":1321,"ÑĢÑĭÑĤ":1322,"ĠÑĩÐ°Ñģ":1323,"Ð½ÑĥÐ²":1324,"Ð±Ñĭ":1325,"ĠÐ¾ÑģÐ½Ð¾Ð²":1326,"ĠÐ½Ð¾Ñĩ":1327,"Ð¿ÑĢÐµÐ´":1328,"ĠÑĢÐµ":1329,"ĠÑģÑĩÐ¸ÑĤ":1330,"Ð½Ð¸Ð±":1331,"ÑĥÐ´Ð°ÑĢ":1332,"ĠÐ²Ð°ÑĪ":1333,"ÐµÑĢÐ²":1334,"Ð½Ð°ÑĢ":1335,"ÐµÑģÑĮ":1336,"Ð¤":1337,"ĠÑģÐ¾Ð²ÐµÑĢÑĪ":1338,"ĠÐ»ÐµÐ³":1339,"ĠÐ¿ÑĢÐ¸Ð´":1340,"Ð½Ð¾ÑģÑĤÑĮÑİ":1341,"ĠÑģÐºÐ¾ÑĢ":1342,"Ð½ÑĥÑĤ":1343,"ÐµÐ³Ð¾Ð´":1344,"ĠÐ²Ð¼ÐµÑģÑĤ":1345,"Ð±Ð¾":1346,"ĠÐ½Ð°Ð±":1347,"Ð´ÐµÑĢÐ¶":1348,"Ð½Ð¸Ð±ÑĥÐ´ÑĮ":1349,"Ð°ÑĤÐµÐ»ÑĮÐ½Ð¾":1350,"Ð»Ð°ÑģÑĮ":1351,"ĠÐ½ÐµÑģ":1352,"ĠÑįÑĤÐ¸":1353,"ĠÑģÑĤÐ°Ð»":1354,"ÑĦÐ¾ÑĢ":1355,"Ð¸ÑĪÑĮ":1356,"ĠÑİ":1357,"ĠÑģÑĭ":1358,"ĠÑĥÐ»ÑĭÐ±":1359,"Ð¾Ð²Ð¾Ð»ÑĮ":1360,"ĠÐŀÐ½Ð¸":1361,"ĠÑģÐ½Ð¾Ð²Ð°":1362,"ĠÐ²ÑģÐµÐ³Ð´Ð°":1363,"ĠÑģÐ¾Ð³":1364,"Ð¼Ðµ":1365,"ĠÐ¼ÐµÐ´":1366,"Ð°ÑģÑģ":1367,"ĠÐ²ÐµÐ´ÑĮ":1368,"ĠÐ¿ÑĢÐ¾Ñģ":1369,"ĠÐłÐ¾ÑģÑģÐ¸Ð¸":1370,"ÑģÐºÐ¾Ð¼":1371,"ĠÑĤÐ°ÐºÐ¾Ð¹":1372,"ÂłÐ¯":1373,"Ð°ÑĤÑĭ":1374,"Ð¾ÑĢÐ°":1375,"ĠÐºÐ°Ð¼":1376,"ĠÑģÐ¾ÑģÑĤÐ°Ð²":1377,"ĠÐ´Ð²Ð°":1378,"Ð¾Ð²Ð°ÑĢ":1379,"Ð¸Ð²Ð°ÑĤÑĮ":1380,"ĠÐ¿Ð¾Ñħ":1381,"Ġ4":1382,"Ð´ÐµÑĤ":1383,"ĠÑĤÐ¾Ð³Ð´Ð°":1384,"ĠÐ¼ÐµÑĤ":1385,"ĠÑĤÐµ":1386,"ĠÐ¾ÑĤÐ´":1387,"ĠÐ²ÑģÐµÐ¼":1388,"ĠÐ´Ð¾ÑĢÐ¾Ð³":1389,"Ð°ÑĤÐ°":1390,"ĠÑģÐ¼Ð¾ÑĤÑĢ":1391,"Ġ201":1392,"ĠÑģÐ¸Ð´":1393,"ĠÐ¿Ð¾ÑıÐ²":1394,"Ð»Ð¾Ð½":1395,"ĠÐ¾Ð±Ñī":1396,"ĠÐ²ÑģÑı":1397,"ÐµÑĢÐµ":1398,"ĠÐĿÐ¸Ðº":1399,"ÂłÐļ":1400,"Ð°Ð¹ÑĤÐµ":1401,"Ð»Ð¸Ð·":1402,"ĠÐ¿ÑĢÐ¾Ð³":1403,"ÑĢÐ°Ð·Ñĥ":1404,"Ð¾ÐºÐ°":1405,"ÂłÐ¡":1406,"Ð»Ð¾Ð²":1407,"ÑĤÐ¾Ð¼":1408,"Ð¾ÑıÑĤ":1409,"ĠÑĩÐµÐ³Ð¾":1410,"ĠÐ¦":1411,"Ð¸ÑģÑĮ":1412,"ĠÐ²ÑĤÐ¾ÑĢ":1413,"ĠÐºÐ°Ð·":1414,"ĠÐ¿Ð¾ÑĩÑĤÐ¸":1415,"ĠÐ´ÐµÐ»Ð¾":1416,"ĠÐ»ÑİÐ´ÐµÐ¹":1417,"ĠÐ·Ð°Ð¼ÐµÑĤ":1418,"ĠÑĤÐ¾ÑĢ":1419,"Ð°Ð´ÑĨ":1420,"ĠÐ²ÑĭÐ¿":1421,"Ð§":1422,"ÐŃ":1423,"ÑĢÑĥÐ·":1424,"ĠÐŀÐ±":1425,"ÑħÐ²Ð°ÑĤ":1426,"ÑĤÐ¾Ñĩ":1427,"Ð¸ÑģÑģ":1428,"ĠÐ¿ÑĢÐ¸Ñĩ":1429,"Ð¾Ð¼Ð¸Ð½":1430,"Ð¾ÐºÐ¾Ð¹":1431,"Ð²Ð°Ð½":1432,"ĠÑģÑĥÑīÐµ":1433,"ĠÐ½Ð¸ÐºÐ°Ðº":1434,"ĠÐ³Ð¾Ñģ":1435,"ĠÐ³Ð¾ÑĤÐ¾Ð²":1436,"Ð¾ÐºÐ¾":1437,"ĠÑģÐ²Ð¾Ð¸Ñħ":1438,"Ð¾Ð½Ð¸":1439,"Ð¾Ð´Ð°":1440,"ĠÐ¿Ð¾ÐºÐ°Ð·":1441,"ÑĩÐ¸Ðº":1442,"Ð°Ð»Ðµ":1443,"ĠÐ¾ÑĢÐ³Ð°Ð½":1444,"ĠÐĴÑģÐµ":1445,"Ð»ÐµÐºÑģ":1446,"ĠÐ¸ÑģÑĤÐ¾ÑĢ":1447,"ÑıÐ±":1448,"ĠÐ¿ÑĢÐ¸ÑĪ":1449,"Ð°ÐµÑĪÑĮ":1450,"Ð¸Ð½Ð¾Ð¹":1451,"ĠÐ¿ÑĥÑģÑĤ":1452,"Ġ5":1453,"Ð¾ÑĢÐ¾Ð²":1454,"Ð°ÑıÐ²":1455,"ÑĨÑĥ":1456,"ĠÑģÐµÐº":1457,"ÑıÑģÐ½":1458,"ĠÑĢÑıÐ´":1459,"ĠÐ¾ÑĤÐ²":1460,"ĠÐ·Ð°Ñģ":1461,"ÑĢÑĥÐ¿Ð¿":1462,"Ð½ÑĥÐ»Ð°ÑģÑĮ":1463,"ĠÑģÐ¸Ð»ÑĮ":1464,"ĠÑģÐ²Ð¾Ð¸":1465,"Ð½ÐµÐ¼":1466,"ĠÐ²Ð·Ð³Ð»ÑıÐ´":1467,"ĠÑģÐ²Ð¾ÐµÐ³Ð¾":1468,"Ð¸Ð·Ð°":1469,"ÑĢÐµÑĤ":1470,"Ð´Ñĭ":1471,"ĠÐ²ÑģÐ¿":1472,"ĠÐ´ÐµÑĢÐµÐ²":1473,"ĠÐ½Ð°Ð¿ÑĢÐ°Ð²":1474,"ĠÐ´Ð°Ð½":1475,"ĠÑģÐ²ÐµÑĤ":1476,"Ð¼ÐµÑĤ":1477,"Ð°ÑĢÐ°":1478,"ĠÐ¼Ð°ÑĪ":1479,"ĠÐ¼Ð¸Ð½ÑĥÑĤ":1480,"ÑĮÐµ":1481,"ÐµÐ³Ð¾Ð´Ð½Ñı":1482,"ÑĢÑĥÑĪ":1483,"ĠÐ·Ð°Ð³":1484,"ÂłÐŀ":1485,"ĠÑħÐ¾ÑĤÑı":1486,"ÑĪÐ¸Ñħ":1487,"ĠÐŁÐ¾Ñģ":1488,"ĠÐ²ÑĢÐµÐ¼ÐµÐ½Ð¸":1489,"\",":1490,"ĠÐ¿Ð¾Ð»Ð¾Ð¶":1491,"ĠÐ·Ð°ÑĢ":1492,"ĠÐ¿Ð¾Ð²ÐµÑĢ":1493,"ÑĢÐ¾Ð¿":1494,"Ð¸ÑĤÑĥ":1495,"ÐµÑĢÐº":1496,"ĠÐ·Ð°ÑıÐ²":1497,"ĠÐ¸Ð½ÑĤÐµÑĢÐµÑģ":1498,"ÑģÐ»ÐµÐ´":1499,"ĠÐ¿Ð»Ð°Ð½":1500,"Ð¾Ð½Ð¾Ð¼":1501,"ĠÑģÐ²Ð¾Ð¹":1502,"ĠÐĿÑĥ":1503,"ÐµÐ½ÑĤÐ°":1504,"ĠÑģÑĥÐ´":1505,"ÑĭÐº":1506,"Ð¾Ð²Ð¾Ð¹":1507,"ĠÑĢÑĥÐºÐ¸":1508,"ĠÐ¿Ð»Ð¾":1509,"ĠÑıÐ²Ð»Ñı":1510,"ÑģÑĤÐ²Ð¾Ð¼":1511,"ÐµÐºÐ¾ÑĤÐ¾ÑĢ":1512,"Ð½ÐµÐ²":1513,"ĠÐ·Ð´":1514,"ĠÐ²Ð½Ð¸Ð¼":1515,"ĠÐ¿ÑĥÑĤ":1516,"Ð°ÑĤÐ¸":1517,"ÑĢÐ°Ñħ":1518,"ĠÐºÑĢÐ¾Ð²":1519,"Ð¾Ð²Ð°Ð½Ð¸Ñı":1520,"ĠÐºÐ°ÐºÐ¾Ð¹":1521,"ĠÐ³Ð¾ÑģÑĥÐ´Ð°ÑĢ":1522,"ĠÐĴÐ¾ÑĤ":1523,"ĠÐ½Ð¸ÐºÐ¾Ð³Ð´Ð°":1524,"ĠÑĤÑĢÐ¸":1525,"Ð²Ð¸Ð½":1526,"ĠÑģÐ¿Ð¾ÑģÐ¾Ð±":1527,"ĠÑģÐ¾Ð±Ð¾Ð¹":1528,"Ð¾Ð±ÑīÐµ":1529,"ĠÐºÐ¾ÑĤÐ¾ÑĢÐ°Ñı":1530,"Ð¨":1531,"ĠÐ¿Ð¾Ð¼Ð¾Ñī":1532,"ĠÐ½ÑĥÐ¶Ð½Ð¾":1533,"ĠÑģÑĢÐ°Ð·Ñĥ":1534,"Ð°ÑĤÑĢ":1535,"Ð»Ð¾ÑģÑĮ":1536,"ĠÐĺÐ·":1537,"ĠÐĲÑĢ":1538,"ÐµÐ½Ð½Ð¾Ð³Ð¾":1539,"ÑģÑĤÐ²Ñĥ":1540,"ÑĳÐ½":1541,"Ð¾Ð»Ð¾Ð´":1542,"ÑĩÐ¸Ð²":1543,"Ð°Ñī":1544,"ÑĦÐ¸ÑĨ":1545,"ĠÑħÐ¾Ð´":1546,"ĠÐ¶Ð¸Ð·Ð½ÑĮ":1547,"ĠÐ¼Ð¾Ð¼":1548,"ĠÑģÐ»ÑĥÐ¶":1549,"ĠÑģÐ¾Ð²ÑģÐµÐ¼":1550,"ĠÐ¸Ð·Ð²ÐµÑģÑĤ":1551,"Ð¾Ð½ÐµÑĨ":1552,"ĠÐ¾Ð³":1553,"ÑįÑĤÐ¾Ð¼Ñĥ":1554,"ĠÐ¿ÑĭÑĤ":1555,"ĠÑĪÑĤ":1556,"ĠÑĢÐ°Ð·Ð³":1557,"ĠÑĩÐµÐ»Ð¾Ð²ÐµÐºÐ°":1558,"ĠÐ¼Ð¾Ð»Ð¾Ð´":1559,"ÂłÐľ":1560,"ĠÐ»ÑİÐ´Ð¸":1561,"ĠÑĤÑĢÑĥÐ´":1562,"ĠÑĥÐ´Ð¸Ð²":1563,"Ð°ÑĤÑĥ":1564,"ĠÐ²ÐµÑĩ":1565,"ÑħÑĢÐ°Ð½":1566,"ĠÐºÐ°Ð¿":1567,"Ð»Ð¸ÑĪ":1568,"ĠÐºÐ¾ÑĤÐ¾ÑĢÐ¾Ð¹":1569,"ĠÑģÐ¿ÑĢÐ¾ÑģÐ¸Ð»":1570,"ÐºÐ¸Ñħ":1571,"ĠÐ±Ð¾":1572,"Ð¾Ð»ÑĮÑĪ":1573,"ĠÐ·Ð½Ð°Ñİ":1574,"Ð²ÐµÐ´":1575,"ĠÑĥÑĩÐ°ÑģÑĤ":1576,"ĠÑĤÐ¾Ð»":1577,"ĠÐ¾ÑĤÐ½Ð¾ÑĪ":1578,"ĠÑģÐ¾Ð·Ð´":1579,"Ð°Ðµ":1580,"Ð¸Ð½Ð¾Ð²":1581,"Ð¾Ð¶ÐµÑĤ":1582,"Ð»Ð°ÑģÑĤÐ¸":1583,"ĠÐ¿ÑĢÐ¸Ñħ":1584,"ĠÑģÐºÐ°Ð·Ð°Ð»Ð°":1585,"ĠÑĢÑĥÑģ":1586,"ĠÐ´Ð°Ð»ÑĮ":1587,"Ð¾ÑĢÐ¾ÑĤ":1588,"ĠÐ¼Ð½Ð¾Ð³":1589,"ĠÑī":1590,"ĠÐ±ÐµÑĢ":1591,"Ð°Ð»ÑĮÐ½Ð¾Ð¹":1592,"ĠÐ¿ÑĢÑıÐ¼":1593,"ĠÐ¸Ð¼ÐµÐ½Ð½Ð¾":1594,"ÑħÐ¾Ð´Ð¸ÑĤ":1595,"ĠÐ¼Ð¸Ð»":1596,"ĠÐ¿Ð¾ÑģÐ¼Ð¾ÑĤÑĢ":1597,"ĠÐ½ÐµÐ·":1598,"Ð½Ð¾Ñģ":1599,"ĠÐ²ÑģÑĤÑĢÐµÑĩ":1600,"ÐµÑģÑĤÑĮ":1601,"ĠÐ½ÐµÐ¾Ð±":1602,"ÑĤÐ¾ÑĢÐ°":1603,"ĠÐ¼Ð°Ð³":1604,"ĠÑĨÐµÐ»":1605,"\".":1606,"Ð¸ÑĤÐµÐ»Ñı":1607,"Ð»ÐµÐ½Ð½Ð¾":1608,"Ð¾Ð²Ð°Ð»":1609,"ÐµÐ´Ð¸Ð½":1610,"ĠÑĢÐ°ÑģÐ¿":1611,"Ð»ÐµÐ¹":1612,"ĠÐ¿Ð¾ÑĩÐµÐ¼Ñĥ":1613,"ĠÐ³ÑĢÑĥÐ¿Ð¿":1614,"ĠÐºÐ¾ÑĤÐ¾ÑĢÑĭÑħ":1615,"ĠÐ¿ÑıÑĤ":1616,"ĠÑģÐºÐ°Ð·Ð°ÑĤÑĮ":1617,"ĠÐºÐ¾Ð¼Ð½":1618,"ĠÐ½Ð°ÑĢÐ¾Ð´":1619,"ÑıÑħ":1620,"ĠÐ²Ð¿ÐµÑĢ":1621,"Ð°ÑĤÐµ":1622,"Ð¾Ð±Ð¾Ð´":1623,"ĠÐ´Ð°Ð»":1624,"ĠÐ°Ðº":1625,"ĠÑħÐ¾ÑĢÐ¾ÑĪÐ¾":1626,"ĠÐ¿ÑĢÐ¸Ð±":1627,"Ð²Ñĭ":1628,"ĠÐ¸Ð³ÑĢ":1629,"ÑģÐºÐ¸Ð¼":1630,"Ð¿Ð¾Ð´":1631,"Ð°Ð½Ñĭ":1632,"ĠÐºÐ¾Ð¼Ð°Ð½Ð´":1633,"Ð°ÑĤÐ¾":1634,"ĠÐ¸ÑģÐ¿Ð¾Ð»ÑĮÐ·":1635,"Ð½Ð¸Ñħ":1636,"ĠÐºÐ½Ð¸":1637,"ÑĤÐ¾ÑĢÑĥ":1638,"Ñĸ":1639,"ĠÐļÐ¾Ð½":1640,"ÑĢÐ°ÑģÑĤ":1641,"ÑıÐ³":1642,"Ð½ÐµÐ³Ð¾":1643,"ÑĢÐ¸ÑģÑĤ":1644,"ĠÐ²Ð¼ÐµÑģÑĤÐµ":1645,"ĠÑģÐ»Ð¾Ð²Ð½Ð¾":1646,"ĠÐ²ÐµÑģÑĮ":1647,"ĠÐ®":1648,"ÑĳÑĤ":1649,"ĠÑĢÐµÐº":1650,"ĠÐ²ÑģÑĳ":1651,"ĠÑģÐ¾ÑģÑĤÐ¾Ñı":1652,"ÑĢÐ°Ñĩ":1653,"ÐµÐ·Ð´":1654,"ÑĪÐµÐ³Ð¾":1655,"ĠÑģÐ¾ÑĤ":1656,"ÐµÑĢÐµÐ´":1657,"ĠÐ±ÐµÐ»":1658,"Ð°ÐºÐ¾Ð¼":1659,"Ð¾Ð·Ñı":1660,"ĠÐļÐ¾Ð³Ð´Ð°":1661,"ĠÐ´Ð°Ð²":1662,"ĠÑģÑĥÐ¼":1663,"ĠÐ±ÐµÑģ":1664,"Ð»Ð°Ð³":1665,"Ð°Ð½Ð¾":1666,"ĠÐ»ÑĥÑĩÑĪÐµ":1667,"ÑīÐµÐµ":1668,"ÑĥÐ¹":1669,"Ġ18":1670,"Ð»Ð¸ÑĪÐºÐ¾Ð¼":1671,"Ð´ÑĢ":1672,"ĠÐ±ÑĭÐ²":1673,"Ð¾Ð½Ðµ":1674,"ĠÐ¼ÐµÑģÑĤÐ¾":1675,"ÐºÐ¸Ðµ":1676,"ĠÑģÐ¾Ð±ÑģÑĤÐ²ÐµÐ½":1677,"ĠÐ¿Ð¾Ð´ÑĥÐ¼":1678,"Ð²Ðµ":1679,"ĠÐ¿ÐµÑĢÐµÐ²":1680,"ĠÐ£Ðº":1681,"ÑĥÐ¶Ð´":1682,"Ð°Ð½Ñģ":1683,"ĠÐ³Ð¾Ð»Ð¾Ð²Ñĥ":1684,"Ð°ÑĢÐ¸":1685,"ĠÑĢÑĥÐ±":1686,"ĠÐ¾Ð±ÑĢÐ°ÑĤ":1687,"Ð»Ð¾Ð¼":1688,"Ð½Ð¸Ð·":1689,"Ð¸Ð²Ð°ÐµÑĤ":1690,"ĠÐ´Ð¾Ð»Ð¶ÐµÐ½":1691,"ÑģÑıÑĩ":1692,"ĠÑĤÑıÐ¶":1693,"ĠÐ¿Ð»ÐµÑĩ":1694,"ĠÑıÐ·":1695,"ĠÐľÐ¾ÑģÐº":1696,"ĠÐ´Ðµ":1697,"ÐµÐ½ÐµÑĢ":1698,"ÑĪÐ¸Ðµ":1699,"ÐŀÐ½":1700,"ĠÐ¾Ð¶":1701,"ĠÐ²ÑĭÐ·":1702,"Ð¸ÑĩÐµÑģÐºÐ¾Ð¹":1703,"ĠÑģÐ»Ð¾Ð²Ð°":1704,"ÑĭÐ²Ð°ÑĤÑĮ":1705,"ĠÐ´ÐµÐ²ÑĥÑĪ":1706,"ĠÐ¿ÑĢÐ¾ÑĨ":1707,"ĠÑģÐ»ÑĭÑĪ":1708,"ÑĤÑĥ":1709,"ĠÐ¿ÑĢÐ¾Ñĩ":1710,"ĠÑģÐ¾Ð³Ð»Ð°Ñģ":1711,"ĠÐ±Ð¾Ð³":1712,"Ð¾ÑĤÐ¾Ð¼":1713,"ÑĩÐµ":1714,"ĠÐ¡Ðº":1715,"ÑĪÐµÐ¹":1716,"ĠÐ´ÐµÑģÑı":1717,"ĠÐ´ÑĥÑĪ":1718,"ĠÐ±ÑĢÐ¾Ñģ":1719,"ĠÐ¾ÑĤÐ¿ÑĢÐ°Ð²":1720,"Ð¸ÑĩÐµÑģÐºÐ¸":1721,"ĠÐ¼Ð¾Ð¹":1722,"Ð¸ÐºÐ¾Ð²":1723,"ĠÑĢÐ°ÑģÑĤ":1724,"Ð¸ÑĤÐµÐ»ÐµÐ¹":1725,"ĠÐ¿ÑĢÐ¾Ð¸Ñģ":1726,"ĠÑģÑĤÐ°Ð½":1727,"ĠÐ¼Ð¾Ð¼ÐµÐ½ÑĤ":1728,"ĠÑĢÑĥÐºÑĥ":1729,"ÂłÐĶÐ°":1730,"ÑıÐ¼Ð¸":1731,"ĠÐµÐ´Ð¸Ð½":1732,"ĠÐ¾Ð·":1733,"ĠÐķÐ³Ð¾":1734,"ĠÐ²ÑĭÐ±":1735,"ĠÐ¾Ð¿ÑĢÐµÐ´":1736,"ĠÐ¿ÑĢÐµÐº":1737,"ĠÐĲÐ»ÐµÐºÑģ":1738,"ÑĢÐ¸Ð¼":1739,"ĠÐ½ÐµÐºÐ¾ÑĤÐ¾ÑĢ":1740,"ĠÐ¿ÑĢÐ¾Ð¿":1741,"ÑİÑĤÑģÑı":1742,"ĠÑģÐ¼ÐµÑĢ":1743,"Ð¾ÑĦ":1744,"ĠÐ¼ÑĥÐ¶Ñĩ":1745,"Ġ6":1746,"ĠÐŁÐ¾Ð´":1747,"ĠÑįÑĤÐ¸Ñħ":1748,"Ð¥":1749,"ĠÑģÑĤÐ¾ÑĢÐ¾Ð½Ñĭ":1750,"ÐµÐ²Ð°":1751,"Ð°Ð»ÑĮÐ½ÑĭÐµ":1752,"ÐµÐ½Ð½ÑĭÐ¼":1753,"ĠÐ´ÑĢÑĥÐ³Ð¾Ð¹":1754,"ĠÐºÑĥÑĢ":1755,"ĠÑģÐ»ÑĥÑĩÐ°Ðµ":1756,"ĠÐ²Ð´ÑĢÑĥÐ³":1757,"ĠÑģÐ¾Ñģ":1758,"ĠÑĢÐµÐ±":1759,"ĠÑĥÐ²ÐµÑĢ":1760,"ĠÐĺÐ½":1761,"ĠÑįÑĤÑĥ":1762,"ĠÐ´ÐµÑĢÐ¶":1763,"Ð°Ð»ÑĮÐ½ÑĭÑħ":1764,"ĠÐ¿Ð¾Ð´Ð¾Ð±":1765,"Ð¼Ð¾":1766,"Ð¾ÑĢÐ¾Ð¶":1767,"ĠÐ±Ð»Ð°Ð³":1768,"ĠÐ½ÐµÐ¾Ð±ÑħÐ¾Ð´":1769,"Ð²Ð°Ð»":1770,"Ð»Ð¸Ðº":1771,"ĠÐŁÑĢÐ¸":1772,"ĠÐºÐ¾ÑĤÐ¾ÑĢÐ¾Ð³Ð¾":1773,"ĠÐ¿Ð¾Ð»Ð¸ÑĤ":1774,"ĠÐ±ÑĥÐ´ÑĤÐ¾":1775,"ĠÐ¿Ð¾Ð¹":1776,"ĠÑģÐµÐ³Ð¾Ð´Ð½Ñı":1777,"ĠÑģÐ²Ð¾Ðµ":1778,"ÑĢÐ°Ð´":1779,"Ð¸Ð²Ð°Ð»":1780,"ĠÑģÐ»Ð¸ÑĪÐºÐ¾Ð¼":1781,"ÑĥÑİÑĤ":1782,"ĠÑģÐ¾Ð±Ð¸ÑĢ":1783,"ĠÐºÑĥÐ´Ð°":1784,"ĠÑģÐµÑĢÐ´":1785,"ĠÐºÐ¾Ð½ÐµÑĩÐ½Ð¾":1786,"ĠÐ½Ð°Ð¹":1787,"ĠÐ¼Ð°ÑĢ":1788,"ĠÐ£ÐºÑĢÐ°":1789,"ÐµÐ»ÐµÐ½":1790,"ĠÐ³Ð»ÑĥÐ±":1791,"19":1792,"ÑĤÑĭ":1793,"ĠÐ²ÐµÐ´":1794,"ÐµÑĢÑĭ":1795,"ĠÐ½Ð°Ð·Ð°Ð´":1796,"ÑĢÐµÐ·":1797,"Ð¾Ð»Ð¾":1798,"ĠÑģÐ¸ÑģÑĤ":1799,"Ð¸Ð½Ð³":1800,"ĠÑĤÑĭÑģÑıÑĩ":1801,"ĠÐ²Ð¿":1802,"ÑĥÐ»Ñı":1803,"Ð¾Ð»ÐµÑĤ":1804,"Ð¾ÑĢÐµ":1805,"ÑİÐ´Ð°":1806,"ĠÐ¸Ð·Ð±":1807,"ÐµÑĦ":1808,"ÑĦÐ¾ÑĢÐ¼Ð°":1809,"ĠÑĩÐ¸Ñģ":1810,"ĠÐ¿ÑĢÐ¸Ð·Ð½":1811,"ĠÑĤÐ°ÐºÐ¾Ðµ":1812,"Ð²Ð¸":1813,"Ð¸ÑĤÐ°Ð½":1814,"Ð°Ð¶ÐµÑĤÑģÑı":1815,"Ð¸Ð²Ð°Ñı":1816,"ĠÐµÑĳ":1817,"Ð¾ÑĤÐ°":1818,"ĠÐ¾Ð³ÑĢ":1819,"ĠÐ´Ð¾Ð¼Ð°":1820,"Ð°Ð»Ð¸ÑģÑĤ":1821,"ĠÑĤÐ¾Ð¼Ñĥ":1822,"ĠÐ¾ÑģÑĤÐ°Ð½Ð¾Ð²":1823,"ĠÐ½Ð¾Ñģ":1824,"ĠÐ¿ÑĢÐ¸ÑħÐ¾Ð´":1825,"ĠÐ»Ð¸Ñĩ":1826,"Ð°Ð»ÑĮÐ½Ð¾Ð³Ð¾":1827,"ĠÑĢÐ°ÑģÑģÐºÐ°Ð·":1828,"ĠÐ¿Ð¾Ð·Ð²Ð¾Ð»":1829,"ĠÐ²Ð½Ñĥ":1830,"ĠÑģÐ²Ð¾Ð¸Ð¼":1831,"ĠÐ²Ð¾Ð¾Ð±ÑīÐµ":1832,"ĠÐ±ÑĭÑģÑĤÑĢÐ¾":1833,"Ð¸ÑĩÐµÑģÐºÐ¸Ñħ":1834,"ĠÐ´Ð²ÑĥÑħ":1835,"ĠÐ¿ÑĢÐµÐ²":1836,"ÑĳÐ¼":1837,"Ð¸ÑĤÐ°":1838,"Ð·Ñı":1839,"ĠÑĢÑıÐ´Ð¾Ð¼":1840,"ÑģÐºÐ¾Ðµ":1841,"ĠÐ³ÑĥÐ±":1842,"ĠÑįÑĤÐ¸Ð¼":1843,"ÐµÑĨÐ¸":1844,"ÐµÑĢÑĥ":1845,"ĠÐ²ÑĭÑħÐ¾Ð´":1846,"ÐµÐ¶Ð´":1847,"Ð°Ð»ÑĮÐ½ÑĭÐ¹":1848,"ÑīÑĳ":1849,"ĠÐ´Ð¾Ð³":1850,"ÑĨÐ¾Ð²":1851,"ÑĨÐµÐ½":1852,"ĠÐ¾Ð´Ð½Ð¾Ð¹":1853,"ĠÐ²Ð°Ð¶":1854,"Ð»ÑİÐ´":1855,"ĠÐ·Ð°Ð½Ð¸Ð¼":1856,"Ð¸ÐºÐ°Ð½":1857,"ĠÐ¾ÑĤÐ²ÐµÑĤÐ¸Ð»":1858,"ĠÐ±ÑĥÐ´ÑĥÑĤ":1859,"ĠÐ½Ð°Ð·ÑĭÐ²":1860,"ĠÐŁÐ¾Ð»":1861,"Ð½ÐµÑĤ":1862,"ĠÐŁÐµÑĤ":1863,"ÑĢÑıÐ´":1864,"ĠÑĤÐ²Ð¾":1865,"Ð¸Ð·Ð½ÐµÑģ":1866,"ÐµÑı":1867,"Ð»ÑģÑı":1868,"Ð³Ð¾ÑĤÐ¾Ð²":1869,"ĠÑĤÑĢÐµÐ±":1870,"ĠÐ½ÐµÐ¿ÑĢ":1871,"ĠÑĢÐ°Ð¹":1872,"Ð¼Ð¸Ð½":1873,"Ð¾ÑıÑī":1874,"ĠÐ²ÐµÑģ":1875,"Ð¾Ð·Ð¼Ð¾Ð¶":1876,"ĠÐ»Ð¸ÑĨÐ¾":1877,"ĠÑĢÐ°Ð·Ð±":1878,"ĠÐ·Ð°Ñī":1879,"ÐµÑĩÑĮ":1880,"ÑĢÐµÐ±":1881,"ĠÑĢÐµÐ·ÑĥÐ»ÑĮÑĤ":1882,"ĠÑĢÐ°Ð·Ð´":1883,"Ð¾Ð²Ð°Ð½Ð¸Ðµ":1884,"ĠÑĤÐ¾Ñĩ":1885,"Ð±Ð°":1886,"ĠÑĥÐ´Ð°ÑĢ":1887,"ÐµÑĢÐ¾Ð¼":1888,"Ð°Ð½Ð¸Ð¹":1889,"ÑħÐ¾ÑĤ":1890,"ĠÐ·Ð°Ð»":1891,"ĠÑĪÐ°Ð³":1892,"Ð¸ÑĨÑĭ":1893,"ĠÑĥÐ»Ð¸":1894,"ÑĤÐ¾ÑĢÑĥÑİ":1895,"ĠÐ¿Ð°Ð»ÑĮ":1896,"ĠÑĨÐ²ÐµÑĤ":1897,"ĠÐ±Ð¾ÑĢ":1898,"ĠÐ»ÐµÐ¶":1899,"ĠÐ¼Ð¾Ð³Ñĥ":1900,"ĠÐ¿ÑĢÐµÐ´Ð»Ð¾Ð¶":1901,"Ð¾Ð±ÑĢÐ°Ð·":1902,"ĠÐ¸Ð´":1903,"ĠÑĨÐµÐ½ÑĤ":1904,"ĠÐ´ÑĢÑĥÐ³Ð¸Ñħ":1905,"ĠÐ½Ð°ÑĩÐ¸Ð½":1906,"ĠÐ´Ð¾Ð¿":1907,"ÑıÐ»Ð¸":1908,"ĠÑĪÐº":1909,"ÂłÐĺ":1910,"ĠÑģÐ½":1911,"ĠÐ²Ð¾Ð·Ð²":1912,"Ð»ÑıÑĤÑĮ":1913,"ÂłÐ§":1914,"ĠÐ¾Ð±ÑīÐµ":1915,"ÐµÐ½Ð´":1916,"Ð¸Ð½Ð¾":1917,"ĠÑģÐ´ÐµÐ»Ð°ÑĤÑĮ":1918,"ĠÑĢÐ°ÑģÐº":1919,"ÑıÐ±ÑĢÑı":1920,"ĠÐ²ÐµÑĤ":1921,"ÑĢÐ°Ð»":1922,"ĠÐķÐ²":1923,"Ð¸ÑĤÐµÐ»Ð¸":1924,"ÑĢÑĮ":1925,"ĠÐ¿ÑĢÐµÐ¶":1926,"Ð¸ÐºÐµ":1927,"ĠÐ¾ÑĤÑĩ":1928,"ĠÐ¼Ð°ÑĤÐµÑĢÐ¸":1929,"ĠÑģÑĤÐ¾ÑĢÐ¾Ð½Ñĥ":1930,"ĠÑģÐ¼Ð¾Ð³":1931,"ĠÐŀÐ´Ð½Ð°ÐºÐ¾":1932,"ĠÐ¼Ð°Ð»ÐµÐ½ÑĮ":1933,"ĠÑħÐ¾Ð·Ñı":1934,"ĠÑģÐ¾Ð¿":1935,"ÐµÐ½Ð½Ð¾Ðµ":1936,"ÑıÐ»Ð°":1937,"ĠÐ½Ð¸ÐºÑĤÐ¾":1938,"ĠÐļÐ°ÑĢ":1939,"ÑıÑĤÑģÑı":1940,"Ð¼Ð¾ÑĤ":1941,"ĠÐ¸Ð·Ð¼ÐµÐ½":1942,"ÑģÑĤÐ²Ð¸Ðµ":1943,"ĠÐĴÐ¾":1944,"ĠÐ¼Ð¾Ð³ÑĥÑĤ":1945,"ĠÐľÐ½Ðµ":1946,"ĠÐ¾ÑĤÑģ":1947,"Ð¸ÑĢÐ¾Ð²Ð°ÑĤÑĮ":1948,"ĠÑģÐ¾Ð»":1949,"ĠÐ¾Ð´Ð½Ð¾Ð³Ð¾":1950,"ÐµÑĢÐ¾Ð²":1951,"ĠÑĥÐ·Ð½":1952,"ĠÐłÐ°Ð·":1953,"Ġ200":1954,"Ð»ÐµÐ³":1955,"ĠÐ¾Ð¿Ð°Ñģ":1956,"Ġ7":1957,"ĠÐ´Ð²Ð¸Ð¶":1958,"ÑĨÐ¸Ð¹":1959,"ĠÑĢÑĭ":1960,"ĠÑĢÐ¾ÑģÑģ":1961,"ĠÑģÐ»Ð¾Ð¶":1962,"Ð¾Ð½Ð¾Ð²":1963,"Ð¾Ð´Ð°ÑĢ":1964,"ĠâĢ":1965,"ĠÐºÐ°Ñĩ":1966,"ĠÐ¸Ð³":1967,"ĠÐ¼Ð¾Ð½":1968,"ĠÐĳÐ¾Ð³":1969,"ĠÐ´ÐµÐ»Ð°ÑĤÑĮ":1970,"ĠÐ¿ÑĢÐµÐ·":1971,"ĠÐ¿Ð¸Ñģ":1972,"ÐµÑĢÐ±":1973,"ĠÐ¾Ð±ÑıÐ·":1974,"ĠÐ½Ð°Ð²ÐµÑĢ":1975,"ĠÐ¾Ð±ÑĢÐ°Ð·Ð¾Ð¼":1976,"ĠÐ¾ÑĦÐ¸ÑĨ":1977,"ÑģÐºÑĥÑİ":1978,"ĠÐĿÐµÑĤ":1979,"ĠÐ¿Ð¾Ð¿ÑĭÑĤ":1980,"ĠÐ¼ÐµÐ½":1981,"ĠÐ½ÐµÐ¼Ð½Ð¾Ð³Ð¾":1982,"Ð°ÐºÐ¾Ð²":1983,"ĠÑįÑĤÐ°":1984,"ĠÐ³ÑĢÑĥ":1985,"Ð¾ÑĤÐ¸Ð²":1986,"ÑįÐ½":1987,"ĠÐ´Ð¾Ð»Ð¶Ð½Ñĭ":1988,"ÐµÐ½Ð½Ð°Ñı":1989,"ÑĢÐ¾Ð±":1990,"Ð±Ñĥ":1991,"ĠÐ¾ÑĤÐºÑĢÑĭ":1992,"Ð°Ð´ÑĨÐ°ÑĤÑĮ":1993,"ĠÐµÑīÑĳ":1994,"ÑĥÑĢÑĭ":1995,"ĠÑģÐ°Ð¼Ð¾Ð¼":1996,"ĠÑĤÑĢÑĥ":1997,"ĠÑģÐ¾Ð²ÐµÑĤ":1998,"ĠÐĽÑİ":1999,"ĠÑģÐ¸ÑģÑĤÐµÐ¼":2000,"Ð¾Ð²ÐµÑĢ":2001,"ĠÐ³Ð¾ÑģÑĤ":2002,"ĠÐ¶Ð´":2003,"ÐºÐ¾Ð³Ð¾":2004,"ÐµÐ»Ð¾ÑģÑĮ":2005,"Ð¿Ð¾Ð»Ð¾Ð¶":2006,"Ð´Ð¾":2007,"ĠÑģÐ¿ÐµÑĨÐ¸":2008,"Ġ/":2009,"ĠÐ±ÐµÑģÐ¿":2010,"Ð°Ð´Ð¸":2011,"ĠÐ²Ð¾Ðº":2012,"ĠÐ¿ÑĢÐ¸Ð³":2013,"Ð°Ð¼Ð°":2014,"ÑĢÐµÐ²":2015,"ĠÐ²ÑģÐº":2016,"ĠÐ²Ðº":2017,"Ð¾Ñİ":2018,"ÑĢÐ¾Ð½":2019,"ÑĢÐ°Ð³":2020,"ĠÐºÐ¾ÑĢÐ°Ð±":2021,"ĠÐ²ÑĭÑģÐ¾Ðº":2022,"ĠÑģÑĤÐ°Ð»Ð¾":2023,".,":2024,"ĠÐ·Ð½Ð°Ð»":2025,"Ð¸Ð´Ð°":2026,"ĠÐ´ÑĥÑħ":2027,"ĠÑģÐ±":2028,"Ð¸ÑĩÐµ":2029,"ĠÐ³Ð¾ÑģÐ¿":2030,"ÐºÐ¾Ð²Ð¾Ð´":2031,"ĠÐ¿ÐµÑĢÐµ":2032,"ĠÐ¿ÑĢÐ¸Ð·":2033,"Ð»ÑıÐµÑĤ":2034,"ĠÐ±Ð°ÑĢ":2035,"ĠÐ²ÐµÐ»Ð¸Ðº":2036,"ĠÑĢÐµÐ³":2037,"ĠÐ¼Ð¾Ð»Ñĩ":2038,"ÑıÑģÑĮ":2039,"ĠÐ°Ð´":2040,"ÐµÐ»Ñİ":2041,"Ð¸ÐµÐ¹":2042,"Ð»Ð¸Ð¶":2043,"Ð»ÑıÐ´":2044,"ĠÐ¿Ð¾ÑģÑĤÐ°Ð²":2045,"ĠÐ¿ÑĢÐ¾Ð±Ð»ÐµÐ¼":2046,"ĠÐºÐ¾Ð³Ð¾":2047,"ĠÐºÐ»":2048,"ÑģÑĤÐ²Ð¾Ð²Ð°Ð»":2049,"ĠÑĩÐµÑĤÑĭ":2050,"ĠÐ³ÐµÑĢ":2051,"Ð¸ÑĩÐµÑģÐºÐ¾Ð³Ð¾":2052,"ĠÐ´Ð²ÐµÑĢÑĮ":2053,"ĠÐºÐ²":2054,"ÐºÐ¸Ð¼":2055,"ĠÑģÑĤÐµÐ½":2056,"ĠÐ¿Ð¾Ð´Ð´ÐµÑĢÐ¶":2057,"ĠÐ¿ÑĢÑıÐ¼Ð¾":2058,"Ð¾ÑĢÐ¾Ð½":2059,"ÑıÑĤÑĮÑģÑı":2060,"ĠÑĨÐ°ÑĢ":2061,"Ð°ÐºÑģ":2062,"ĠÐ¾Ñī":2063,"ÂłÐĿÐµ":2064,"ĠÐ»ÐµÑģ":2065,"ĠÑıÑĢ":2066,"ĠÑĦÐ¾ÑĢÐ¼":2067,"Ð´Ð¶":2068,"ĠÐ¼Ð½Ð¾Ð¹":2069,"ĠÐ¸Ð½ÑĦÐ¾ÑĢÐ¼Ð°":2070,"ÑĭÐ²Ð°ÐµÑĤ":2071,"ĠÑĩÑĥÑĤÑĮ":2072,"ĠÑģÐ¾Ð²ÐµÑĢÑĪÐµÐ½Ð½Ð¾":2073,"ĠÐ³Ð°Ð·":2074,"ĠÐ·Ð°ÑĤÐµÐ¼":2075,"ĠÑĥÐ¿ÑĢÐ°Ð²":2076,"ĠÐĹÐ°":2077,"ÑĤÐ¾Ð½":2078,"Ð°Ð»Ð¸Ð·":2079,"ĠÐļÑĢ":2080,"ĠÑĪÐ¸ÑĢ":2081,"ÐºÐ°Ñı":2082,"Ð°ÑĤÐ¸Ð²":2083,"ĠÐ³Ð¾Ð²Ð¾ÑĢÐ¸ÑĤ":2084,"ÑĪÐ»Ð°":2085,"ĠÐ½Ð°ÑĩÐ°Ð»":2086,"ĠÐ¿ÑĢÐ¾Ðº":2087,"Ð´Ð¾Ñħ":2088,"ĠÐ³Ð¾Ð»Ð¾Ð²Ð¾Ð¹":2089,"ÐµÑĩÐ°ÑĤ":2090,"Ġ8":2091,"Ð²Ð¾Ð·":2092,"ĠÐ¿Ð°ÑĢÑĤ":2093,"ÑĩÐ¸ÑĤ":2094,"Ð¾ÑĩÑĮ":2095,"ĠÐ¿Ð¾ÑĤÐµÑĢ":2096,"ÐĿÐ°":2097,"ĠÐ¼ÐµÑģÑı":2098,"ÐµÐ½ÑĤÐ¾Ð²":2099,"ĠÑĢÐ°Ð·ÑĢ":2100,"ĠÐ¿Ð°Ð»":2101,"ĠÐ¿Ð¾ÑĢÑıÐ´":2102,"Ð´ÑĥÑħ":2103,"ĠÐºÐ¾ÑĤÐ¾ÑĢÑĥÑİ":2104,"ĠÐ´Ð½Ñı":2105,"Ð¸ÑĩÐµÑģÐºÐ¸Ðµ":2106,"ĠÐ¾ÑģÑĤÑĢ":2107,"Ð¾Ð³ÑĢÐ°ÑĦ":2108,"ĠÑģÐ²Ð¾Ð±Ð¾Ð´":2109,"ÑĳÐ»":2110,"Ð»Ð¾ÑĤ":2111,"Ð½Ð¸ÐºÐ¾Ð¼":2112,"Ð½Ð°ÑĢÑĥÐ¶":2113,"Ð²ÐµÑĢÐ¶":2114,"ÐµÐ²ÐµÑĢ":2115,"ĠÐ¾Ð´Ð½Ð¾":2116,"ĠÐ¾Ð³ÑĢÐ¾Ð¼":2117,"ÑıÐ»ÑģÑı":2118,"ĠÐ¾Ð¿ÑĢÐµÐ´ÐµÐ»":2119,"ĠÑħÐ¾ÑĤÐµÐ»":2120,"ÑĭÐ²Ð°Ð»":2121,"Ð¸ÐºÑĥ":2122,"Ð»Ñĥ":2123,"ĠÐºÐ°ÑĤ":2124,"ĠÐ²ÐµÐº":2125,"ĠÐ¼ÐµÑĩ":2126,"ĠÐ²ÐµÑī":2127,"Ð³Ð¾Ð²":2128,"ĠÐ·Ð°ÑģÑĤÐ°Ð²":2129,"Ð°ÑĢÐ°Ðº":2130,"ĠÐ¡Ð¿":2131,"ĠÐ¸Ð´Ðµ":2132,"ÂłÐŃ":2133,"ĠÐ²ÑģÑİ":2134,"ÐĿÐ¾":2135,"Ð¾Ð»Ñİ":2136,"ĠÐµÐ´":2137,"ÐµÐ»ÑĮÐ·Ñı":2138,"Ð¾Ð»Ð¾Ð²":2139,"ÑĪÐ»Ð¸":2140,"ÑģÐ¾Ð½":2141,"ĠÐ¾Ð½Ð¾":2142,"ĠÐ²Ð¾ÑģÐ¿":2143,"ĠÐºÐ¾Ð½ÑĤÑĢ":2144,"ÑĤÐ°ÐºÐ¸":2145,"ÐµÑĢÑĤÐ²":2146,"Ð½ÑĮ":2147,"ĠÐ¾Ð´Ð½Ð°":2148,"Ð»Ð°Ð½":2149,"Ð°ÑĤÐ¾ÑĩÐ½Ð¾":2150,"ĠÐ¾ÑĤÐ»Ð¸Ñĩ":2151,"ÑĭÐ²Ð°Ñı":2152,"ĠÑģÐ»ÐµÐ´ÑĥÑİÑī":2153,"Ð»ÑĥÑĪ":2154,"ĠÐ±ÑĢÐ°ÑĤ":2155,"ĠÑģÑĩÐ°ÑģÑĤ":2156,"ĠÐ¢Ð¾Ð»ÑĮÐºÐ¾":2157,"Ð¾Ð±ÑĢÐ°Ð¶":2158,"Ð¸ÑĤÑĥÐ°":2159,"ĠÐ·Ð½Ð°ÐºÐ¾Ð¼":2160,"Ġ10":2161,"ĠÑıÐ²Ð»ÑıÐµÑĤÑģÑı":2162,"Ð»Ð¸Ð²Ð¾":2163,"ĠÐ´ÐµÐ»Ðµ":2164,"Ð°ÐºÐ°":2165,"ÑģÑĤÐ²Ð¸Ñı":2166,"ĠÑģÑĤÐ°ÑĤÑĮ":2167,"ĠÐ±Ð°Ð½":2168,"Ð½ÐµÑĪ":2169,"Ð¾ÑĤÐ²ÐµÑĤ":2170,"ĠÑħÐ²Ð°ÑĤ":2171,"ĠÑħÐ¾ÑĤÑĮ":2172,"ĠÐ¼ÑĭÑģÐ»":2173,"ĠÐ°Ð²ÑĤÐ¾Ð¼":2174,"ĠÑįÐºÑģÐ¿":2175,"ĠÐ³ÑĢÐ°Ð½":2176,"ÑĢÐ¸Ð¼ÐµÑĢ":2177,"Ð°ÐµÑĤÐµ":2178,"ÑįÑĢ":2179,"ĠÐ½Ð¸Ð¼Ð¸":2180,"ĠÑģÐ¿Ð°Ñģ":2181,"ĠÐºÑĥÐ¿":2182,"ĠÐºÐ¾ÑĤÐ¾ÑĢÐ¾Ðµ":2183,"ĠÐºÐ¾Ñģ":2184,"ĠÑĩÐµÑĤ":2185,"ĠÑĢÐ°Ð±":2186,"ÐµÐ´Ð¸":2187,"ĠÑĤÐ¾ÑĩÐ½Ð¾":2188,"ĠÑĩÐ°ÑģÑĤÑĮ":2189,"Ð½Ð¸Ð¸":2190,"ĠÑģÑĥÑīÐµÑģÑĤÐ²":2191,"ĠÐ´Ð¾Ð»Ð³Ð¾":2192,"ĠÐºÐ¸Ð²":2193,"Ð°ÑĢÐ¾Ð²":2194,"ĠÐ¼ÐµÑģÑĤÐµ":2195,"ĠÐ´Ð¾Ð±ÑĢ":2196,"ĠÑĤÐ°ÐºÐ¸Ðµ":2197,"ÑħÐ¾":2198,"ĠÐ°ÑĢÐ¼":2199,"Ð¾Ð»Ñı":2200,"ÑĭÑģÐ»":2201,"ÑĦÑĦ":2202,"ÑĢÐµÐ½":2203,"ĠÑģÑĤÐ°Ð»Ð¸":2204,"20":2205,"Ð¸ÑĨÐ¸Ð¸":2206,"ÐµÐ²Ð¸Ñĩ":2207,"Ð°ÑİÑģÑĮ":2208,"ĠÐ¿ÑĢÐ¾ÑĦ":2209,"ĠÑĢÐ¾ÑģÑģÐ¸Ð¹":2210,"ĠÑģÑĢÐµÐ´Ð¸":2211,"ĠÐ½Ð°Ð³":2212,"ĠÐļÐ¾ÑĢ":2213,"ĠÑģÐºÐ°Ð¶":2214,"ÑĢÐ¾Ðº":2215,"ĠÑĩÐ¸ÑĤ":2216,"ĠÑĢÐ°Ð·Ð³Ð¾Ð²Ð¾ÑĢ":2217,"ĠÐŁÐ¾ÑģÐ»Ðµ":2218,"ÐµÑĩÐµÑģÐº":2219,"ĠÐ¸Ñİ":2220,"ĠÐ°ÐºÑĤ":2221,"ĠÐ²Ð¾ÐºÑĢÑĥÐ³":2222,"ĠÑģÐ¿Ð¾ÐºÐ¾Ð¹":2223,"ĠÑģÐ¾Ð´":2224,"ĠÑĥÑģÐ»Ð¾Ð²":2225,"ĠÑįÐ½":2226,"ĠÐ¼Ð¾Ð³Ð»Ð°":2227,"ĠÐ¿Ð¾Ð¶Ð°Ð»":2228,"ĠÐ¿ÑıÑĤÑĮ":2229,"ĠÐºÐ¾Ð½ÑĨÐµ":2230,"ÂłÐ³":2231,"Ð¾Ð·Ð¼Ð¾Ð¶Ð½Ð¾":2232,"ĠÐ½Ð°Ð»":2233,"ĠÑĤÐ¸Ñħ":2234,"ĠÐºÑĢÐ°Ð¹":2235,"ĠÐ¿Ð¾Ð»ÑĮÐ·":2236,"Ð¨ÐĲ":2237,"ĠÑĤÐ¾Ð²Ð°ÑĢ":2238,"ĠÐ¿Ð¾Ð±ÐµÐ´":2239,"ĠÐ²Ð¸Ð´ÐµÐ»":2240,"ÐµÑĢÑĮÐµÐ·":2241,"ĠÐ²Ð¾Ð·Ð´ÑĥÑħ":2242,"Ð°ÑĤÐµÐ»Ñı":2243,"ĠÐ¿Ð¾Ð¼Ð¾Ð³":2244,"ÑĥÐ±Ð»Ð¸":2245,"ĠÐ´Ð¾Ð²Ð¾Ð»ÑĮ":2246,"ĠÑĢÑĥÐºÐ¾Ð²Ð¾Ð´":2247,"ĠÐ³Ð¾Ð²Ð¾ÑĢÐ¸Ð»":2248,"Ð¸Ð²ÑĪÐ¸ÑģÑĮ":2249,"Ð¾Ð»ÐµÐ²":2250,"ĠÐºÐ°Ð±":2251,"ĠÐĵÐµÑĢ":2252,"ĠÑģÑĤÐ°Ð½Ð¾Ð²":2253,"ĠÐĿÐ°Ð´":2254,"ĠÐĲÐ»ÐµÐºÑģÐ°Ð½Ð´":2255,"Ð¸ÑĩÐµÑģÐºÐ¸Ð¹":2256,"ÐµÐ½ÑĤÑĭ":2257,"ĠÐ´Ð²Ðµ":2258,"ĠÐ²ÑĭÑģÑĤÑĥÐ¿":2259,"ĠÐ»Ð°Ð´":2260,"ĠÑħÐ¾Ð»Ð¾Ð´":2261,"ĠÐºÐ°ÑĩÐµ":2262,"ĠÑģÐ¸ÑĤÑĥÐ°":2263,"ĠÑģÑĤÐ¾Ð¸ÑĤ":2264,"ĠÐ¡Ð¾Ð²":2265,"ĠÑĤÐ°ÐºÐ¸Ð¼":2266,"ĠÐ¿ÑĢÐ¾Ð¼":2267,"ÂłÐĿÑĥ":2268,"ĠÐ´Ð¾Ð±Ð°Ð²":2269,"ĠÐ²ÑĭÐ¿Ð¾Ð»":2270,"ĠÑģÑĤÑĢÐ¾":2271,"ĠÑħÐ»":2272,"ĠÐ¾Ð±ÑĢÐ°Ñī":2273,"ÑĳÑĢ":2274,"Ð½Ð¸ÑĨÐ°":2275,"ĠÐ½Ð°ÐºÐ¾Ð½ÐµÑĨ":2276,"ĠÐºÐ°ÑĢÑĤ":2277,"ĠÐ¿ÑĢÐ¸ÑģÑĤ":2278,"Ð°ÑĢÐ´":2279,"ĠÐ½ÐµÐ¼Ñĥ":2280,"Ġ9":2281,"ĠÐĴÐ»Ð°Ð´":2282,"ĠÐĵÐ¾Ñģ":2283,"ĠÐ¿Ð¾Ð½ÑıÐ»":2284,"ÑĮÑĪÐµ":2285,"Ð¾Ð»Ð°":2286,"ĠÐ²Ð½ÑĥÑĤÑĢ":2287,"ĠÐºÑĢÐµÐ¿":2288,"ĠÑĢÐ°Ð´Ð¸":2289,"Ð¸Ð°Ð½":2290,"ĠÐ¿ÑĢÐµ":2291,"ĠÐ±Ð»Ð¸Ð·":2292,"Ð¾ÑĩÐµÐ¼Ñĥ":2293,"ĠÑĥÐ¶Ð°Ñģ":2294,"Ð¾ÑıÐ½":2295,"Ð¼ÐµÑĢÐ¸ÐºÐ°Ð½":2296,"ÐµÑİ":2297,"ĠÐ´ÑĢÑĥÐ³Ð¸Ðµ":2298,"ĠÐ¾ÑĢÑĥÐ¶":2299,"?!":2300,"ÐµÐºÑĤÐ¸Ð²":2301,"ÑĪÐµÐµ":2302,"Ð¸ÑıÑħ":2303,"Ð¾Ð»Ð¾ÑĤ":2304,"ĠÐ¼Ð¾Ð³Ð»Ð¸":2305,"Ð°ÑĢÐ°ÐºÑĤÐµÑĢ":2306,"ĠÐ¿ÑĢÐ¾Ð²Ð¾Ð´":2307,"ĠÐĴÐµÑĢ":2308,"ĠÐ½ÐµÑĩ":2309,"ĠÐ¿Ð¾ÑģÑĤÑĥÐ¿":2310,"ĠÑģÐ°Ð¼Ð¾Ð³Ð¾":2311,"ÑĢÐµÐ¿":2312,"ĠÑģÐ¾ÑĢ":2313,"Ð³Ð»Ð¸":2314,"ÑĥÐ»Ð¸":2315,"ĠÐ±ÐµÐ´":2316,"Ð½ÐµÑģ":2317,"ĠÐ¾Ð´Ð½Ð°ÐºÐ¾":2318,"ÑĭÑģ":2319,"ĠÐ´ÐµÐ¹ÑģÑĤÐ²Ð¸ÑĤÐµÐ»ÑĮÐ½Ð¾":2320,"Ð¾ÑģÑĤÑĮÑİ":2321,"ÑĢÐ¸ÑĤÐ¾ÑĢ":2322,"ÂłÐ¢Ñĭ":2323,"Ð»Ð°ÑĪ":2324,"Ð¸ÑĦ":2325,"ĠÐ½Ð°Ð¿Ð¸Ñģ":2326,"ĠÐ¿Ñģ":2327,"Ð°ÑİÑīÐ¸Ñħ":2328,"ÑĪÐ¸Ð±":2329,"Ð»ÐµÐ¶":2330,"ÑģÐºÐ¸":2331,"ĠÐ§ÐµÑĢ":2332,"ĠÑĤÐ¾Ð½":2333,"Ð¼Ð°ÑĤÑĢ":2334,"ĠÐ·Ð°ÐºÐ»ÑİÑĩ":2335,"ĠÐ¡Ð¨ÐĲ":2336,"ĠÐ´Ð°Ð»ÑĮÑĪÐµ":2337,"ĠÑĢÐµÐ´":2338,"ĠÐ¿Ð¾ÑįÑĤÐ¾Ð¼Ñĥ":2339,"Ð¸ÑĢÐ°":2340,"Ġ15":2341,"ĠÐ¾ÑģÐ²":2342,"Ð¾Ð¼Ðµ":2343,"Ð¸ÑĨÐ°":2344,"Ð°Ð¶Ð´Ð°Ð½":2345,"ĠÑģÑĤÐ°Ð»Ð°":2346,"ÑĭÐ¿":2347,"Ð°Ð½Ð¸ÐµÐ¼":2348,"ĠÐ½ÐµÐ¾Ð±ÑħÐ¾Ð´Ð¸Ð¼":2349,"ĠÐ´Ð²Ð¾ÑĢ":2350,"ĠÐ¿Ð¸ÑģÑĮ":2351,"ĠÐºÐ°ÐºÐ¸Ðµ":2352,"Ð°ÑİÑīÐ¸Ð¹":2353,"ĠÐ±ÐµÑĢÐµÐ³":2354,"ĠÐ¿ÑĢÐ¾Ð¸Ð·Ð²Ð¾Ð´":2355,"ĠÐ¾ÐºÐ¾Ð»Ð¾":2356,"ĠÐ¸Ð·Ð´":2357,"ĠÐ¿ÑĢÐµÐºÑĢÐ°Ñģ":2358,"Ð¿Ð¾Ð»Ð½Ðµ":2359,"Ð³Ñĥ":2360,"ĠÐ²ÑĭÐ´":2361,"ÂłÐĹ":2362,"Ð°ÑĢÑĮ":2363,"Ð¾Ð½Ð´":2364,"ĠÐ³Ð¾ÑĢÐ¾Ð´Ð°":2365,"ĠÑĥÑģÑĤÐ°Ð½Ð¾Ð²":2366,"ÐµÐ»ÐµÐ¼":2367,"ĠÐ³ÑĢÐ¾Ð¼":2368,"ĠÐ¢ÐµÐ¿ÐµÑĢÑĮ":2369,"ĠÐ¾Ð±ÑĬÑıÑģÐ½":2370,"Ð¾ÑĩÐºÐ°":2371,"ĠÐ¼Ð¸ÑĢÐ°":2372,"ĠÐ¾Ð±Ð½Ð°ÑĢÑĥÐ¶":2373,"ĠÑĤÐ²":2374,"ĠÐ¼ÑĥÐ·":2375,"ĠÑħÐ¾ÑĩÑĥ":2376,"ĠÐºÑĢÑĥÐ³":2377,"ÐµÐ½ÐºÐ¾":2378,"ĠÐ¡Ð°Ð¼":2379,"ĠÑģÐ¿ÑĢÐ°Ð²":2380,"Ð¾Ð´Ñĭ":2381,"ÐºÐ°Ð¼":2382,"ĠÐ¿ÑĢÐ¸ÐºÐ°Ð·":2383,"ĠÐ²Ð¾Ð»Ð¾Ñģ":2384,"Ð°Ð½Ð½Ð¾":2385,"ĠÐ·Ð½Ð°ÑĩÐ¸ÑĤ":2386,"ĠÐ¿ÐµÑĢÐ²ÑĭÐ¹":2387,"ĠÐºÐ°Ð¶ÐµÑĤÑģÑı":2388,"ĠÐ¿ÑĢÐ°ÐºÑĤ":2389,"ĠÑĤÑĥ":2390,"ĠÐºÐ°Ð¶Ð´ÑĭÐ¹":2391,"ĠÐĿÐ¾Ð²":2392,"ĠÐ»Ð¸ÑĪ":2393,"__":2394,"ĠÐ¼Ð¾ÐµÐ¹":2395,"ĠÑģÐ¾Ð»Ð½":2396,"ĠÑĢÐ°Ð·Ð¼":2397,"Ð¡Ð¡":2398,"ĠÐ·ÑĢ":2399,"ĠÐ¶ÐµÑģÑĤ":2400,"ĠÑģÑĤÑĢÐ°ÑĪ":2401,"ĠÐ¸Ð½ÑģÑĤ":2402,"Ð½ÑĥÑĤÑĮÑģÑı":2403,"Ð³Ðµ":2404,"ĠÐ¿ÑĢÐ¾Ð¸Ð·Ð¾ÑĪ":2405,"ĠÐºÑĢÑĥÐ¿":2406,"ĠÐµÐ²":2407,"ÑģÑıÑĤ":2408,"ĠÐ¥Ð¾ÑĤ":2409,"ĠÑĤÐµÑĢÑĢÐ¸ÑĤÐ¾ÑĢ":2410,"ĠÑĩÐ¸ÑģÑĤ":2411,"Ð¸Ð²Ð°Ð»Ð¸":2412,"ÑģÑĤÐ²ÐµÐ½Ð½Ð¾Ð¹":2413,"ĠÑĥÑĢÐ¾Ð²":2414,"ĠÐ¾ÑĢÐ³Ð°Ð½Ð¸Ð·Ð°":2415,"ĠÐ¸ÑģÑĩ":2416,"ĠÐ¿ÑĢÐµÑģÑĤ":2417,"ĠÑĢÐ°Ð²Ð½Ð¾":2418,"ĠÐ´Ð°Ð²Ð½Ð¾":2419,"ĠÐ·Ð°ÐºÐ¾Ð½":2420,"ĠÑģÐ¾Ð¼Ð½":2421,"ĠÐ½ÐµÐ»ÑĮÐ·Ñı":2422,"ĠÐ½Ð°ÑĩÐ°Ð»Ð°":2423,"Ð²Ð¸Ð´":2424,"ÐµÑĩÐµÐ½Ð¸Ðµ":2425,"ĠÑıÐ·Ñĭ":2426,"ĠÐ¼ÐµÐ½ÑĮ":2427,"ĠÑģÐ»ÑĥÑĩÐ°Ð¹":2428,"Ð¾Ð¶Ð¸Ð´":2429,"ĠÑĢÐ°Ð±Ð¾ÑĤÑĭ":2430,"ĠÐ¼Ð°Ð»ÑĮ":2431,"ÑĨÐ¸Ð¿":2432,"Ð°Ð½Ð¸Ñİ":2433,"ÑĨÐ°Ð¼Ð¸":2434,"Ð¾Ð·Ð½":2435,"Ð¾Ð»ÑĮÐºÑĥ":2436,"ĠÐ¾ÑĤÐ¿":2437,"ÂłÂłÂłÂł":2438,"ÑĪÐ¸Ð¼":2439,"Ð¾Ð²Ð°Ð»Ð¸":2440,"ĠÑįÑĤÐ¾Ð¼Ñĥ":2441,"ĠÐ¾Ð¿ÑıÑĤÑĮ":2442,"ĠÐ¿ÑĢÐ¸Ð»":2443,"ĠÐ½ÐµÐº":2444,"ĠĠĠĠ":2445,"ĠÐ½ÑĢÐ°Ð²":2446,"ĠÐ²ÑģÑĤ":2447,"Ð°ÑĦ":2448,"ĠÐºÐ½Ñı":2449,"ĠÐ·Ð°Ñĩ":2450,"Ð¸Ð·Ð¼":2451,"ĠÐĴÑģ":2452,"ĠÐĶÐ»Ñı":2453,"ĠÐ²ÑģÑĤÑĢÐµÑĤ":2454,"ĠÑģÐ¾Ð¾ÑĤÐ²ÐµÑĤ":2455,"ĠÑĤÐ°ÐºÐ¸Ñħ":2456,"ĠÐ¾Ð±Ð»Ð°ÑģÑĤÐ¸":2457,"ĠÐ¿Ð¾Ð´ÑĤ":2458,"ĠÐ¾ÑĤÐ´ÐµÐ»":2459,"Ð½ÑĥÐ»Ð¸":2460,"ĠÑħÐ°ÑĢÐ°ÐºÑĤÐµÑĢ":2461,"ĠÑĤÐ°ÐºÐ¾Ð³Ð¾":2462,"ĠÑĥÑģÐ»ÑĭÑĪ":2463,"ĠÐ¿ÑĢÐµÐ·Ð¸Ð´":2464,"Ġ*":2465,"ĠÐ¼ÐµÐ½ÐµÐµ":2466,"Ð¾ÑģÑĤÐ¾":2467,"ĠÐ¿Ð°Ð¼":2468,"ĠÐĺÐ¼":2469,"ĠÐ¿Ð¾Ð²ÑĤÐ¾ÑĢ":2470,"Ð¾ÑĢÑĥÐ¶":2471,"Ð½ÑıÑı":2472,"Ð¾Ð±ÑĭÑĤ":2473,"ÂłÐ§ÑĤÐ¾":2474,"ĠÐ½Ð°ÑģÑĤÐ¾ÑıÑī":2475,"ĠÐ²Ð¾Ð·Ð²ÑĢÐ°Ñī":2476,"ĠÐ¿ÑĢÐ¸Ð½Ð¸Ð¼":2477,"ĠÑĢÐµÐ²":2478,"Ð°Ð²ÑĪÐ¸Ð¹":2479,"18":2480,"ĠÐ²Ð¾Ð²":2481,"ĠÐ³Ð¾Ð²Ð¾ÑĢÐ¸ÑĤÑĮ":2482,"ĠÐºÐ¾ÑĤÐ¾ÑĢÐ¾Ð¼":2483,"ĠÐ½ÐµÐ±Ð¾Ð»ÑĮÑĪ":2484,"ĠÐ´ÐµÐ»Ð°":2485,"ĠÑģÐ¾ÑħÑĢÐ°Ð½":2486,"ĠÐ¿Ð¾ÑģÐº":2487,"ĠÐ¾ÑĤÐºÑĢÑĭÑĤ":2488,"ĠÐľÐ¾Ð¶ÐµÑĤ":2489,"ĠÑĦÐ¸Ð½":2490,"ĠÐ¢Ð°Ð¼":2491,"ĠÐ²Ð·Ð³Ð»Ñı":2492,"Ð»ÐµÐ½Ð¸Ð¸":2493,"ĠÑģÑĤÑĢÐ°Ñħ":2494,"ĠÐ¿Ð¾ÑģÑĤÐ¾ÑıÐ½":2495,"ĠÐ´ÐµÐ¼":2496,"ÑıÑĤÐµÐ»ÑĮ":2497,"ĠÐ°Ð¿":2498,"Ð»Ð°ÑĤ":2499,"ĠÑĩÑĥÐ´":2500,"ĠÐ¶Ð°Ð»":2501,"ĠÑĤÐ°Ð½":2502,"ÑĥÑĢÐ½":2503,"ĠÑģÐ°Ð¼Ð°":2504,"ĠÐ¼ÐµÑģÑĤÐ°":2505,"ĠÐ½ÐµÐ½":2506,"ĠÐ½Ð°Ð·Ð²":2507,"ĠÐ²Ð¾Ð¹Ð½Ñĭ":2508,"ÑĥÑĪÐºÐ°":2509,"ĠÐ´Ð»Ð¸Ð½":2510,"ĠÑģÐ´ÐµÐ»Ð°Ð»":2511,"ĠÐ²Ð¸Ð´Ðµ":2512,"ĠÑįÐºÐ¾Ð½Ð¾Ð¼":2513,"Ð¾Ð½ÑĤ":2514,"Ð²ÐµÑĢÐ´":2515,"ĠÐ¿ÑĢÐ¾Ð¸Ð·Ð½ÐµÑģ":2516,"Ð°ÑİÑīÐ¸Ðµ":2517,"ĠÑĢÐ°Ð·Ð²Ð¸ÑĤ":2518,"Ð°ÐºÐ¸":2519,"ĠÐ°Ð¼ÐµÑĢÐ¸ÐºÐ°Ð½":2520,"ÐŀÐ½Ð°":2521,"Ð¾Ð²ÑĭÑħ":2522,"Ð½Ð°ÐºÐ¾Ð¼":2523,"Ġ17":2524,"ĠÐ±Ð¾Ñı":2525,"ĠÐ¿ÑĢÐµÐ¶Ð´Ðµ":2526,"ĠÐºÐ°Ð½":2527,"Ð»Ð°Ð¼":2528,"ĠÐ»ÑİÐ±Ð¾Ð²":2529,"ĠÑĢÐ°Ð·Ð»Ð¸Ñĩ":2530,"Ð½ÑıÐ»Ð°":2531,"ĠÑĩÐ°ÑģÑĤÐ¸":2532,"Ġ199":2533,"ĠÑģÐ²ÐµÑĢ":2534,"Ð°Ð»ÑĮÐ½Ð¾Ðµ":2535,"ĠÑĥÐºÐ°Ð·":2536,"ÐºÐ¾Ðµ":2537,"Ð¸ÑģÑĤÐµÑĢ":2538,"ĠÐ²Ð¿Ð¾Ð»Ð½Ðµ":2539,"ĠÐ½Ð¾Ð³Ð¸":2540,"ÑĢÐ¸Ðº":2541,"Ð¾ÑıÑĤÐµÐ»ÑĮ":2542,"ĠÑĤÐ°":2543,"ĠÐĿÐ°Ð¿":2544,"ÑĢÐ¾Ð´Ðµ":2545,"ĠÑĨÐµÐ½":2546,"ÐµÐ»Ð¸Ðº":2547,"!Â»":2548,"Ð¸Ð»Ð»":2549,"ĠÐ¿ÐµÑĢÐµÐ¿":2550,"Ð¾Ð±Ð¾Ð¹":2551,"Ð¸ÑĤÐµÑĢ":2552,"ĠÐ¿Ð¾Ð´Ð¾ÑĪ":2553,"ĠÑĤÐ¾Ð¹":2554,"ĠÐ½Ð°ÑĥÑĩ":2555,"ĠÐ´ÐµÐ½ÑĮÐ³Ð¸":2556,"ÐºÑĥÐ´Ð°":2557,"ĠÑĤÑĥÑĢ":2558,"ĠÑĤÑĥÐ´Ð°":2559,"ĠÐ´Ð¾Ð»Ð¶Ð½Ð°":2560,"ĠÐ¿Ð¾Ð½ÑıÑĤ":2561,"ĠÐ¤ÑĢÐ°Ð½":2562,"ĠÐ·Ð½Ð°ÐµÑĤ":2563,"ÑĨÐ¸ÐµÐ¹":2564,"Ð°Ð½Ð½ÑĭÐµ":2565,"ÑģÐ¸":2566,"ÑĥÑĢÐ°":2567,"ĠÐ´Ð¾ÑģÑĤÐ°ÑĤÐ¾ÑĩÐ½Ð¾":2568,"Ð°ÑĤÐ¾Ð²":2569,"ĠÐºÐ¾ÑģÑĤ":2570,"ĠÑħÑĥÐ´":2571,"Ð¾Ð´Ñĥ":2572,"Ð°Ð´Ð°":2573,"ĠÐ¸Ð¼ÐµÐµÑĤ":2574,"ĠÐ¿ÑĢÐ°Ð²Ð¸ÑĤÐµÐ»ÑĮ":2575,"ÑĨÐµÐ¼":2576,"ĠÐ¿Ð¾Ð´Ñĩ":2577,"ĠÐ·Ð»":2578,"ĠÐ¾ÐºÑĢÑĥÐ¶":2579,"Ð¾ÑĩÐµÐ¼":2580,"ĠÑģÑİÐ´Ð°":2581,"Ð¾Ð·Ð²":2582,"ÐµÐ·Ð¶":2583,"ĠÐ¼Ð¾Ñı":2584,"ÑģÑĥ":2585,"Ð½Ð¾Ðº":2586,"ÑĦÐ¾ÑĢÐ¼":2587,"ĠÐ¸ÑģÐ¿ÑĭÑĤ":2588,"ĠÐ²ÐºÐ»ÑİÑĩ":2589,"ĠÑĢÐ°Ð½ÑĮÑĪÐµ":2590,"Ð¾ÑĤÑĭ":2591,"ĠÐ±Ð¾ÐµÐ²":2592,"ĠÑģÐ¼ÐµÑĢÑĤÐ¸":2593,"ÑģÐ¾Ð²":2594,"Ð¾Ð¿Ð°Ñģ":2595,"ÐĿÐµ":2596,"ĠÑĪÐºÐ¾Ð»":2597,"ĠÐ³ÑĢÐ°Ð¶Ð´Ð°Ð½":2598,"ÑĩÐµÑģÐº":2599,"ĠÐ²ÑĭÑĢÐ°Ð¶":2600,"Ð½Ð¾Ð²ÑĮ":2601,"ĠÐ²Ð¾ÑģÐº":2602,"ĠÐ¼ÐµÐ»":2603,"ĠÐ¿ÐµÑĢÐµÑģÑĤ":2604,"ĠÐ¿Ð¾Ð·Ð´":2605,"ÑĤÐµÐ½":2606,"Ð¾Ð»Ñĩ":2607,"ĠÐŀÑģ":2608,"ĠÑģÐµÑĢÑĮÐµÐ·":2609,"âĢĿ":2610,"ĠÐ·Ð´Ð¾ÑĢÐ¾Ð²":2611,"ĠÐ²ÑħÐ¾Ð´":2612,"ĠÑģÐ»ÑĥÑĪ":2613,"ĠÐ¼Ð¸Ð»Ð»Ð¸":2614,"ĠÐ¿ÐµÑģ":2615,"Ð¾ÑģÑĤÐ°Ð²":2616,"ĠÑģÐºÐ¾Ð»ÑĮÐºÐ¾":2617,"ĠÐµÐ´Ð²Ð°":2618,"ĠÐ¾Ð±ÑĭÑĩ":2619,"ĠÑĩÐ°ÑģÑĤÐ¾":2620,"Ð¾ÑĢÐ´":2621,"Ðĸ":2622,"ĠÐ·Ð°ÐºÐ¾Ð½Ñĩ":2623,"ÑĢÐ°ÑĤÑĮ":2624,"ĠÐ¸ÑģÑĩÐµÐ·":2625,"ÑĢÐ°Ð½Ð¸Ñĩ":2626,"ĠÑģÐ²Ð¾ÐµÐ¼":2627,"ĠÑĥÐ¼ÐµÑĢ":2628,"ÂłÐĿÐµÑĤ":2629,"Ð°Ð½Ðµ":2630,"ĠÑĤÐµÐ¿":2631,"ĠÑĢÐµÑĪÐ¸Ð»":2632,"ĠÐ·Ð°Ð´ÑĥÐ¼":2633,"ĠÑĦÐ¾ÑĢ":2634,"ĠÐŁÐ¾ÑĤÐ¾Ð¼":2635,"ÑĪÐ°Ñı":2636,"ĠÐºÐ»Ð°Ñģ":2637,"ĠÐ¼Ð³":2638,"ÑģÐºÐ°":2639,"Ð¸Ð¼ÑģÑı":2640,"Ð¿Ð¸Ñģ":2641,"ĠÑĤÐ°Ð¹":2642,"ÑĩÐ°ÑģÑĤ":2643,"Ð¸ÑĤÑĭ":2644,"ĠÐ¾ÑĤÐ²ÐµÑĩ":2645,"ĠÐ¾ÑĤÐºÐ°Ð·":2646,"ĠÑĩÐ»ÐµÐ½":2647,"ÑģÑĤÐ°Ð½Ð¾Ð²":2648,"ĠÑĢÐµÐ±ÐµÐ½":2649,"ĠÐºÑĢÐ¾Ð¼Ðµ":2650,"ĠÐ²Ð¾ÑģÑĤ":2651,"ĠÐ³ÐµÐ½ÐµÑĢ":2652,"ĠÐ¿Ð¾Ð´Ð½ÑıÐ»":2653,"ĠÐ½Ð°Ð±Ð»ÑİÐ´":2654,"ĠÑĥÐ´Ð°Ð»Ð¾ÑģÑĮ":2655,"ĠÐ¸ÑģÐºÐ»ÑİÑĩ":2656,"ĠÐĺÐ»Ð¸":2657,"Ð½Ð°ÑĩÐ°Ð»Ð°":2658,"ĠÑĢÑĥÐº":2659,"ÐºÐ¸Ð½":2660,"ĠÐ±Ð»Ð°Ð³Ð¾":2661,"ĠÐ²Ð·Ð´Ð¾Ñħ":2662,"ĠÐ´ÑĢÑĥÐ³Ð°":2663,"ÑģÑĤÐ²ÐµÐ½Ð½ÑĭÐ¹":2664,"ĠÐ¾ÑĤÐ¼":2665,"ĠÐ¼Ð¾Ð¸":2666,"ĠÐ¾ÐºÐ¾Ð½Ñĩ":2667,"ĠÑĢÐ°Ð²":2668,"ĠÐ²ÑĭÐ±Ð¾ÑĢ":2669,"ÑĢÐ¸Ð¿":2670,"ĠÑģÐ¾ÑĤÑĢÑĥÐ´":2671,"ÑĮÐ¸":2672,"ĠÐ´Ð¸Ð²":2673,"ÐµÐ½Ð½ÑĥÑİ":2674,"ĠÑĤÐµÐº":2675,"Ð»Ñĭ":2676,"Ð°ÑĤÐµÐ»ÐµÐ¹":2677,"ÑģÐºÐ¾Ð¼Ñĥ":2678,"ĠÐ¾ÑĤÐ½Ð¾Ñģ":2679,"ĠÐ°Ð±":2680,"ĠÐ¿ÑĢÐ¾Ð²ÐµÑĢ":2681,"ĠÐ¾ÑĪÐ¸Ð±":2682,"ĠÐ¿ÑĢÐ¾ÑĦÐµÑģÑģ":2683,"ĠÐ²Ð½Ð¸Ð·":2684,"ĠÑıÑģ":2685,"Ð³Ð¾ÑĢ":2686,"Ð½Ð¸Ñı":2687,"ĠÐŁÑĢÐ°Ð²":2688,"Ġ//":2689,"ĠÐ²ÑĤÐ¾ÑĢÐ¾Ð¹":2690,"ĠÐ²ÑģÐµÐ¹":2691,"Ġ12":2692,"Ð±Ðµ":2693,"Ð¾Ð¹Ð´":2694,"ĠÐĵÑĢ":2695,"ĠÐ¿Ð¾ÑħÐ¾Ð¶":2696,"Ð°Ð½Ð½ÑĭÐ¹":2697,"ĠÐ·Ð°Ð¼ÐµÑĤÐ¸Ð»":2698,"Ð½Ð¾ÑģÑĤÐµÐ¹":2699,"ĠÑģÐ°Ð¼Ð¸":2700,"ĠÑĤÐµÐ»Ð¾":2701,"Ð»Ð°Ð²Ð°":2702,"ĠÐ¾Ð±Ñĭ":2703,"ĠÐºÐ°Ð·Ð°Ð»Ð¾ÑģÑĮ":2704,"ĠÑģÐ¾Ð´ÐµÑĢÐ¶":2705,"ĠÐĲÐ»":2706,"ĠÐ·Ð°ÑıÐ²Ð¸Ð»":2707,"ĠÐ¿ÐµÑĩ":2708,"Ð¸ÑĨÐµ":2709,"ĠÐ²Ð½Ð¾Ð²ÑĮ":2710,"Ð¿ÑĢÐ¾ÑĩÐµÐ¼":2711,"Ð¾Ð¿Ð¾Ð»":2712,"Ð¾Ð¶Ð°Ð»":2713,"ĠÑĥÐ²Ð¸Ð´ÐµÐ»":2714,"ĠÐ¼Ð°Ð»Ð¾":2715,"Ð°Ð»Ñĭ":2716,"ĠÑĤÑĢÐ°Ð½":2717,"ĠÐ°ÐºÑĤÐ¸Ð²":2718,"ĠÑģÐ²Ð¸Ð´":2719,"Ġ194":2720,"ĠÐ´Ð¾Ð²Ð¾Ð»ÑĮÐ½Ð¾":2721,"ĠÑĢÐ°Ð·ÑĥÐ¼":2722,"ĠÐ±ÑĥÐ´Ñĥ":2723,"ĠÐ½ÐµÐ¸Ð·":2724,"ĠÐ¿Ð¾ÑĤÑĢÐµÐ±":2725,"ĠÐ¿Ð¾Ð»Ð¾Ð²":2726,"ĠÑĥÐ±Ð¸Ð¹":2727,"ÂłÐŃÑĤÐ¾":2728,"Ð°Ð»ÑĮÐ½ÑĭÐ¼":2729,"ĠÐ¿ÑĢÐ¸ÑıÑĤ":2730,"Ð°ÑĪÐ°":2731,"ĠÐ¾ÑĤÐµÑĨ":2732,"ĠÐ¿Ð¾Ð³Ð¸Ð±":2733,"ĠÐ¿ÑĢÐµÐ´ÑģÑĤÐ°Ð²Ð»Ñı":2734,"ĠÑģÐ¾Ð±ÑĭÑĤ":2735,"ĠÑģÐ»Ð°Ð±":2736,"ĠÐ¡ÐµÑĢÐ³":2737,"ĠÑģÐ¾Ñĩ":2738,"ĠÑģÐ¾Ð·Ð½":2739,"ĠÐ·Ð°ÑģÑĤ":2740,"ĠÐ¿ÑģÐ¸Ñħ":2741,"Ð¾ÑĩÐºÐ¸":2742,"ĠÐ°Ð»":2743,"ĠÑĢÑĥÐºÐ¾Ð¹":2744,"Ð¿Ð¸Ð¾Ð½":2745,"Ð¸ÐºÐ¾Ð¼":2746,"ÐµÐºÑĤÐ¾ÑĢ":2747,"ĠÐ¿ÑĢÐ¸ÑĪÐ»Ð¾ÑģÑĮ":2748,"ĠÐ¾Ð¿ÐµÑĢÐ°":2749,"Ð°ÑĤÑĥÑĢ":2750,"ĠÐ¼Ð³Ð½Ð¾Ð²":2751,"ĠÐ¶Ð¸Ð²Ð¾ÑĤ":2752,"ĠÑģÐ¸Ð»Ñĭ":2753,"ĠÐ¿ÐµÑĢÐµÑģ":2754,"ĠÑĦÐ°ÐºÑĤ":2755,"ĠÑĤÑıÐ¶ÐµÐ»":2756,"ĠÐĴÐ°Ñģ":2757,"ĠÐ¼ÐµÑĢ":2758,"ĠÑģÐ°Ð¼Ð¾Ðµ":2759,"ĠÐ³Ð»Ð°Ð·Ð°Ð¼Ð¸":2760,"ĠÑģÑĤÑĢÐ°Ð½Ñĭ":2761,"Ð½Ð¸ÑĨÑĭ":2762,"ÐŁÑĢ":2763,".]":2764,"ĠÑħÐ¾ÑĤÐµÐ»Ð¾ÑģÑĮ":2765,"ĠÐ¼ÑĭÑģÐ»Ð¸":2766,"ÑįÐ¹":2767,"ĠÐ½Ð¾ÑĢÐ¼":2768,"ĠÐ»Ð¸Ð½":2769,"ĠÐ´ÐµÐ½":2770,"Ð°Ð½Ñĥ":2771,"ÑĩÐµÑĤ":2772,"ĠÐ¿Ð»Ð¾Ñī":2773,"ÂłÐ£":2774,"ĠÐ±Ð»Ð°Ð³Ð¾Ð´Ð°ÑĢ":2775,"ĠÑĢÐ°ÑģÑģÐºÐ°Ð·ÑĭÐ²":2776,"ĠÐ±Ð¾Ð»ÑĮÑĪÐ¾Ð¹":2777,"ĠÐ½Ð°ÑĪÐµÐ¹":2778,"Ð¸ÑĤÑĢ":2779,"ÑĥÐ½Ðº":2780,"Ð¾Ð²ÑĭÐµ":2781,"Ð¼Ð¾ÑĤÑĢÑı":2782,"ÑĢÐµÐ¼ÐµÐ½Ð½Ð¾":2783,"ĠÑģÐ¾ÑĨÐ¸":2784,"ĠÐ¶ÑĥÑĢÐ½":2785,"ĠÐ¾Ð¶Ð¸Ð´":2786,"ĠÐºÐ¾Ð»Ð¸ÑĩÐµ":2787,"Ð¼ÐµÐ½ÑĤ":2788,"ĠÐºÐ¾Ð¿":2789,"ÑģÑĤÐ²ÑĥÑİÑī":2790,"Ð¿Ð¾Ð»Ð°Ð³":2791,"ÐµÐ²Ð¸Ð´":2792,"ÑĢÑĥÑĤ":2793,"Ð½ÑĥÐ»Ð¸ÑģÑĮ":2794,"ĠÐ¾ÑĤÐ¼ÐµÑĤ":2795,"ĠÐ±ÑĥÐ¼":2796,"ĠÐ¾Ð±Ð¾ÑĢ":2797,"ĠÐ¿ÑĢÐ¾ÑħÐ¾Ð´":2798,"ÑĢÐ¾Ð¼Ðµ":2799,"ĠÐ¿Ð¾ÑĩÑĥÐ²":2800,"ĠÐ²Ð»Ð°Ð´":2801,"ĠÐ¿Ð»Ð°ÑĤ":2802,"ĠÐ¾ÑīÑĥÑī":2803,"Ð³ÑĥÑģÑĤ":2804,"ÑģÑĤÐ°":2805,"ĠÑģÐ¼ÑĭÑģÐ»":2806,"ĠÐ¾ÑģÐ¾Ð±ÐµÐ½Ð½Ð¾":2807,"ĠÐŁÐµÑĢÐ²":2808,"ĠÐ¼Ð°ÑģÑģ":2809,"ĠÐ·Ð°Ð¼ÐµÑĩ":2810,"ĠÐ´ÐµÐº":2811,"ĠÐ´Ð½ÐµÐ¹":2812,"Ð¾Ð·Ð´":2813,"ÑģÑĤÐ²Ð¾Ð²Ð°ÑĤÑĮ":2814,"ĠÐ¿Ð¾Ð´Ð¾Ð·":2815,"ĠÐ¾Ð¿ÑĭÑĤ":2816,"Ð¸ÑĢÐ¾Ð²Ð°Ð»":2817,"ÑģÑĤÐµ":2818,"ĠÐ´ÑĢÑĥÐ·":2819,"ĠÑĢÐ°Ð±Ð¾ÑĤÑĥ":2820,"ĠÐ¡Ð²":2821,"ĠÐ¶ÐµÐ½ÑīÐ¸Ð½Ð°":2822,"Ð¿ÑĢÐ¸Ð½":2823,"ĠÐ²Ð»Ð°ÑģÑĤÐ¸":2824,"ĠÐºÐ¾ÑĤÐ¾ÑĢÑĭÐ¼":2825,"Ð°Ð»ÑĮÐ½Ð°Ñı":2826,"ĠÑĥÑģÐ¸Ð»":2827,"ĠÐ²Ð½ÑĥÑĤÑĢÐµÐ½":2828,"ĠÐ´ÐµÑıÑĤÐµÐ»ÑĮ":2829,"ĠÐºÑĢÐµÑģÑĤ":2830,"ĠÑģÑĤÑĢÐµÐ¼":2831,"ĠÑĩÐµÑĤÐ²ÐµÑĢ":2832,"ĠÑĤÐ¸Ð¿":2833,"ĠÐ¸Ð¼Ñı":2834,"ĠÑĥÐ³ÑĢ":2835,"Ð¸ÑħÑģÑı":2836,"ĠÑģÐ¾Ðº":2837,"ĠÐ¿Ð¾Ð»Ñĥ":2838,"ĠÐ½Ð¾ÑĩÑĮ":2839,"ĠÐ½ÐµÐ¾Ð¶Ð¸Ð´":2840,"ĠÐ¾Ð´Ð½Ñĥ":2841,"ĠÐ´ÐµÑģÑıÑĤ":2842,"ÐļÐ°Ðº":2843,"ĠÑģÐ¿ÑĢÐ¾ÑģÐ¸Ð»Ð°":2844,"Ð½ÐµÐ·":2845,"10":2846,"ĠÑĤÐ¾Ð±Ð¾Ð¹":2847,"ĠÐ´ÐµÑĤÐµÐ¹":2848,"ĠÑģÐ²ÑıÐ·Ð¸":2849,"ĠÐ³Ð¾ÑģÐ¿Ð¾Ð´":2850,"ĠÐ¿ÑĥÑĤÐ¸":2851,"ĠÐ½Ð°ÑĩÐ°Ð»ÑĮ":2852,"ĠÐ²Ð¿ÐµÑĢÐµÐ´":2853,"Ð¾Ð¹ÑĤÐ¸":2854,"ÑıÐµÑĤ":2855,"ĠÐ¿Ð°Ð´":2856,"ÐµÐ»Ðµ":2857,"ĠÐ¸ÑĤ":2858,"ĠÐ´Ð¾ÐºÑĥÐ¼":2859,"Ð¾Ð»ÐµÐµ":2860,"Ð¸Ð²Ð°ÑİÑĤ":2861,"ÐµÑĢÐ½Ð¾":2862,"ĠÑĩÐ°ÑģÐ¾Ð²":2863,"ĠÑģÐ°Ð¼Ð¾Ð¹":2864,"ÐµÐ¼ÑĮ":2865,"ÂłÐĳ":2866,"ĠÐ²Ð¾Ð·Ð¼Ð¾Ð¶Ð½Ð¾":2867,"ĠÐĳÐµÐ»":2868,"Ð°Ð¶Ð´Ñĭ":2869,"ĠÐ¼Ð°Ñģ":2870,"ĠÑģÐ»Ð¾Ð²Ð¾":2871,"ĠÑįÐ»ÐµÐº":2872,"ĠÐ¿ÑĢÐ¾Ð³ÑĢÐ°Ð¼":2873,"ĠÐ¼ÐµÑĢÐµ":2874,"ĠÐ¿ÑĢÐ°Ð²Ð´Ð°":2875,"ÑĤÐ¾Ð¶":2876,"ĠÑģÐ¸Ð½":2877,"ĠÑģÐ¾Ð»Ð´":2878,"ĠÑģÐµÐºÑĥÐ½":2879,"Ð²Ð¸Ð³":2880,"ĠÐ»Ð¸ÑĨÐ°":2881,"ĠÐ¿ÐµÑĢÐ¸":2882,"ÑĢÐ°Ð½ÑĨ":2883,"ĠÐ´Ð²Ð¸Ð³":2884,"ĠÐķÐ²ÑĢÐ¾Ð¿":2885,"ĠÐ²ÑĢÐ°Ð³":2886,"ĠÐºÐ²Ð°ÑĢÑĤ":2887,"ÐºÐ½ÑĥÐ»":2888,"ÑģÐ»ÑĥÐ¶":2889,"ĠÐ¸ÑģÐºÑĥÑģ":2890,"ĠÑģÐ²Ð¾Ð¸Ð¼Ð¸":2891,"Ð°Ð¼ÐµÐ½":2892,"Ð²Ð¸Ð¶":2893,"ĠÐºÐ¾ÑĢÐ¾ÑĤ":2894,"ĠÑĤÐ°ÐºÐ°Ñı":2895,"ÑĥÐºÐ°":2896,"ÑħÐ°":2897,"ĠÐ¾Ð±ÐµÑģÐ¿":2898,"ĠÐ½Ð°Ð¹ÑĤÐ¸":2899,"ĠÑģÐ»ÐµÐ´ÑĥÐµÑĤ":2900,"ĠÑįÐ½ÐµÑĢÐ³":2901,"ĠÐ²ÑģÐ¿Ð¾Ð¼Ð½":2902,"ÑĥÑģÐ°":2903,"Ð½Ð¸ÑĨ":2904,"ÑĥÐºÐ¸":2905,"ÑģÑĤÐ²ÑĥÐµÑĤ":2906,"ĠÐľÐ¸Ð½":2907,"ÑħÑĥ":2908,"ĠÐ¿ÑĢÐ¸ÑĢ":2909,"!..":2910,"ÐµÐ¿ÑĤ":2911,"ĠÐ¾ÑħÑĢÐ°Ð½":2912,"ĠÐ²Ð½Ð¸Ð¼Ð°Ð½Ð¸Ðµ":2913,"ĠÐ¸ÑģÑģÐ»ÐµÐ´":2914,"ĠÐĴÐµÐ´ÑĮ":2915,"Ð¸Ð²Ð°ÐµÑĤÑģÑı":2916,"ĠÐ¼Ð¸ÑĢÐµ":2917,"ÐµÐ½Ð¸ÑıÑħ":2918,"ĠÐ·Ð½Ð°ÑĤÑĮ":2919,"ĠÐ¿Ð¾Ð´Ð½Ð¸Ð¼":2920,"ĠÐ¢Ð¾":2921,"ÂłÐļÐ°Ðº":2922,"ÂłÑģ":2923,"ĠÐļÑĤÐ¾":2924,"Ð½Ð°ÑĩÐµ":2925,"Ð¸ÑĨÐµÐ¹":2926,"ĠÐ¾Ð±ÑĬÑıÐ²":2927,"Ð½Ð¸ÑĩÐµÑģÐº":2928,"ÐµÐ½Ð½ÑĭÐ¼Ð¸":2929,"ĠÐŁÐ¾ÑįÑĤÐ¾Ð¼Ñĥ":2930,"ĠÐ±Ð¾Ðº":2931,"ĠÐ¼ÐµÐ´Ð»ÐµÐ½Ð½Ð¾":2932,"ĠÐ½Ð°ÑĪÐ¸":2933,"ÂłÐ²":2934,"ĠÑĦÐ¸Ð·":2935,"ĠÐ½Ð°ÑĢÑĥÑĪ":2936,"Ð°Ð»Ð¾Ð²":2937,"Ð°Ð·Ð´":2938,"ÑĢÐ°Ðº":2939,"ĠÐ´ÑĢÐµÐ²":2940,"15":2941,"Ð¸ÑģÐ°":2942,"ĠÐĶÐ°Ð¶Ðµ":2943,"ÑĭÑĢ":2944,"ĠÐ¤ÐµÐ´":2945,"ĠÐ¿Ð¾Ð½ÑıÑĤÑĮ":2946,"Ð°Ð´ÑĮ":2947,"ĠÐ¾Ð¿ÑĥÑģÑĤ":2948,"ĠÑĤÑĢÐ°Ð²":2949,"ÑģÑĤÐ²ÐµÐ½Ð½Ð¾Ð³Ð¾":2950,"ĠÐ¿Ð¾ÑģÐ¼Ð¾ÑĤÑĢÐµÐ»":2951,"ĠÐ´Ð¾Ð³Ð¾Ð²Ð¾ÑĢ":2952,"ĠÐ½Ð°ÑģÐµÐ»":2953,"ĠÐ¢Ð¾Ð³Ð´Ð°":2954,"ĠÑģÐ¸Ð¼":2955,"Ð¼ÐµÑĪ":2956,"Ð°Ð½Ð¸":2957,"Ġ16":2958,"ĠÐ¿ÐµÑĢÐµÐ¼":2959,"ĠÐ¿ÑĢÐ¾ÑĢ":2960,"ĠÐ´Ð²ÐµÑĢÐ¸":2961,"ĠÑģÑĤÐ°Ð²":2962,"ÑģÑĤÐ²Ð¸Ð¸":2963,"ĠÑģÐµÑģÑĤ":2964,"ĠÐ²Ð¾Ð·Ð½Ð¸Ðº":2965,"Ð¸Ð»ÑĮÐ½Ð¾":2966,"ĠÑģÐµÑĢÐ´ÑĨÐµ":2967,"ÑģÑĤÑĢÐ¾Ð¹":2968,"ĠÐ±ÐµÐ·Ð¾Ð¿Ð°Ñģ":2969,"ĠÐ½ÐµÐ¶":2970,"ĠÐ¼ÐµÑĪ":2971,"ĠÑģÐ¸Ð»ÑĮÐ½Ð¾":2972,"ĠÐ´Ð¾Ð»Ð¶Ð½Ð¾":2973,"Ð°Ð´Ð»ÐµÐ¶":2974,"ĠÐ¾Ð´Ð½Ð¸Ð¼":2975,"Ð°Ð½ÑĮ":2976,"ĠÐ¾ÑĩÐµÑĢÐµÐ´":2977,"ÑĢÐ¾ÑĤÐ¸Ð²":2978,"ĠÐ¼Ð¾Ð´":2979,"ĠÑĤÐµÐ»ÐµÑĦ":2980,"ĠÐ²Ð¾Ð´Ñĭ":2981,"ĠÑģÐ°Ð¼Ð¾":2982,"ĠÐĲÐ²":2983,"ĠÐ¿Ð°":2984,"ÐµÐ¹Ð½":2985,"ÑĮÑıÐ½":2986,"ĠÐ¸ÑģÐ¿Ð¾Ð»Ð½":2987,"ĠÐ½Ð°ÑĢ":2988,"ĠÐ´Ð¾Ð¼Ð¾Ð¹":2989,"Ð¼Ð¸Ð½Ð¸ÑģÑĤ":2990,"ĠÑģÑĤÐ¾ÑıÐ»":2991,"Ġ.":2992,"ĠÐ¼Ð¸ÑģÑģ":2993,"ĠÐ´ÑĥÐ¼Ð°Ñİ":2994,"Ð¸Ð¼Ð°":2995,"ĠÐŁÐ°ÑĢ":2996,"ĠÐ£ÐºÑĢÐ°Ð¸Ð½Ñĭ":2997,"ĠÐ½Ð°Ð¿ÑĢÑı":2998,"ĠÐ¿Ð¾ÑģÐºÐ¾Ð»ÑĮÐºÑĥ":2999,"Ð¾Ð½Ñĥ":3000,"ĠÑģÑĥÐ´ÑĮ":3001,"ĠÐ¿ÑĢÐ¾ÑĨÐµÑģÑģ":3002,"ĠÐ²ÑĭÑģÐº":3003,"Ð½ÐµÐ¼Ñĥ":3004,"Ð½ÑĥÑĤÑĢÐ¸":3005,"ĠÐ½Ñĥ":3006,"ĠÐ²ÑĭÐ¿Ð¾Ð»Ð½":3007,"ĠÑģÐ°Ð´":3008,"ÑĭÐ»ÑĮ":3009,"ĠÐºÑĥÐ»ÑĮÑĤ":3010,"ĠÐ¿ÑĢÐµÑģÑĤÑĥÐ¿":3011,"ĠÐ¿Ð¾Ð´ÑĥÐ¼Ð°Ð»":3012,"ÑĤÑĢÐ°":3013,"ĠÐ¶Ð¸ÑĤÑĮ":3014,"ĠÐ±ÐµÐ³":3015,"ĠÐ·Ð°Ñħ":3016,"ĠÐ¶ÐµÐ»ÐµÐ·":3017,"ĠÐ¿ÐµÑĢÐµÐº":3018,"ÑģÑģ":3019,"Ð¾Ð²Ð°Ð»ÑģÑı":3020,"ĠÐºÐ¾Ð¶":3021,"ĠÐ±Ð°Ð±":3022,"ĠÐ¿Ð°Ð¿":3023,"Ð²Ð¾Ð·ÑĮ":3024,"ĠÑģÑĤÐ¾Ð»ÑĮ":3025,"ÐµÐ»Ð¸Ñĩ":3026,"ĠÐ¾ÑĤÑĤ":3027,"ÑĥÑĢÐ³":3028,"Ð»ÐµÐ½Ð¸ÐµÐ¼":3029,"Ð¾ÑĢÐ¾ÑĪÐ¾":3030,"Ð½ÑĥÐ²ÑĪÐ¸ÑģÑĮ":3031,"ĠÐŁÑĢÐ¾":3032,"ÑĢÐ°Ð¸Ð½":3033,"ĠÐ»Ð¸ÑģÑĤ":3034,"ĠÐĹÐ°Ð¿":3035,"Ð¸Ð±Ð¾":3036,"ĠÐ³Ð¾Ð´Ñĭ":3037,"ĠÐŁÐ¾ÑĤ":3038,"ĠÐĵÐ¾ÑĢ":3039,"ĠÑģÐ±Ð¾ÑĢ":3040,"Ð¡ÑĤ":3041,"ĠÐ·ÑĥÐ±":3042,"ĠÑģÐ°Ð¼ÑĭÐ¹":3043,"ĠÐ½Ð°ÑģÑĤÑĥÐ¿":3044,"ĠÐ¿ÑĢÐ¸Ð½Ð°Ð´Ð»ÐµÐ¶":3045,"ĠÑĦÐ¸Ð³":3046,"ÐºÑĥÑİ":3047,"ĠÐĳÑĢ":3048,"ĠÐ½Ð¾Ð¼":3049,"ĠÐ¸Ð´ÐµÑĤ":3050,"Ð½Ð¾Ð³":3051,"ĠÐ´Ð²ÐµÑĢ":3052,"ĠÐºÐ°ÐºÐ¾Ðµ":3053,"ĠÐ¸ÑģÑĤÐ¾ÑĢÐ¸Ð¸":3054,"ĠÐºÐ»ÑĥÐ±":3055,"ĠÑĢÑĥÐºÐ°Ñħ":3056,"ĠÐ´ÑĢÑĥÐ¶":3057,"ĠÐ±Ð¾Ð¹":3058,"ĠÐ¼Ð¾ÐµÐ³Ð¾":3059,"Ð¾Ð¼ÐµÑĤ":3060,"Ð³Ð»ÑıÐ´ÐµÐ»":3061,"ÐŃÑĤÐ¾":3062,"Ð¾ÑĤÑĥ":3063,"Ð¾ÑĩÐ½Ð¾":3064,"ĠÑģÐµÐ½ÑĤ":3065,"ÑĢÐ¸Ð³":3066,"ĠÐ½Ð°Ð·Ð½Ð°Ñĩ":3067,"ĠÐ¿ÑĢÐ¸ÑģÑĥÑĤ":3068,"ĠÐ²Ð¾Ð·Ð¼Ð¾Ð¶Ð½Ð¾ÑģÑĤÑĮ":3069,"ĠÑĥÐ²ÐµÑĢÐµÐ½":3070,"ĠÐ¼Ð»":3071,"ÐµÑĤÑĥ":3072,"ĠÑĩÐµÐ»Ð¾Ð²ÐµÑĩÐµÑģÐº":3073,"ĠÑĢÐ°ÑģÐ¿Ð¾Ð»Ð¾Ð¶":3074,"ĠÐºÐ¾Ð½ÑĦ":3075,"ĠÐ°Ð²ÑĤÐ¾ÑĢ":3076,"ĠâĢľ":3077,"ĠÑĤÐ²Ð¾ÑĢ":3078,"ĠÐ±ÑĭÑģÑĤÑĢ":3079,"Ð¸ÐµÑģÑı":3080,"ÑĢÐ°Ð½ÑĨÑĥÐ·":3081,"Ð¿ÑĢÐ¾ÑģÑĤ":3082,"ÐµÐ½Ñģ":3083,"ĠÐ±ÑĥÐº":3084,"ĠÑĢÐµÐ¶":3085,"ĠÐ¼Ð°Ð½":3086,"ÐºÐ¸Ð¼Ð¸":3087,"ĠÑģÐ¿ÑĥÑģÑĤ":3088,"ĠÑħÐ¾Ð»":3089,"ĠÑģÐ´":3090,"ĠÐ¾ÑģÑĤÐ°Ð½":3091,"ĠÐľÐ¸Ñħ":3092,"Ð»Ð°Ð·":3093,"ĠÑģÑĬ":3094,"ÐŀÑĤ":3095,"ÑģÐºÐ¸Ð¼Ð¸":3096,"Ð±Ð¸":3097,"Ð¿Ð°ÑĢ":3098,"ĠÐ²Ð½ÐµÑĪ":3099,"ĠÑģÐºÐ¾ÑĢÐµÐµ":3100,"ĠÑģÑĤÐµÐ¿":3101,"ĠÐºÐ°Ñģ":3102,"ĠÐ³Ð°ÑĢ":3103,"ĠÐ¼ÐµÐ½ÑĮÑĪÐµ":3104,"ĠÑĢÑĥÐºÐ°Ð¼Ð¸":3105,"ĠÑĥÐ´Ð°":3106,"ĠÐ²ÑĢÐ¾Ð´Ðµ":3107,"ĠÑĥÑĤÑĢ":3108,"ĠÐ°Ð³":3109,"ĠÑĦÐ¸Ð»ÑĮ":3110,"ĠÐ±ÑĥÑĢ":3111,"ĠÑģÐ¾ÑģÐµÐ´":3112,"ĠÑĥÐ½Ð¸":3113,"ĠÐ¸Ð·Ð²ÐµÑģÑĤÐ½Ð¾":3114,"ĠÐ²ÐµÑĢÑħ":3115,"ĠÐ¢ÐµÐ¼":3116,"ÑĭÐ²Ð°Ð»Ð¸":3117,"ĠÑģÐ¶":3118,"Ġâ":3119,"Ð»ÐµÑĩ":3120,"Ð¸Ð½ÑĤÐµÑĢÐµÑģ":3121,"ĠÐ³ÑĢÐ°ÑĦ":3122,"ÑģÐ»Ð¾Ð²":3123,"ĠÐ·Ð½Ð°ÐµÑĪÑĮ":3124,"Ð¸ÑĩÐµÑģÐºÐ°Ñı":3125,"ĠÐ²ÑĭÑĪÐµÐ»":3126,"ĠÑĢÐ°ÑģÑģÑĤ":3127,"Ð²ÑĭÐµ":3128,"ÑİÑĢ":3129,"ĠÐ³Ð¾ÑĢÑı":3130,"ĠÐ¡ÐµÐ¹ÑĩÐ°Ñģ":3131,"Ġ14":3132,"ĠÐ¿ÐµÑĢÐµÐ³":3133,"ĠÐŁÐµÑĢ":3134,"ÑĨÐµÐ¿":3135,"Ð°ÑĤÐµÐ»Ð¸":3136,"ĠÑĥÑħÐ¾Ð´":3137,"ĠÐļÐ¾Ð¼":3138,"ĠÐ¿ÑĢÐ¾ÑıÐ²":3139,"Ð½ÑİÑİ":3140,"ÑĢÑĥÐº":3141,"ĠÐ´Ð¾Ð»Ð³":3142,"ĠÐ½Ð°Ð¿ÑĢÐ¸Ð¼ÐµÑĢ":3143,"ĠÐ¿ÑĢÐ¾Ð²ÐµÐ´":3144,"Ð°ÑĤÐµÐ¼":3145,"ĠÐ²Ð·ÑıÐ»":3146,"Ð¾Ð¶Ð´ÐµÐ½Ð¸Ñı":3147,"ĠÐĳÑĭ":3148,"ĠÐ²ÑĢÐµÐ¼ÐµÐ½":3149,"Ð°Ð²Ð°ÑĤÑĮ":3150,"12":3151,"ĠÑĥÑĤÐ²ÐµÑĢÐ¶":3152,"ÑıÐ½ÑĥÐ»":3153,"17":3154,"ĠÐ¿ÑĥÑĤÑĮ":3155,"Ð½Ð¸ÑĩÑĤÐ¾Ð¶":3156,"ĠÐ²ÐµÑģÑĮÐ¼Ð°":3157,"Ð´ÐµÐ½":3158,"Ð½Ð¸ÐºÑĥ":3159,"ĠÐºÐ¸Ð²Ð½ÑĥÐ»":3160,"ĠÐ¿Ð¾Ð»Ð½Ð¾ÑģÑĤÑĮÑİ":3161,"ĠÐ¥Ð¾ÑĤÑı":3162,"ÑĢÑĥÐºÑĤ":3163,"ĠÑĤÐ¸ÑħÐ¾":3164,"ĠÐºÐ¾Ð½ÑĤ":3165,"ĠÐ´Ð¸":3166,"ĠÐĴÐ»Ð°Ð´Ð¸Ð¼":3167,"ĠÐ±Ð°Ð»":3168,"ĠÐ´Ð°Ð»ÐµÐºÐ¾":3169,"ĠÑĩÐµÑĤÑĭÑĢÐµ":3170,"ĠÐ¸Ð¼Ð¿":3171,"ÑģÑĤÐ²Ð¾Ð²Ð°Ð»Ð°":3172,"ĠÐ±Ð°Ð·":3173,"Ð½Ð¸ÑĨÑĥ":3174,"Ð¸Ð¶Ñĥ":3175,"ĠÐ²Ð¾ÑĢÐ¾ÑĤ":3176,"ĠÐ¼Ð°ÑĤÑĮ":3177,"ĠÐ·Ð°Ð´ÐµÑĢÐ¶":3178,"ĠÐ¿Ð¾Ð´ÑħÐ¾Ð´":3179,"ĠÐ²ÐµÑĩÐµÑĢ":3180,"ĠÐ½Ð¾Ð¶":3181,"ĠÑĢÐµÑĪÐµÐ½Ð¸Ðµ":3182,"ĠÐŁÑĢÐµÐ´":3183,"ĠÐºÐ¾Ð¼Ð¿Ð°Ð½Ð¸Ð¸":3184,"ĠÐ¾Ð±Ñģ":3185,"ĠÑĤÑĢÐµÑħ":3186,"Ð½Ð¸Ð²":3187,"ĠÐ¿Ð¾Ð´Ð³Ð¾ÑĤÐ¾Ð²":3188,"ĠÐ´ÑĥÐ¼Ð°Ð»":3189,"ÂłÐĴÑĭ":3190,"Ð»ÐµÐ½Ð°":3191,"ĠÐ²ÑĭÐº":3192,"ĠÐ¾ÐºÐ°Ð·Ð°Ð»ÑģÑı":3193,"ÑģÑĤÐ²ÐµÐ½Ð½Ð¾Ðµ":3194,"ĠÑĩÑĥÐ¶":3195,"Ð¸ÑĤÐµÐ»ÑĮÐ½ÑĭÐ¹":3196,"ĠÐ´ÐµÐ²ÑĥÑĪÐºÐ°":3197,"ĠÐ¸Ð½ÑĤÐµÑĢ":3198,"ÑĥÐµÑĤÑģÑı":3199,"ĠÑģÐ»Ð¾Ð²Ð°Ð¼":3200,"ĠÐ½Ð°Ð¼Ð¸":3201,"ĠÐ¿ÐµÑĢÐµÐ±":3202,"ĠÐ·Ð°Ð´Ð°Ñĩ":3203,"ĠÐĳÐµÑĢ":3204,"Ð»ÐµÐ½Ñĭ":3205,"ĠÐºÐ°ÐºÐ¸Ð¼":3206,".)":3207,"Ð½Ð¸ÐºÐ°Ð¼Ð¸":3208,"ĠÐ»Ð¸Ð±Ð¾":3209,"Ð¸ÑĨÑĥ":3210,"ĠÐ±Ð¾ÑĢÑĮ":3211,"ÑĪÑĤ":3212,"ĠÐºÐ°ÐºÐ°Ñı":3213,"ĠÐ¾ÑĦÐ¸ÑĨÐ¸":3214,"ĠÐŁÐ¾ÑĩÐµÐ¼Ñĥ":3215,"ĠÐ½Ð¸Ð·":3216,"ĠÐ±ÑĥÐ´ÑĥÑī":3217,"ĠÑĦÑĥÑĤ":3218,"Ð°Ð½Ð½ÑĭÑħ":3219,"Ð¾Ð²Ð¾":3220,"ĠÐļÑĢÐ¾Ð¼Ðµ":3221,"Ð»Ð¸Ñı":3222,"ĠÑĢÐ°Ð±Ð¾Ñĩ":3223,"ÐµÐ²Ð¾Ð¹":3224,"Ð½Ð°ÑĢÐ¾Ð´":3225,"ĠÐ¾Ð¿Ð¸Ñģ":3226,"ĠÐ³Ð»ÑıÐ´":3227,"Ð¾Ð²Ð¾Ð³Ð¾":3228,"ĠÐĺÐ²":3229,"ĠÐ¿ÑĢÐµÐ¿":3230,"ÑıÑĩ":3231,"Ð¸ÑĩÐ½Ð¾":3232,"ĠÑģÑĢÐ°Ð²":3233,"ĠÐ±ÐµÐ¶":3234,"ĠÐ¿Ð¾Ð»ÑĥÑĩÐ¸Ð»":3235,"ĠÐ½Ð°ÑĪÐ¸Ñħ":3236,"ĠÐ¼Ð°ÑģÑĤ":3237,"ĠÑģÐ¸Ð³":3238,"ÂłÐĵ":3239,"Ð½ÐµÐ·Ð°Ð¿":3240,"ÂłÐķ":3241,"ĠÑĤÐ¾ÑĢÐ³Ð¾Ð²":3242,"ĠÑģÐ²Ð¸Ð´ÐµÑĤ":3243,"ĠÐ¿ÑĢÐ¸Ð´ÐµÑĤÑģÑı":3244,"Ġ13":3245,"Ð½Ð¾ÑĪ":3246,"ÑĭÑģÐº":3247,"ĠÐ¿ÑĢÐ¸ÑĤ":3248,"?Â»":3249,"Ð¿Ð°":3250,"ĠÐ»ÐµÐ³ÐºÐ¾":3251,"Ð¸Ð²ÑĪÐ¸Ð¹":3252,"ĠÑıÐ½":3253,"ĠÑģÐ¾Ð²ÑĢÐµÐ¼":3254,"ĠÐ¼Ð¾Ñī":3255,"ĠÐ·Ð°Ð½ÑıÑĤ":3256,"ĠÐ½Ð°ÑĨÐ¸Ð¾Ð½":3257,"Ð¸ÑĤÐµÐ»ÑĮÐ½Ð¾Ð¹":3258,"ÑģÑĤÑĢÐµÐ»":3259,"ÐļÐ¾Ð³Ð´Ð°":3260,"ĠÑģÐ»ÐµÐ´Ð¾Ð²":3261,"ÐµÑĢÐ¿":3262,"Ð¸Ð²Ð¾":3263,"ĠÐ¾Ð±Ð¾":3264,"ĠÐ¿Ð»Ð¾ÑĤ":3265,"ĠÐ°ÑĢÑħ":3266,"Ð»Ð°ÑģÑĤÑĮ":3267,"ĠÐłÐ¤":3268,"ĠÐ¿Ð°Ð¼ÑıÑĤ":3269,"ĠÐ³ÑĢÑı":3270,"ĠÐ»Ð¾Ð¶":3271,"ĠÐ¾ÑħÐ¾ÑĤ":3272,"ĠÑħÐ¾ÑĩÐµÑĤ":3273,"ĠÑģÐ¿ÑĢÐ°ÑĪ":3274,"ĠÐ½Ñĭ":3275,"ÑģÑĤÐ°ÑĤÐ¸":3276,"ĠÑĤÐ¾Ð¿":3277,"ĠÑĥÐ½Ð¸ÑĩÑĤÐ¾Ð¶":3278,"ĠÑģÑħÐ²Ð°ÑĤ":3279,"ĠÑĤÐµÐ¼Ð½Ð¾":3280,"Ð¹ÑĤÐ¸":3281,"ĠÐ²ÑĭÑĤ":3282,"Ð°Ð¶Ð¸":3283,"ÐľÑĭ":3284,"Ð°Ð²Ð»Ð¸Ð²":3285,"ĠÐ¸Ð·ÑĥÑĩ":3286,"ÑģÐ¾Ð»":3287,"ÐµÑĩÐµ":3288,"ÑĢÑĥÑĩ":3289,"ÑģÑĤÐ²ÐµÐ½Ð½ÑĭÑħ":3290,"ĠÐ°Ð²ÑĤÐ¾Ð¼Ð¾Ð±":3291,"ĠÑĩÐ¸ÑģÐ»Ðµ":3292,"ĠÑĥÑģÑĤÑĢÐ¾":3293,"ĠÐºÑĢÐ°":3294,"ĠÑĨÐµÐ»ÑĮ":3295,"ĠÐ½Ð°ÑħÐ¾Ð´Ð¸ÑĤÑģÑı":3296,"Ð°Ð½Ð½Ð¾Ð¹":3297,"ĠÐ¾Ð±Ð²Ð¸Ð½":3298,"Ð¸Ð²Ð°ÑĤÑĮÑģÑı":3299,"Ð¸ÑıÐ¼Ð¸":3300,"Ð¸Ð½ÑĥÐ»":3301,"ĠÐ¾Ð±ÐµÑī":3302,"Ð¸Ð½Ð°Ð¼":3303,"Ð°Ð´Ð½Ð¾":3304,"ĠÐ¾ÑĤÑĢ":3305,"Ð»Ð¸Ð±Ð¾":3306,"Ð°Ð²ÑĪÐ¸ÑģÑĮ":3307,"Ð¾Ð¿ÑĭÑĤ":3308,"ĠÐ¿ÑĢÐ°Ð²Ð¾":3309,"ĠÑģÐ»Ð°Ð²":3310,"ĠÐ¼Ð¾Ð·":3311,"ĠÑĦÑĢÐ°Ð½ÑĨÑĥÐ·":3312,"Ð¼ÑĥÑĢ":3313,"ĠÐ¾ÑĤÑĨÐ°":3314,"Ð¾Ð½ÑıÑĤ":3315,"ĠÐ²Ð¸Ð´Ñĥ":3316,"Ġ[":3317,"Ð¸ÑĤÐµÑĤ":3318,"ĠÐ²ÑĭÑĪÐµ":3319,"ĠÐĴÐµÐ»Ð¸Ðº":3320,"Ð¾Ð³Ð°":3321,"Ð¸Ð²Ð°Ð»Ð°":3322,"ĠÑĤÑĢÐµÑĤÑĮ":3323,"ÐµÐ½Ð¸ÑıÐ¼Ð¸":3324,"Ð»ÐµÐ½Ð½ÑĭÐµ":3325,"ĠÑģÐ¾Ð¾Ð±ÑīÐ°ÐµÑĤ":3326,"Ð°ÑİÑīÐµÐ¹":3327,"Ð²ÐµÑĢÑģ":3328,"Ð¾ÑĩÐºÑĥ":3329,"ĠÐ´Ð¾ÑģÑĤÐ¸Ð³":3330,"ÐµÐºÐ°":3331,"ĠÐŁÐ°Ð²":3332,"ĠÐºÐ¾Ð½ÑĨÐ°":3333,"ÑĥÑīÐµÑģÑĤÐ²":3334,"ĠÑįÐ¿":3335,"ĠÐ¾ÑģÑĤÐ¾ÑĢÐ¾Ð¶":3336,"ÑģÑĭ":3337,"ĠÐķÑīÐµ":3338,"ĠÐ¸ÑģÑĤÐ¾Ñĩ":3339,"ĠÑĢÑĭÐ±":3340,"ĠÐ¾ÑĤÐ´ÐµÐ»ÑĮ":3341,"Ð»Ð°Ñĩ":3342,"ĠÐ³Ð»Ð°Ð·Ð°Ñħ":3343,"ĠÐ¾Ð´Ð½Ð¾Ð¼":3344,"Ð²Ñĥ":3345,"ĠÐ½Ð°Ð´ÐµÐ¶":3346,"ĠÐ·Ð²Ð¾Ð½":3347,"ĠÐºÐ°ÑĩÐµÑģÑĤÐ²Ðµ":3348,"Ð¸ÐµÑħ":3349,"ĠÐ¿Ð¾Ð¿ÑĢÐ¾Ñģ":3350,"ĠÐ¿ÑĥÑģÑĤÑĮ":3351,"ĠÐ¾Ð³Ð¾":3352,"ĠÐ±ÑĥÐ´ÐµÐ¼":3353,"Ð¾Ð»Ð³Ð¾":3354,"ĠÐ¾ÑĩÐµÑĢ":3355,"ĠÐ²Ð¾Ð·ÑĢÐ°ÑģÑĤ":3356,"Ð³Ð°ÑĢ":3357,"Ð¸ÑĤÐµÐ»ÑĮÐ½ÑĭÐµ":3358,"ĠÐ·Ð°Ð²Ð¸Ñģ":3359,"ĠÐ¾Ð±ÑĭÑĩÐ½Ð¾":3360,"ĠÐ´ÐµÐ¿":3361,"ĠÐ·ÐµÐ¼Ð»Ñİ":3362,"Ġ30":3363,"ĠÑĢÐ¾Ð¼":3364,"ĠÐ±Ð»Ð¸Ð¶":3365,"ÂłÐ¿":3366,"ĠÐ·Ð°ÑĩÐµÐ¼":3367,"ĠÑģÑĤÐ¸Ñħ":3368,"ĠÐŀÑĢ":3369,"ĠÐ¸Ð½Ð¾Ð³Ð´Ð°":3370,"ĠÐ½ÐµÑģÐºÐ¾Ð»ÑĮ":3371,"ĠÑĢÐ°Ð·ÑĢÐµÑĪ":3372,"ĠÑĤÐµÑĩÐµÐ½Ð¸Ðµ":3373,"Ð»ÑıÐµÑĤÑģÑı":3374,"ĠÑĥÐºÑĢÐ°Ð¸Ð½":3375,"Ð°Ð½ÐµÐµ":3376,"Ð¾Ð²Ð¾ÑĢÐ¸Ð»":3377,"Ð¸ÑĩÐµÑģÐºÐ¾Ðµ":3378,"ĠÐºÐ¾Ð¼Ñĥ":3379,"ĠÑħÐ¾Ð·ÑıÐ¹":3380,"ĠÐ¼Ð½Ð¾Ð³Ð¸Ðµ":3381,"ĠÐ¾Ð±ÐµÑģÐ¿ÐµÑĩ":3382,"Ð´Ð°ÐµÑĤ":3383,"ĠÐ´Ð¾Ð¶Ð´":3384,"ĠÐ²Ð¾Ð²ÑģÐµ":3385,"ÑĥÐ»ÑıÑĢ":3386,"ĠÐ»Ð¾ÑĪ":3387,"ĠÐľÐ°Ðº":3388,"ĠÐ¼Ð¸ÑĢÐ¾Ð²":3389,"ĠÑĪÐµÐ»":3390,"Ð°ÑģÑĤÑĮ":3391,"ĠÐļÑĢÐ°Ñģ":3392,"Ð¸Ð¼Ð¾ÑģÑĤÐ¸":3393,"Ð±ÐµÑĢ":3394,"ĠÑģÐ°Ð¼ÑĭÐ¼":3395,"ĠÐºÐ°Ð±Ð¸Ð½":3396,"ĠÐ°Ð²Ð³ÑĥÑģÑĤ":3397,"ÑĪÑĥÑİ":3398,"14":3399,"ÑĭÐ³":3400,"ĠÐ³Ð»ÑĥÐ¿":3401,"ĠÐºÑĢÐ¸Ðº":3402,"ÑĢÐ¸Ñĩ":3403,"ĠÐ¼ÑıÐ³":3404,"ĠÐ¡ÑĤÐ°ÑĢ":3405,"ĠÑĢÐµÐ·ÑĥÐ»ÑĮÑĤÐ°ÑĤÐµ":3406,"ĠÑĪÑĥÐ¼":3407,"ĠÑģÑĥÐ¿":3408,"ÑĩÐ°ÑĤ":3409,"ĠÑĢÐ°Ð·Ð´ÐµÐ»":3410,"ĠÑįÐ»ÐµÐºÑĤÑĢ":3411,"ĠÐ²Ð¾Ð·Ð´":3412,"ÐµÐ³Ð¾ÑģÑı":3413,"Ħĸ":3414,"ÐĻ":3415,"ĠÐ¿Ð¾Ð½Ð¸Ð¼Ð°Ñİ":3416,"Ð¾Ð´Ð½Ð¾":3417,"Ð¾ÑĢÑĭ":3418,"ĠÑıÐ²Ð½Ð¾":3419,"ÑĮÐ¼Ð¸":3420,"ĠÐ´Ð¾Ð²ÐµÑĢ":3421,"ĠÐ²Ð°Ð»":3422,"ĠÐĴÐ°Ð»":3423,"ĠÐ¿Ð¾Ð¸ÑģÐº":3424,"ĠÐ¼Ð¾Ðµ":3425,"Ð¾Ð»Ð¾Ñģ":3426,"ĠÑģÑĩÐµÑĤ":3427,"ĠÐ½Ð°Ð½":3428,"ĠÐĹÐ´ÐµÑģÑĮ":3429,"ĠÐ¶ÐµÐ½ÑīÐ¸Ð½Ñĭ":3430,"Ð½Ð¸ÑĨÐµ":3431,"ĠÐ·ÐµÐ¼Ð»Ð¸":3432,"ĠÑĥÑħ":3433,"Ð½Ð°ÑĩÐ¸ÑĤ":3434,"ĠÐ´Ð¾Ð¼Ðµ":3435,"ĠÐ¿ÑĢÐ¾Ð¸Ð·Ð¾ÑĪÐ»Ð¾":3436,"ĠÑģÐµÐºÑĢÐµÑĤ":3437,"ĠÐºÑĢÐµÑģ":3438,"ĠÐĶÐ¾":3439,"ĠÐ½Ð°ÑĪÐµÐ³Ð¾":3440,"Ð°Ð´Ñĭ":3441,"Ð°Ð»Ð¸Ð·Ð°":3442,"ĠÐ¿ÑĢÐ¾ÑĪÐ»":3443,"ĠÐ¸Ð½Ð°ÑĩÐµ":3444,"ĠÐ½ÐµÐ¼ÐµÑĨ":3445,"ĠÐ²Ð°Ð¼Ð¸":3446,"ĠÑĢÐ¾ÑģÑĤ":3447,"ĠÐ°ÑĢÐ¼Ð¸Ð¸":3448,"ĠÐ¿ÐµÑĢÐ¸Ð¾Ð´":3449,"ĠÑģÐ¼Ð¾ÑĤÑĢÐµÐ»":3450,"ÑİÑīÐ¸Ð¹":3451,"ÑģÐºÐ¾Ð»ÑĮÐºÐ¾":3452,"ĠÑģÐ¸Ð»Ñĥ":3453,"ĠÑĥÐ¿ÑĢ":3454,"ĠÐ´Ð¸ÑĢ":3455,"Ġ193":3456,"ĠÑģÑĤÑĢÐµÐ»":3457,"ĠÐ´ÐµÑģÑıÑĤÑĮ":3458,"ĠÐĹÐµÐ¼":3459,"ĠÐ²Ð¾Ð¾ÑĢÑĥÐ¶":3460,"Ð²Ð¾Ð½":3461,"ĠÐ¾ÐºÑĤ":3462,"ĠÐĵÐ°ÑĢ":3463,"ÑģÐºÐ¾ÑĢ":3464,"ĠÑĥÐ±ÐµÐ´":3465,"Ð¾ÑĢÐ²":3466,"Ð¦":3467,"ĠÐ¿ÑĢÐ°Ð²Ð°":3468,"ÑİÐ·":3469,"ĠÐ¿ÑĢÐ¾Ð¸ÑģÑħÐ¾Ð´":3470,"ĠÑģÐ»ÐµÐ·":3471,"ĠÐ½Ð°Ð¿Ð¾Ð¼Ð¸Ð½":3472,"ĠÐ¿ÑĢÐ¾Ð´ÑĥÐº":3473,"ĠÐ½Ð¸ÐºÐ°ÐºÐ¸Ñħ":3474,"ÐµÐ½Ð½Ð¾Ð¼":3475,"ĠÐ¾ÑĤÐ±":3476,"ĠÑģÑĤÐ¾Ð»ÑĮÐºÐ¾":3477,"ĠÐ´Ð¾Ð²":3478,"Ð°Ð²Ð°Ð»":3479,"ĠÑĤÐ¾Ð²Ð°ÑĢÐ¸Ñī":3480,"16":3481,"ĠÑģÑĥ":3482,"ÐµÐ¼ÑģÑı":3483,"ĠÐ²Ð·Ð³Ð»ÑıÐ´Ð¾Ð¼":3484,"ĠÐ¸Ð½Ð´":3485,"ÐµÐºÐ¸":3486,"ÑĢÐ¾ÑĦ":3487,"ĠÑģÐ¿Ð¾ÐºÐ¾Ð¹Ð½Ð¾":3488,"Ð¾Ð²Ð°ÑĤÑĮÑģÑı":3489,"Ð¸ÑĩÐµÐ³Ð¾":3490,"ĠÐ·Ð¾Ð»Ð¾ÑĤ":3491,"ĠÐ¾ÑĤÐºÑĥÐ´Ð°":3492,"ĠÐļÐ¾Ð»":3493,"ĠÑĩÑĥÐ²ÑģÑĤÐ²":3494,"Ð°Ð²ÑĪÐ¸Ñħ":3495,"ĠÑĤÐµÑĢÑĢÐ¸ÑĤÐ¾ÑĢÐ¸Ð¸":3496,"ĠÐ¿Ð¾Ð²ÐµÐ´":3497,"ĠÐ±ÐµÑģÑģ":3498,"ĠÑģÐ¼ÐµÑĢÑĤÑĮ":3499,"ĠÑģÐºÐ¾ÑĢÐ¾":3500,"ĠÑģÐ°Ð¼ÑĭÑħ":3501,"Ð¾ÑıÑĤÐ½Ð¾":3502,"Ð»ÑĥÐ¶":3503,"ĠÐ¸Ð½ÑĤ":3504,"!!":3505,"ÑĢÐµÐ¼Ñı":3506,"ÐµÑĢÐ´":3507,"ÐµÑĪÐµ":3508,"ĠÐ¿ÑĢÐ¸Ð½ÑĨÐ¸Ð¿":3509,"ĠÐ¿ÑĢÐ¾Ð¸ÑģÑħÐ¾Ð´Ð¸ÑĤ":3510,"ÐµÐµÑĤÑģÑı":3511,"ÑĭÐ²Ð°ÑİÑĤ":3512,"ÑĢÐµÐ¹":3513,"ĠÑģÐ»ÑĥÑĩÐ¸Ð»Ð¾ÑģÑĮ":3514,"ĠÐ´Ð¾Ð»Ð»":3515,"Ð»ÐµÐ²":3516,"ĠÐ²Ð¼ÐµÑģÑĤÐ¾":3517,"ĠÐ¿Ð¸ÑĪ":3518,"Ð°ÑĢÑĭ":3519,"ĠÐ²Ð¸Ð´ÐµÑĤÑĮ":3520,"Ð´ÐµÑĢ":3521,"ÐºÐ¾Ð½":3522,"ĠÐ¡Ð¾":3523,"ÑĢÐ¾Ð¹":3524,"ĠÑıÐ½Ð²Ð°ÑĢ":3525,"ĠÐ¡Ð¼":3526,"ĠÐ¾ÑĤÐºÑĢÑĭÐ²":3527,"ÑĥÐ¶Ðµ":3528,"ĠÐ½Ð°ÑĤ":3529,"ĠÐ½ÐµÐ´Ð¾ÑģÑĤ":3530,"ĠÐ¾ÑĤÑģÑĥÑĤ":3531,"ÐºÑĥÑģ":3532,"ĠÑĩÐµÐ¼Ð¿Ð¸Ð¾Ð½":3533,"ĠÑĨÐµÑĢ":3534,"ÑĥÑĪÐºÐ¸":3535,"ÑīÐ¸Ðº":3536,"ĠÐ¸Ð´ÑĤÐ¸":3537,"ĠÐºÐ¾Ð¼Ð½Ð°ÑĤÑĥ":3538,"ÑĢÑĥÐ³Ð¾":3539,"Ð»ÑıÐ»":3540,"ĠÐĳÐ¾ÑĢ":3541,"Ð»ÐµÑĢ":3542,"ĠÐ·Ð½Ð°Ð»Ð°":3543,"Ð¸Ð»ÐµÑĤ":3544,"Ð¾Ð²Ð°Ð»Ð°":3545,"ÑĢÐ¸Ð´":3546,"ĠÑĢÐ°Ð·Ð²ÐµÐ´":3547,"Ð²Ð¾ÑģÑĤ":3548,"Ð°Ð»ÑĮÐ½Ð¾Ð¼":3549,"ĠÐ¼ÑĭÑģÐ»ÑĮ":3550,"ĠÑģÐ²Ð¾ÐµÐ¼Ñĥ":3551,"ĠÐ¿Ð°ÑĢÑĥ":3552,"ĠÑģÐ¾Ð¾Ð±ÑīÐ¸Ð»":3553,"Ð¿ÑĢÐ¾ÑģÑĤÑĢÐ°Ð½":3554,"Ð¡Ð¡Ðł":3555,"ĠÐ±ÑĥÐ¼Ð°Ð³":3556,"Ð¸ÑģÑĤÐ¾Ð²":3557,"ĠÐ¿Ð¾ÐºÐ°Ð·ÑĭÐ²":3558,"ÑģÐµÐ´":3559,"ĠÑģÑĤÐµÐº":3560,"ĠÐĴÐ¸Ð´":3561,"ÑĩÐ¸":3562,"ĠÐ¿ÐµÑĢÐµÐ¶":3563,"ĠÐ´ÑĢÑĥÐ³Ð¾Ð¼":3564,"ĠÐ²Ð¾Ð¹ÑģÐº":3565,"Ð°Ð²ÐµÑĢ":3566,"ĠÐ¿ÑĢÐ¸Ð½ÐµÑģ":3567,"ĠÐĳÐ°ÑĢ":3568,"ĠÐ¿Ð¾Ð¼ÐµÑī":3569,"ĠÐ¾ÑĤÐ²ÐµÑĤÐ¸Ð»Ð°":3570,"ĠÑĩÐµÑģÑĤ":3571,"ĠÐļÐ¾Ð½ÐµÑĩÐ½Ð¾":3572,"ÂłÐł":3573,"ĠÑĥÐ»ÑĭÐ±Ð½ÑĥÐ»ÑģÑı":3574,"ĠÐ¾ÑĢÐ³Ð°Ð½Ð¸Ð·":3575,"ÂłÐ¥":3576,"Ð¾Ð¿ÑĢ":3577,"ĠÐ´Ð¾ÑģÑĤÐ°Ð²":3578,"ĠÑģÐºÐ²Ð¾Ð·ÑĮ":3579,"ĠÑĦÐ¸Ð½Ð°Ð½Ñģ":3580,"ĠÐºÐ¾Ðµ":3581,"ĠÐ³Ð¾ÑĢÐ¾Ð´Ðµ":3582,"ĠÐ³ÑĢÑĥÐ¿Ð¿Ñĭ":3583,"Ð°ÑĤÐ¾Ð¼":3584,"ĠÐ²Ð¸Ð´Ð½Ð¾":3585,"ĠÐ¿ÑĢÐ¾ÑģÑĤÑĢÐ°Ð½":3586,"ĠÐ½ÐµÐ¿ÑĢÐ¸ÑıÑĤ":3587,"ĠÑģÐ¸Ñħ":3588,"ÂŃ":3589,"ĠÐ¿ÑĢÐ¸ÐµÑħ":3590,"ĠÑĢÐ¾Ð·":3591,"ĠÑģÑģ":3592,"ĠÑģÑĥÑĤ":3593,"Ð°ÐºÑģÐ¸Ð¼":3594,"Ð¾ÑĢÐ¾Ð¼":3595,"Ð¾Ð¶Ð½Ð¾":3596,"ĠÑģÑĤÐ°Ð½ÐµÑĤ":3597,"Ð¸ÑĩÐµÑģÐºÐ¸Ð¼":3598,"ĠÐ¿ÑĢÐ¸ÑĪÐµÐ»":3599,"ĠÐŀÑĩ":3600,"ĠÐ¿Ð¾ÑģÑĤÑĢÐ¾":3601,"ÑĪÐµÐ¼":3602,"ĠÑĪÐ¸ÑĢÐ¾Ðº":3603,"ĠÑĨÐµÐ½ÑĤÑĢ":3604,"ĠÐ´Ð¸Ðº":3605,"ĠÐ¾Ð±ÑģÑĤ":3606,"ĠÐ¾Ð±Ð»Ð°Ð´":3607,"ĠÑĢÐ°Ð·Ð¼ÐµÑĢ":3608,"ĠÐ³Ð¾Ð»Ð¾Ð²Ðµ":3609,"ÐŁÐ¾":3610,"ĠÐ»Ð¾Ð²":3611,"ĠÑĥÐ²ÐµÐ»Ð¸Ñĩ":3612,"ĠÐ¿Ð¾Ð»Ð°Ð³":3613,"ÐµÐ·Ð´Ð°":3614,"ĠÐ¾ÑĩÐµÑĢÐµÐ´ÑĮ":3615,"ĠÑħÐ¾ÑĩÐµÑĪÑĮ":3616,"ÑĢÑıÑģ":3617,"ĠÐ·Ð°Ð¿Ð¸Ñģ":3618,"ĠÐ±Ð¾Ð»ÑĮÑĪÐ¸Ð½":3619,"ÑĤÐ¾Ð±Ñĭ":3620,"Ð°Ð¹Ð½":3621,"ĠÐ¿Ð¾Ð¼Ð¾ÑīÑĮÑİ":3622,"ĠÑĥÐ´Ð¾Ð²Ð¾Ð»ÑĮ":3623,"ÑģÑĤÐ²ÐµÐ½Ð½ÑĭÐ¼":3624,"ĠÑĢÐµÑĩ":3625,"ĠÐ´ÑĥÑĢ":3626,"Ġ25":3627,"ĠÑĢÑĥÐ±Ð»ÐµÐ¹":3628,"ĠÐ³Ð¾Ð²Ð¾ÑĢÑı":3629,"ĠÐ±Ð¾Ð»ÐµÐ·":3630,"ĠÐ¸Ð·Ð¾Ð±ÑĢÐ°Ð¶":3631,"Ð»ÐµÐ½Ð½ÑĭÑħ":3632,"Ð¾Ð»ÑĮÑĪÐµ":3633,"Ð¸ÐµÐ²":3634,"ĠÐķÐµ":3635,"ĠÐ¿ÑĢÐµÐ´ÑģÑĤ":3636,"ĠÐ¿Ð¾Ð¶Ð°Ð»ÑĥÐ¹":3637,"Ð¾ÐºÑĢÐ°ÑĤ":3638,"ÑĩÐ°":3639,"ĠÐºÐ¾Ð¼Ð°Ð½":3640,"ĠÑģÐºÐ»Ð¾Ð½":3641,"ĠÑģÐµÐ»":3642,"ĠÐ²Ð¸Ð·":3643,"ĠÐºÐ¾ÑĢÐ¿":3644,"ÑĩÐ¸Ñģ":3645,"ÐŁÐ¾Ñģ":3646,"ĠÑĦÐ°Ðº":3647,"Ð¾Ð³Ð¸":3648,"ĠÐļÐ°Ð·":3649,"ĠÐ²ÑĭÑĢ":3650,"ĠÐ¿Ð¾Ð²ÐµÑĢÑħ":3651,"ĠÑĤÐµÐ»Ð°":3652,"Ð¸ÑģÑĤÑĢ":3653,"ĠÐ¿Ð¾ÑģÑĤÐ¾ÑıÐ½Ð½Ð¾":3654,"ĠÐ¿ÑĢÐµÑģ":3655,"ĠÐ¿Ð¾ÐºÐ°Ñĩ":3656,"Ð»Ð¸Ð¶Ðµ":3657,"ĠÑĦÐ¾Ð½":3658,"ĠÑĦÐµÐ²":3659,"ĠÐºÑĥÑħ":3660,"ĠÐ¾Ð³ÑĢÐ°Ð½Ð¸Ñĩ":3661,"Ð¢Ð°Ðº":3662,"?..":3663,"ĠâĦĸ":3664,"ĠÐ¼ÐµÑħ":3665,"ĠÐ²Ð½Ð¸Ð¼Ð°Ð½Ð¸Ñı":3666,"ĠÐ²Ð¸Ð½":3667,"ĠÐĿÐ¸ÐºÐ¾Ð»":3668,"ĠÐ´Ñĥ":3669,"ĠÐºÐ¾ÑĢÐ¸Ð´":3670,"ĠÐ¾ÐºÐ°Ð·ÑĭÐ²":3671,"ÂłÐĽ":3672,"ĠÐĴÐ¸Ðº":3673,"ĠÑģÑĤÐ°ÑĤ":3674,"Ð°Ð»ÑĮÐ½ÑĥÑİ":3675,"ĠÐ½Ð°ÑģÑĤÐ¾Ð»ÑĮÐºÐ¾":3676,"ĠÐ¿Ð¾ÑĪ":3677,"Ð»ÑıÐ½":3678,"ĠÐ´ÑĢÑĥÐ³Ð¸Ð¼":3679,"ÑĢÐµÑģÑĤ":3680,"ĠÑįÑĦÑĦ":3681,"ĠÐ»ÑİÐ±Ð¸Ð¼":3682,"ĠÐ¿Ð¾ÑģÐ»ÐµÐ´Ð½Ð¸Ð¹":3683,"ĠÐºÑĢÐ°ÑģÐ¸Ð²":3684,"ĠÑģÐµÐ²ÐµÑĢ":3685,"Ð¾Ð³Ðµ":3686,"ĠÐ·Ð°ÐºÑĢÑĭ":3687,"ÐµÑĪÐ½Ð¾":3688,"ĠÐ¼Ð°Ñı":3689,"ÑĤÐ¾ÑĢÐ¾Ð²":3690,"ÑĥÑģÑĮ":3691,"ĠÑĢÐµÐ·ÐºÐ¾":3692,"ÑĢÑĥÐ³Ð¾Ðµ":3693,"Ð¼Ð°ÑĢ":3694,"Ð°Ð»Ñĥ":3695,"ĠÐ»ÐµÑģÑĤ":3696,"ĠÐºÐ»Ð¸":3697,"Ð±Ð¾Ð»":3698,"ĠÐ½Ð¾Ð²ÑĭÐµ":3699,"ĠÐŀÐº":3700,"ĠÑĢÐ¸ÑģÐº":3701,"ĠÐ³ÑĢÑĥÐ·":3702,"Ð³Ð»Ð¸Ð¹":3703,"ÑĩÑĤÐ¾":3704,"ĠÐ²Ð¿ÐµÑĩÐ°ÑĤ":3705,"ĠÐ²Ð¾Ð»Ð¾ÑģÑĭ":3706,"ĠÐ¼Ð¾Ñİ":3707,"ĠÐĹÐ°ÑĤÐµÐ¼":3708,"ĠÑĢÐ°Ð±Ð¾ÑĤÐ°ÑĤÑĮ":3709,"Ð»ÑİÐ±":3710,"ÑĥÑĤÑģÑı":3711,"ĠÐľÐ¾ÑĢ":3712,"ĠÐ°Ð¿ÑĢ":3713,"ĠÑĥÑģÐ¿ÐµÑħ":3714,"ÑİÑģÑĮ":3715,"ĠÐĲÐ»ÑĮ":3716,"ÐµÐ½Ð½Ð¾ÑģÑĤÐ¸":3717,"ĠÐ¾ÑĤÐ½Ð¾ÑĪÐµÐ½Ð¸Ñı":3718,"Ð¸ÑĤÐµÑģÑĮ":3719,"ĠÐ¿ÑĢÐ°Ð·Ð´":3720,"ĠÐ¿ÐµÑĢÐ²Ð¾Ð¹":3721,"ĠÑħÐ¾ÑĤÐµÐ»Ð°":3722,"ĠÐ¾ÑĨÐµÐ½":3723,"13":3724,"ĠÐ²ÐµÑĢÐ½ÑĥÐ»ÑģÑı":3725,"Ð¾Ð½ÑĮ":3726,"Ð»ÐµÐ½Ð½ÑĭÐ¹":3727,"ĠÐ¿ÑĢÐ¾Ð¶":3728,"ĠÐ²ÑĢÐ°Ñĩ":3729,"ÑģÐ¾Ð»ÑİÑĤ":3730,"ĠÐ½ÐµÑĢÐ²":3731,"ĠÐ¼Ð¸Ð¼Ð¾":3732,"ĠÐ¼ÐµÑĢÑĤÐ²":3733,"Ð½Ð¾Ð²ÑĢÐµÐ¼ÐµÐ½Ð½Ð¾":3734,"ÑıÑĤÐ¾":3735,"ÑıÐ»Ð°ÑģÑĮ":3736,"Ð°Ð½Ðº":3737,"ĠÐľÐ°Ð¹":3738,"ÂłÐĿÐ¾":3739,"ĠÐ¿Ð¾ÐºÑĥÐ¿":3740,"Ð¸ÑĤÐµÐ»ÑĮÐ½ÑĭÑħ":3741,"Ð¾ÑĤÐ¾Ð³ÑĢÐ°ÑĦ":3742,"Ð°Ð»Ð¸Ð½":3743,"ÑİÑĪ":3744,"ĠÐ½ÐµÐºÐ¾ÑĤÐ¾ÑĢÑĭÐµ":3745,"ĠÑģÑĤÑĥÐ¿":3746,"ĠÐ·Ð°Ð¶":3747,"ĠÐ¿ÑĢÐµÐ´Ñĥ":3748,"ĠÐ²Ð²ÐµÑĢ":3749,"ĠÐºÐ¾ÑģÐ¼":3750,"ĠÐ½Ð¾Ð²ÑĭÐ¹":3751,"ĠÐ¿Ð¾ÑģÐ»ÐµÐ´Ð½Ð¸Ðµ":3752,"Ð´Ð°Ñı":3753,"ĠÐ¿Ð¾ÑħÐ¾Ð´":3754,"ĠÐ²ÑģÑĤÑĥÐ¿":3755,"Ð½Ð°Ð¶Ð´Ñĭ":3756,"Ð°Ð´Ðµ":3757,"ĠÐ´ÐµÐ½ÐµÐ³":3758,"Ð»ÐµÐ½Ð¸Ñİ":3759,"Ġ198":3760,"ĠÐ´ÐµÐ¹ÑģÑĤÐ²Ð¸Ñı":3761,"ÑĮÐµÐ²":3762,"ĠÐ´ÐµÐºÐ°Ð±":3763,"ĠÐ¿Ð°ÑĤ":3764,"ÑĪÐ¸ÑĢ":3765,"Ġ0":3766,"ĠÐ¿ÑĢÐµÐ·Ð¸Ð´ÐµÐ½ÑĤ":3767,"ĠÐ½Ð°Ð²ÐµÑĢÐ½Ð¾Ðµ":3768,"ĠÐ¿Ð¾ÑģÐ¿":3769,"ĠÑĤÐµÑĢÐ¿":3770,"ĠÐ¿Ð¾Ð¼Ð¾ÑīÑĮ":3771,"ĠÐķÐ¼Ñĥ":3772,"ĠÑĤÑĢÑĥÐ±":3773,"Ð¾Ð´Ðµ":3774,"ĠÑĢÐµÑĩÑĮ":3775,"ĠÐ²ÑĭÐ²Ð¾Ð´":3776,"Ð¸Ð²Ð°ÑıÑģÑĮ":3777,"Ð´Ð¾Ð²":3778,"ĠÐ·ÐµÐ»ÐµÐ½":3779,"ĠÐ½ÐµÐ¾Ð±ÑħÐ¾Ð´Ð¸Ð¼Ð¾":3780,"ĠÐ²ÑģÐµÐ¼Ñĥ":3781,"Ð°ÑĩÐµÐ¼":3782,"Ð¸Ð»Ð¾Ñģ":3783,"ĠÐºÐµÐ¼":3784,"ĠÑĥÑģÐ¿ÐµÐ»":3785,"ĠÐ¿ÑĢÐµÐ²ÑĢÐ°ÑĤ":3786,"ĠÐ³Ð¾Ð²Ð¾ÑĢÑıÑĤ":3787,"ĠÐºÐ°Ð¿Ð¸ÑĤÐ°Ð½":3788,"ĠÐ²Ð½ÑĥÑĤÑĢÐ¸":3789,"ĠÐ¡Ð¡Ð¡Ðł":3790,"ÑĨÐµÐ»":3791,"ĠÐ³Ð»ÑıÐ´Ñı":3792,"ĠÐ´ÑĢÑĥÐ³Ð¾Ð³Ð¾":3793,"Ð¾Ð»Ðº":3794,"ĠÐ´Ð²Ð°Ð´ÑĨÐ°ÑĤÑĮ":3795,"ĠÑĤÑİ":3796,"ĠÐ³Ð¾ÑĢÐ°Ð·":3797,"ÐµÐ»ÑģÑı":3798,"ĠÐ¸Ð¼ÐµÐ½Ð¸":3799,"ĠÐ¿ÑĢÐ¸Ð¶":3800,"ĠÐ²ÐµÐºÐ°":3801,"ÐµÐ¹Ñģ":3802,"ĠÐ¸Ð±Ð¾":3803,"ĠÐ¿Ð¾Ð´Ð½":3804,"Ð¿Ð¾Ñĩ":3805,"ĠÐ³ÑĢÑıÐ·":3806,"ĠÐ¾Ð±ÐµÑĢ":3807,"ĠÑĦÑĢÐ¾Ð½":3808,"Ð»Ð°Ð½Ð´":3809,"ĠÐ¿Ð¾ÑĢÑĤ":3810,"ĠÐ½ÐµÐ²Ð¾Ð·Ð¼Ð¾Ð¶Ð½Ð¾":3811,"ĠÐ¼Ð°Ð»ÑĮÑĩ":3812,"ĠÑģÐ¿Ð¾ÑĢ":3813,"ĠÐ¼ÑĥÐ¶ÑĩÐ¸Ð½Ð°":3814,"ĠÐ¿ÑĢÐµÑģÑģ":3815,"Ð¼ÐµÑħ":3816,"ĠÑĩÐµÑĢÑĤ":3817,"ĠÐ³ÑĢÑĥÐ´":3818,"ĠÐ¿Ð»Ð¾ÑħÐ¾":3819,"ĠÑĢÐ¾ÑĤ":3820,"ĠÐ½ÐµÐ½Ð°Ð²":3821,"ĠÐ´Ð¾Ñģ":3822,"ĠÐ²Ð°ÑĢÐ¸":3823,"ĠÐ°Ð»ÑĮ":3824,"ÑĤÐ¾ÑĢÑĭ":3825,"Ð¸ÑĤÐµÐ»ÑĮÐ½ÑĭÐ¼":3826,"ĠÐĵÐ¾ÑģÐ¿Ð¾Ð´":3827,"ĠÐ¶ÐµÐ½ÑīÐ¸Ð½":3828,"ĠÐ´ÑĥÑħÐ¾Ð²":3829,"ĠÐ²Ð¾Ð·Ð¼Ð¾Ð¶Ð½Ð¾ÑģÑĤÐ¸":3830,"ĠÑĢÐ°ÑģÐ¿ÑĢÐ¾ÑģÑĤÑĢÐ°Ð½":3831,"ÑģÑĤÐ²ÐµÐ½Ð½ÑĭÐµ":3832,"Ð°ÐºÑĥ":3833,"ĠÐ¿Ð¾Ð¼Ð¾ÑĩÑĮ":3834,"ÐµÑĢÐµÐ½":3835,"ĠÐµÑģÑĤÐµ":3836,"ĠÑĤÑĢÐµÐ²":3837,"ĠÑģÐ½Ð°ÑĩÐ°Ð»Ð°":3838,"ĠÐ±Ð¾Ð³Ð°ÑĤ":3839,"ĠÐ½Ð°Ð¹Ð´":3840,"Ð¸ÑĤÐµÐ»ÑĮÐ½Ð¾Ð³Ð¾":3841,"ĠÐ·ÐµÐ¼Ð»Ðµ":3842,"ÑĩÐ¸Ð²Ð¾":3843,"Ð¿ÑĢÐµÐ¶":3844,"ĠÑģÑĥÐ±":3845,"ĠÐ¿ÐµÑĢÐ²Ð¾Ð³Ð¾":3846,"Ð°ÑĪÐµ":3847,"ÑįÐ»":3848,"ĠÐ³Ð¾ÑĢÐ°Ð·Ð´Ð¾":3849,"ĠÐ¾Ð±ÑĢÐ°ÑĤÐ½Ð¾":3850,"ĠÐ¢Ð¾Ð¼":3851,"Ġ11":3852,"Ð¿ÑĢÐ¸ÑıÑĤ":3853,"ĠÐ¼Ð¾Ð¸Ñħ":3854,"ĠÐ¿ÑĢÐµÐ´Ð»Ð°Ð³":3855,"ĠÐŃÑĤÐ¾ÑĤ":3856,"ĠÐºÐ¾ÑĢÐ¾Ð»ÐµÐ²":3857,"ÑĥÐ´ÑĢ":3858,"Ð½ÑıÐºÐ°":3859,"ĠÐ¾ÑĤÐ¼ÐµÑĩ":3860,"ĠÐ¿Ð¾Ð¼Ð¾ÑīÐ¸":3861,"ĠÐĶÐ°Ð²":3862,"ĠÐ²Ð¿ÐµÑĢÐ²ÑĭÐµ":3863,"Ð¸ÑĨÐ¸Ñı":3864,"ÑĥÑģÑĤÑĮ":3865,"ĠÑģÑĢÐ°Ð²Ð½":3866,"ĠÐ¼Ð½Ð¾Ð¶Ðµ":3867,"ĠÑĥÐ´ÐµÑĢÐ¶":3868,"Ð»ÑıÑĤ":3869,"ĠÐ¸Ð³ÑĢÐ°":3870,"ĠÐ¿ÑĢÐ¾Ð´Ð¾Ð»Ð¶Ð°Ð»":3871,"ĠÐ¼Ð½Ð¾Ð³Ð¸Ñħ":3872,"ĠÐ·Ð°ÑħÐ²Ð°ÑĤ":3873,"Ð¾Ð²ÑĭÐ¼":3874,"ÂłÐ´":3875,"ĠÐĽÐµÐ½":3876,"Ð°ÑĢÑı":3877,"Ð°Ð¼ÐµÑĤ":3878,"ĠÐ²ÐµÑīÐ¸":3879,"ĠÑģÑĭÐ½":3880,"ĠÐ·Ð°ÑīÐ¸ÑĤ":3881,"ĠÐ²Ð¾Ð·Ð»Ðµ":3882,"ĠÐ²Ð·ÑıÑĤÑĮ":3883,"ĠÐ´Ð¶":3884,"Ð¸ÑĩÐ°":3885,"ĠÑģÐ½Ð¸Ð¼":3886,"ĠÐ¾ÑģÑĥÑīÐµÑģÑĤÐ²":3887,"ĠÐ²ÑĭÐ³Ð»ÑıÐ´":3888,"ĠÐŁÑĥÑĤ":3889,"ĠÑģÐ²ÑıÑĤ":3890,"ÑĥÐ¶ÐµÐ»Ð¸":3891,"ĠÐĲÐ´":3892,"ĠÑģÐ¾Ð»Ð´Ð°ÑĤ":3893,"Ð»ÐµÐ½Ð¸Ð¹":3894,"ĠÐ¾Ð·Ð½Ð°Ñĩ":3895,"ĠÐ´Ð°ÑĤÑĮ":3896,"ĠÐ¿Ð¾Ð¿Ð°Ð´":3897,"ÑĭÐ²Ð°Ð»Ð°":3898,"ĠÐ·Ð°Ð²ÐµÑĢÑĪ":3899,"ÑĦÐµ":3900,"ĠÐ¡Ð°Ð½":3901,"ÐµÑģÐ°":3902,"ĠÐ»ÑİÐ±Ð¾Ð¹":3903,"ĠÐ¾ÑĤÐ²ÐµÑĢ":3904,"ÑĩÐµÑĢÐ°":3905,"ĠÑĢÐ¾Ð»ÑĮ":3906,"ÑĢÐµÐ´Ð¸":3907,"ĠÐºÐ¾Ð½ÑĨÐ¾Ð²":3908,"ĠÑģÐ¸Ð´ÐµÐ»":3909,"ĠÐ¿ÑĤ":3910,"ĠÑģÐµÐ½ÑĤÑıÐ±ÑĢÑı":3911,"ĠÐ½ÐµÐ¿Ð¾Ð´":3912,"Ð°Ð¼Ð¿":3913,"ĠÐ³Ð¾ÑĢÑıÑĩ":3914,"Ð§ÑĤÐ¾":3915,"Ð¸ÑĤÑĥÑĤ":3916,"ĠÑģÑĩÐ°ÑģÑĤÐ»Ð¸Ð²":3917,"ĠÐºÐ¾Ð½ÑģÑĤ":3918,"Ð½ÑıÐ»Ð¸":3919,"ĠÑĥÐ½Ð¸Ð²ÐµÑĢÑģ":3920,"ĠÑĥÐ²Ð°Ð¶":3921,"Ġ2015":3922,"ĠÐ½ÐµÐ³":3923,"Ð½ÐµÐ·Ð°Ð¿Ð½Ð¾":3924,"Ð½Ð°Ð»":3925,"Ð¾ÑĤÐ¾":3926,"ĠÐĴÐ¿ÑĢÐ¾ÑĩÐµÐ¼":3927,"Ð´ÑĥÑī":3928,"ĠÐ±Ð»Ð¸Ð¶Ð°Ð¹":3929,"ĠÐ´Ð¾ÐºÐ°Ð·":3930,"Ð¸ÑĤÐµÐ»ÑĮÐ½Ð¾Ðµ":3931,"ĠÐºÐ¾Ð½Ñĩ":3932,"ĠÐ±ÑĥÑĤ":3933,"ĠÑĢÑĥÑĩ":3934,"Ð¸Ð»Ñı":3935,"ĠÐ´Ð¾Ð³Ð°Ð´":3936,"ĠÐ¼Ð°ÑĪÐ¸Ð½Ñĭ":3937,"ĠÐ½ÐµÐ¸Ð·Ð²ÐµÑģÑĤ":3938,"Ð¼Ð°ÑĤ":3939,"ĠÐ´ÑĥÐ¼Ð°ÑĤÑĮ":3940,"ĠÐĺÑħ":3941,"ĠÐ½Ð°ÑģÑĤÑĢÐ¾":3942,"ĠÐ¸ÑģÐ¿ÑĥÐ³":3943,"ĠÐ±ÑĢÐ°ÑĤÑĮ":3944,"ĠÐ»Ð¸ÑĤÐµÑĢ":3945,"Ð¾Ð»Ð¾Ð³Ð¸Ð¸":3946,"ĠÑģÑĥÑħ":3947,"ĠÑģÑĤÑĥÐ´":3948,"ĠÑħÑĢÐ°Ð½":3949,"ĠÐ´Ð²ÑĥÐ¼":3950,"ĠÐ²Ð¾Ð¿ÑĢÐ¾ÑģÑĭ":3951,"ĠÐ¶Ð¸Ð»":3952,"ĠÑıÑģÐ½Ð¾":3953,"ĠÐĲÐ»ÐµÐºÑģÐ°Ð½Ð´ÑĢ":3954,"ÑĥÑı":3955,"ĠÐºÐ¾Ð¼Ð½Ð°ÑĤÐµ":3956,"Ð¸Ð¼Ð¾ÑģÑĤÑĮ":3957,"ĠÐ¿Ð¾ÑĪÐµÐ»":3958,"ÑĨÐ°Ð¼":3959,"ĠÑģÑĤÑĢÐ°Ð´":3960,"ĠÑĪÑĥÑĤ":3961,"ÑĢÐ¸ÑģÑĤÐ¸Ð°Ð½":3962,"ĠÐ¿Ð¾Ð³Ð¾Ð²Ð¾ÑĢ":3963,"ĠÐ¿ÑĢÐ¸ÐµÐ¼":3964,"ĠÐ°Ð²Ð¸":3965,"ĠÐ¼Ð°Ð³Ð°Ð·":3966,"ĠÐ½Ð°ÑĩÐ°Ð»Ðµ":3967,"ĠÐ½Ð°Ð¿Ð°Ð´":3968,"ĠÐ±Ð°ÑĤ":3969,"ÐµÑĢÐµÐ¶":3970,"Ð½Ð°Ð´ÑĨÐ°ÑĤÑĮ":3971,"ĠÑģÐ¾ÑģÑĤÐ¾ÑıÐ½Ð¸Ð¸":3972,"ĠÑĢÐµÐ¿":3973,"ĠÐ¾ÑģÐ»":3974,"ĠÐ±ÐµÐ·Ð¾Ð¿Ð°ÑģÐ½Ð¾ÑģÑĤÐ¸":3975,"ÑĭÐ»Ð°":3976,"ĠÐºÐ»ÑİÑĩ":3977,"ĠÐ½ÐµÑĢ":3978,"ĠÐºÐ½ÑıÐ·":3979,"ÐºÐ°Ðº":3980,"Ð¾Ð·Ð°":3981,"ĠÐºÐ°ÐºÑĥÑİ":3982,"ĠÐ²ÑĭÐ³":3983,"ĠÐ²ÐµÑĤÐµÑĢ":3984,"ĠÐ½ÐµÑģÐ¼Ð¾ÑĤÑĢÑı":3985,"ĠÑģÐ¸Ð»Ð°":3986,"ĠÐ¼Ð¸Ð½ÑĥÑĤÑĥ":3987,"ĠÐºÐ°Ð¿Ð¸ÑĤ":3988,"ÐĶÐ¶":3989,"ĠÐ¿Ð¾ÑĢÐ°Ð¶":3990,"ĠÑĢÐµÐ¼":3991,"Ð¸ÑĢÑĥÐµÑĤ":3992,"ĠÐ¿Ð¾Ð´Ð°ÑĢ":3993,"ÐºÑĥÑĢ":3994,"ÐµÐ´Ð°":3995,"ĠÐ¿Ð°Ð½":3996,"ĠÐ´ÑĢÑĥÐ³Ð¾Ðµ":3997,"ĠÐ°ÑĤ":3998,"ĠÐ°Ð½Ð³":3999,"ÑĥÐµÐ¼":4000,"ĠÑĢÐµÐ²Ð¾Ð»Ñİ":4001,"ĠÐ¿Ð¸ÑĢ":4002,"ĠÐ²ÑĭÐ½Ñĥ":4003,"ĠÑĤÑĢÐ°Ð´":4004,"ĠÐĳÐ¾Ð»ÑĮÑĪ":4005,"Ð°Ð²ÑĪÐ¸Ðµ":4006,"ÐºÐ¾ÑĢ":4007,"Ð¾Ð²ÑĭÐ¹":4008,"ĠÐ¾Ð±ÑĢ":4009,"ÂłÐ¼":4010,"Ð¾Ð»Ð¸":4011,"ĠÐ¾ÐºÐ°Ð·Ð°Ð»Ð¾ÑģÑĮ":4012,"ĠÐ´ÑĢÑĥÐ·ÑĮÑı":4013,"ÐµÐ½Ð¸Ð²":4014,"ĠÐĲÐ½Ð´":4015,"ĠÐ»ÑĮ":4016,"ĠÐ¾ÑĩÐµÐ²Ð¸Ð´":4017,"âĢ¦Â»":4018,"ĠÐ½Ð°ÑĩÐ°Ð»Ð¸":4019,"ĠÑĥÑģÑĤÐ°Ð²":4020,"ĠÑģÑĢ":4021,"ĠÐłÐ°Ñģ":4022,"ĠÑģÐ¸ÑģÑĤÐµÐ¼Ñĭ":4023,"Ð¸Ð»Ð¾ÑģÐ¾ÑĦ":4024,"ĠÐºÐ²Ð°ÑĢÑĤÐ¸ÑĢ":4025,"ĠÐ½ÐµÑģÐºÐ¾Ð»ÑĮÐºÐ¸Ñħ":4026,"Ð¸Ð±Ð¾Ð»ÐµÐµ":4027,"ĠÑĩÐ°ÑģÐ°":4028,"ĠÑģÐ»ÐµÐ³":4029,"Ð¸ÑĤÐ°Ð¹":4030,"ĠÐ¿Ð¾Ð¼Ð½":4031,"ÑĥÐ¼Ð°Ð½":4032,"ĠÐ¼Ð¸Ð³":4033,"Ð°ÑĨÐ¸Ð¸":4034,"ĠÐ¿Ð»ÐµÑĩÐ°Ð¼Ð¸":4035,"ĠÐ¿Ð¾ÑģÐµÐ»":4036,"ĠÑĪÐµÑģÑĤÑĮ":4037,"ĠÑģÐµÑĤ":4038,"ĠÐľÐ°Ð»":4039,"ĠÑĤÐ°ÐºÐ¾Ð¼":4040,"ĠÐ³ÑĢÑĥÐ´Ð¸":4041,"ĠÐ¿Ð¾Ð´Ñģ":4042,"ĠÐºÑĢÐ¾Ð²Ð¸":4043,"ĠÐłÐ¾Ð´":4044,"ĠÐľÐ¾ÑģÐºÐ²Ðµ":4045,"ĠÐ·Ð°Ð¿Ð°Ñħ":4046,"ÑĨÐµÐ½ÑĤ":4047,"ĠÐ¿ÐµÑĢÐµÐ½":4048,"ĠÐ³Ð¾Ð»Ð¾Ð²Ñĭ":4049,"ĠÐĿÐ°Ð´Ð¾":4050,"ĠÑĤÐ°Ð±":4051,"ĠÐ´ÑĭÐ¼":4052,"ĠÐ¡Ð¾Ð²ÐµÑĤ":4053,"Ð¸Ð½Ð¾Ð¼":4054,"ĠÐ¼Ð¾Ð³Ð»Ð¾":4055,"ÐµÐºÑģ":4056,"ĠÑĢÐµÐ±ÑıÑĤ":4057,"ĠÐ¾Ð±ÑģÑĤÐ¾ÑıÑĤÐµÐ»ÑĮ":4058,"ÐµÐ¹ÑģÑı":4059,"ĠÐ¿ÑĢÐ°ÐºÑĤÐ¸ÑĩÐµÑģÐºÐ¸":4060,"Ð¸ÑĩÐµÑģÐºÑĥÑİ":4061,"ĠÐ¼ÐµÑĤÐ°Ð»":4062,"ÐĺÐ·":4063,"ĠÐ¾ÑģÑĤÐ°Ð»Ð¾ÑģÑĮ":4064,"ĠÐ¸Ð¼ÐµÐ»":4065,"ĠÐ¿ÐµÑĢÐµÑħÐ¾Ð´":4066,"ĠÑĥÐ»Ð¸ÑĨÐµ":4067,"ĠÐ·Ð°Ð¿Ð°Ð´":4068,"ÐµÑħÐ°Ð»":4069,"ĠÑģÑĤÐµÐ½Ñĭ":4070,"Ð½ÑĥÐ»Ð¾":4071,"ĠÐ½Ð¾ÑĩÑĮÑİ":4072,"ĠÐµÑħ":4073,"Ð¾ÐºÐ¸":4074,"ĠÐ¾ÑģÑĤÑĢÐ¾Ð²":4075,"Ð½Ð¸ÐºÐ°Ð¼":4076,"ĠÐ½Ð°Ñħ":4077,"ĠÐ¿Ð¾Ð»Ñı":4078,"Ð¸Ð²Ð°Ð»ÑģÑı":4079,"Ð¸Ð»Ð»Ð¸":4080,"Ð¸ÑĤÐµÐ»ÐµÐ¼":4081,"ĠÐºÐ¸Ð»":4082,"ĠÐ¿Ð¾Ð»ÑĥÑĩÐ¸ÑĤÑĮ":4083,"ĠÑģÐ»ÐµÐ³ÐºÐ°":4084,"ĠÐĳÑĥÐ´":4085,"Ð¼Ð¸ÑĢ":4086,"ĠÐ¸Ð¼Ð¿ÐµÑĢ":4087,"ĠÑĤÑĢÑĥÐ´Ð½Ð¾":4088,"Ð°ÑĤÐµÑĢ":4089,"Ð¸ÑĤÐµÑĤÐ°":4090,"ĠÐ½ÐµÑģÑĩÐ°ÑģÑĤ":4091,"ĠÐ²ÑĭÐ´ÐµÐ»":4092,"ĠÐĿÐ¸":4093,"Ð°ÐºÐ¾Ð½":4094,"ÑĢÐµÑģ":4095,"ĠÐ·Ð°Ð¿ÑĢ":4096,"ĠÐ·Ð°Ð±Ð¾ÑĤ":4097,"ĠÐ¸Ð·Ð²":4098,"ĠÐ²Ð·ÑĢÑĭÐ²":4099,"ÂłÐ¢Ð°Ðº":4100,"Ð¿Ð¾Ð½":4101,"ĠÐ¾Ð³Ð¾Ð½ÑĮ":4102,"ĠÐ¶Ð°ÑĢ":4103,"Ð½Ð¾ÑģÑĤÑĢÐ°Ð½":4104,"âĢľ":4105,"Ð°ÐºÐ¾Ð½ÐµÑĨ":4106,"ĠÑģÐ½ÐµÐ³":4107,"ÐĺÐ½":4108,"Ð¼Ð¿":4109,"ĠÐ»ÐµÐ²":4110,"ĠÐ´Ð½Ð¸":4111,"ĠÑĢÐ°Ð·Ð²Ðµ":4112,"Ð°ÑĢÑħ":4113,"ĠÐ¢ÑĥÑĤ":4114,"Ð¸ÑĢÐ¾Ð²Ð°Ð»Ð¸":4115,"ĠÐĵÐµÑĢÐ¼":4116,"ÐµÐ´Ð»ÐµÐ½Ð½Ð¾":4117,"ĠÐ¿ÑĢÐ¾ÐµÐºÑĤ":4118,"ĠÐ°ÑĢÑĤ":4119,"Ð¿ÑĢÐ¾Ñģ":4120,"ĠÐ»Ð¸ÑĨÐµ":4121,"ĠÐ¼Ð¾ÑĢÐµ":4122,"Ð¸ÑĤÐ¾Ð²":4123,"ĠÐ°Ð±ÑģÐ¾Ð»ÑİÑĤ":4124,"ĠÐ±Ñİ":4125,"ĠÐ½Ð¸ÐºÐ°ÐºÐ¾Ð³Ð¾":4126,"ĠÐ¿ÑĢÐ¸Ð¾Ð±ÑĢ":4127,"ĠÑĢÐ°Ðº":4128,"ĠÐĽÐµ":4129,"Ð°Ð½Ð½Ð¾Ðµ":4130,"ĠÑģÐºÐ»Ð°Ð´":4131,"ĠÐĶÑĥÐ¼":4132,"ĠÐ¿Ð¾Ð´Ð¿Ð¸Ñģ":4133,"ĠÐ´Ð¾Ñĩ":4134,"ĠÐĶÐ¼":4135,"Ð¿ÑĢÐ¸Ð½Ð¸Ð¼":4136,"Ð¸Ð½Ñı":4137,"ÐµÐºÑĥ":4138,"ĠÑģÐ°Ð¼ÑĭÐµ":4139,"ĠÑĤÐµÐ¾ÑĢ":4140,"ĠÐºÐ»Ð°ÑģÑģ":4141,"ÑģÐºÐ°Ð·":4142,"ĠÐ³Ð»ÑĥÐ±Ð¾Ðº":4143,"Ð¾ÑĢÑĥ":4144,"ÄĲ":4145,"____":4146,"ÑĦÐ°":4147,"ĠÑĢÐ°Ð·ÑĢÑĥÑĪ":4148,"ĠÑĦÐ¾ÑĤÐ¾Ð³ÑĢÐ°ÑĦ":4149,"ĠÑĪÐµÑģÑĤ":4150,"ĠÐ³Ð°Ð»":4151,"ĠÐ¼Ð¾Ð¶ÐµÑĤÐµ":4152,"Ġ196":4153,"Ġ2014":4154,"ĠÐºÐ¾ÑĪ":4155,"ĠÐ¿Ð¾ÑĢÑıÐ´ÐºÐµ":4156,"ĠÐ¼ÑĥÑĩ":4157,"Ð²Ð¾Ð¹":4158,"Ð»ÑıÑı":4159,".).":4160,"Ð¾Ð²Ð°Ñı":4161,"ĠÑģÐ²ÐµÑĤÐµ":4162,"ĠÑģÑĤÑĢÐ°Ð½Ðµ":4163,"ĠÐ¾ÑĤÑĩÐ°Ñı":4164,"ĠÐ»ÑİÐ±Ð²Ð¸":4165,"ĠÐŀÐ´Ð¸Ð½":4166,"ÑģÑĤÐ²Ð¸ÐµÐ¼":4167,"ĠÐ²Ð²ÐµÑĢÑħ":4168,"ĠÐłÐ¾ÑģÑģÐ¸Ñı":4169,"ĠÑĢÐ°ÑģÑģÐ¼Ð°ÑĤÑĢ":4170,"ĠÐŁÑĢÐ¾ÑģÑĤÐ¾":4171,"ĠÐ½Ð°Ð¿ÑĢÑıÐ¶":4172,"ĠÑĥÐ²Ð¸Ð´ÐµÑĤÑĮ":4173,"ĠÐ±Ð°ÑĪ":4174,"ĠÐ¿Ð¾Ð»ÐµÐ·":4175,"ĠÐ²ÑĭÑıÑģÐ½":4176,"ĠÐ´Ð°Ð½Ð½ÑĭÐ¼":4177,"ĠÐĲÐ½Ð´ÑĢ":4178,"Ð½Ð¸ÐºÐµ":4179,"ĠÐ¾ÑĢÑĥÐ¶Ð¸Ðµ":4180,"ÑįÐº":4181,"ĠÑĥÑĤÑĢÐ¾Ð¼":4182,"ĠÐ¿Ð¾Ð½ÑıÐ»Ð°":4183,"ĠÐ²Ð»Ð¸Ñı":4184,"ĠÑĢÐ°Ð¼":4185,"Ð¬":4186,"ĠÐ¡Ð»":4187,"ĠÑģÐµÐ¼ÑĮ":4188,"ĠÐ·Ð²ÐµÑĢ":4189,"ĠÑĨÐµÐ¿":4190,"ĠÐ¼Ð°Ð¼":4191,"Ð°ÑİÑīÐµÐ³Ð¾":4192,"ĠÐ¾Ð´Ð½Ð¾Ð²ÑĢÐµÐ¼ÐµÐ½Ð½Ð¾":4193,"ĠÐĶÐµÐ²":4194,"ĠÐ°Ð´Ð¼Ð¸Ð½Ð¸ÑģÑĤ":4195,"ĠÐ¿ÑĢÐ¸Ð²Ð¾Ð´":4196,"Ð°Ð¶Ð°":4197,"ĠÑģÐ¾Ð±ÑĢ":4198,"ĠÑĤÑı":4199,"Ġ197":4200,"Ð¸ÑĨÐ¸Ð¾Ð½":4201,"ÑİÑīÐ¸Ðµ":4202,"ĠÐ²Ð·Ð°":4203,"ĠÐ³ÑĥÐ±Ñĭ":4204,"ÐŀÐ´":4205,"ĠÐºÐ¾ÑĤÐ¾ÑĢÐ¾Ð¼Ñĥ":4206,"ĠÑģÐ¿Ð¾ÑĢÑĤ":4207,"ĠÐ°Ð³ÐµÐ½ÑĤ":4208,"ĠÑĩÐµÑĤÑĭÑĢ":4209,"ĠÐ¾Ð±ÑīÐµÐ¼":4210,"ĠÐļÐ¸ÑĢ":4211,"Ð²ÐµÐ¹":4212,"ĠÐ½Ð¾ÑĩÐ¸":4213,"ĠÐ½Ð¸ÐºÐ¾Ð³Ð¾":4214,"ĠÐ¿Ð¾Ð´ÑĢÐ¾Ð±":4215,"ĠÐ²Ð»Ð°ÑģÑĤ":4216,"11":4217,"ĠÐ½Ð¾Ð²Ð¾Ð³Ð¾":4218,"ĠÐ·Ð½Ð°ÐµÑĤÐµ":4219,"ĠÐ¿ÑĢÐµÐ´Ð¾ÑģÑĤÐ°Ð²":4220,"ĠÑĤÐ°ÐºÑĥÑİ":4221,"ĠÐ¾Ð±Ðµ":4222,"Ð¾ÑĢÐ¼Ð¾ÑĤ":4223,"Ð¾ÐµÐ²":4224,"ĠÐºÐ°ÐºÐ¸Ñħ":4225,"ĠÐ¸Ð¼ÐµÑĤÑĮ":4226,"ÑıÑīÐ¸Ð¹":4227,"ÑĮÑĤÐµ":4228,"ĠÐ³Ð¾Ð»Ð¾ÑģÐ¾Ð¼":4229,"ĠÑĩÑĤÐ¾Ð±":4230,"ĠÐ°Ð²ÑĤ":4231,"ÑĤÐ¾Ðµ":4232,"ĠÑģÐºÑĢÑĭÐ²":4233,"ÐµÐºÑĤÐ°":4234,"ĠÐ¾Ð±Ð»":4235,"ĠÐ§ÐµÑĢÐµÐ·":4236,"Ð¾Ð±ÑĭÑĩ":4237,"ĠÐŁÑĢÐ°Ð²Ð´Ð°":4238,"ĠÐ°Ð²Ð³ÑĥÑģÑĤÐ°":4239,"ĠÑĥÑģÐ¼ÐµÑħ":4240,"ĠÐ²Ð¾Ð´Ñĥ":4241,"ĠÐĵÐ´Ðµ":4242,"ÐµÐ½Ð·":4243,"Ð¸Ð·Ð¼Ð°":4244,"ÐµÐ»Ð¸ÑģÑĮ":4245,"Ð°ÑİÑīÐ¸Ð¼":4246,"ÑĨÐ¾Ð¼":4247,"ĠÐºÐ¾Ð¼Ð¼Ñĥ":4248,"ĠÐºÑĢÑĭÑĪ":4249,"Ð½Ð¾Ð´":4250,"Ð°Ð¹ÑģÑı":4251,"ĠÑĥÐ·Ð½Ð°ÑĤÑĮ":4252,"Ð±Ð¾Ð¹":4253,"ĠÑıÐ·ÑĭÐº":4254,"Ð¼Ð¾Ð²":4255,"Ð¾Ð»ÑĮÐ½Ð¾":4256,"ÑĨÐ°ÑĢ":4257,"ĠÐ²ÐµÑĩÐµÑĢÐ¾Ð¼":4258,"ĠÐ·Ð°Ð²ÑĤÑĢÐ°":4259,"Ð¸Ð¹ÑģÐºÐ¾Ð¹":4260,"ĠÐ½ÐµÐ¾Ð¶Ð¸Ð´Ð°Ð½Ð½Ð¾":4261,"ÐĴÑģÐµ":4262,"ÂłÐŁÑĢ":4263,"ĠÑĢÐ°Ð¹Ð¾Ð½Ðµ":4264,"ÐĶÐ°":4265,"ĠÐµÐ¶":4266,"Ð°Ð»Ð¾Ð¼":4267,"ĠÑĩÐµÐ»Ð¾Ð²ÐµÐºÐ¾Ð¼":4268,"ĠÐ²Ð¸Ð´ÐµÐ»Ð°":4269,"ÑĢÐµÐ¶Ð´":4270,"Ð»Ð¾Ð¿":4271,"ĠÑģÐ¿Ð¸Ð½Ð¾Ð¹":4272,"ĠÐ²ÑĭÑĪ":4273,"ĠÐŀÐ¿":4274,"Ð°Ð¶Ñĥ":4275,"ĠÐĽÑĥ":4276,"ÑģÐºÐ¾Ð²":4277,"ĠÐ¸Ð½ÑĦÐ¾ÑĢÐ¼Ð°ÑĨÐ¸Ð¸":4278,"Ð¾Ð»Ðµ":4279,"ĠÐ¼Ð¾ÑģÑĤ":4280,"ĠÐŃÐ½":4281,"ĠÐ°Ð½Ð³Ð»Ð¸Ð¹":4282,"Ð¾Ð·Ð½Ð°Ñĩ":4283,"ĠÐ²Ð¸Ð½Ð¾Ð²":4284,"ÐµÐ½Ðµ":4285,"ĠÑģÐ´ÐµÑĢÐ¶":4286,"ĠÐ¿Ð»Ð°ÑĤÑĮ":4287,"ÐµÐ¶Ð°Ð»":4288,"ĠÐŁÐ¾ÐºÐ°":4289,"ÂłÐĴÐ¾ÑĤ":4290,"ĠÐ´ÐµÑĤÐ¸":4291,"ĠÑģÑĢÐ°Ð¶":4292,"ĠÐ¼Ð°ÑĤÐµÑĢ":4293,"Ð´ÐµÑģÑıÑĤ":4294,"ĠÐ±Ð¸Ð·Ð½ÐµÑģ":4295,"ĠÐ¿Ð¾Ð´Ðº":4296,"ĠÑģÐ²Ð¸Ð´ÐµÑĤÐµÐ»ÑĮ":4297,"ÐµÐ·Ð´Ðµ":4298,"Ð°Ð½ÑĤÐ°":4299,"ĠÐºÑĢÐ°Ð¹Ð½ÐµÐ¹":4300,"ÐĲÐ½":4301,"ĠÑĢÐ°Ð·ÑĢÐ°Ð±Ð¾ÑĤ":4302,"ĠÑĢÐµÐ»Ð¸":4303,"ÑĢÐ°ÑĨÐ¸Ð¸":4304,"ĠÐĺÐ²Ð°Ð½Ð¾Ð²":4305,"ĠÐ¿ÑĢÐ¾Ñī":4306,"ÐµÐ½Ð½Ð¾ÑģÑĤÑĮ":4307,"ĠÐ¿ÑĢÐ¾Ð±Ð»ÐµÐ¼Ñĭ":4308,"ÐķÑģÐ»Ð¸":4309,"ĠÐºÑĢÐ¾Ð²ÑĮ":4310,"ĠÑĥÑĩÐ°ÑģÑĤÐ¸Ðµ":4311,"ĠÐ»Ð°Ð³":4312,"ĠÐ²ÑģÐµÐ¼Ð¸":4313,"Ġ,":4314,"Ð¸Ð´ÑĨ":4315,"ĠÑĤÑĢÐ°Ð½ÑģÐ¿":4316,"ĠÑģÐµÐ»ÑĮ":4317,"ÑĭÐ²Ð°ÐµÑĤÑģÑı":4318,"ĠÐ½Ð¾Ð²ÑĭÑħ":4319,"ĠÐºÑĢÐ¸Ñĩ":4320,"ĠÐ³Ð¾ÑģÑĥÐ´Ð°ÑĢÑģÑĤÐ²Ð°":4321,"ĠÐ³Ð¾Ð²Ð¾ÑĢÐ¸Ð»Ð¸":4322,"ĠÑĢÐµÐ³Ð¸Ð¾Ð½":4323,"Ð¼ÑĥÑĤ":4324,"Ð½ÑıÐ²":4325,"ĠÐ¿ÑĥÐ±Ð»Ð¸":4326,"ĠÐ¿ÑĢÐµÐ´Ð¿Ð¾Ð»Ð¾Ð¶":4327,"ĠÐ¿Ð¾Ð´Ð¾ÑĪÐµÐ»":4328,"ĠÐĴÐ»Ð°Ð´Ð¸Ð¼Ð¸ÑĢ":4329,"ĠÐ¿Ð¾Ð»ÐºÐ¾Ð²":4330,"ĠÐ²Ð¾ÑģÐºÐ»Ð¸Ðº":4331,"ĠÐ¾Ð±Ð°":4332,"Ð°Ð½Ð½Ð°Ñı":4333,"ĠÐ´ÑĥÑĪÐ¸":4334,"ÐĵÐ»Ð°Ð²Ð°":4335,"ĠÐ¿ÑĥÑĤÐµÑĪÐµ":4336,"Ð¾Ð¹Ð´ÐµÑĤ":4337,"Ð¼Ð°Ñħ":4338,"ÑĤÐ¾ÑĢÐ¾Ð¼":4339,"ĠÑĢÐ°Ð±Ð¾ÑĤÐµ":4340,"Ð¾Ð¸ÑĤ":4341,"ĠÐ³Ð¾Ð²Ð¾ÑĢÑİ":4342,"ĠÐ¼ÐµÑħÐ°Ð½":4343,"ĠÑĢÐ°ÑģÐ¿Ð¾ÑĢ":4344,"ĠÐ¼Ð°ÑĪÐ¸Ð½":4345,"ĠÑģÐ¼Ð¾ÑĤÑĢÐµÑĤÑĮ":4346,"Ð»ÐµÐ½Ð¾":4347,"Ð´ÐµÐ¼":4348,"Ñ£":4349,"Ð¾Ð³Ð»Ð°Ñģ":4350,"Ð°Ð²Ð¸Ñģ":4351,"ĠÐ°ÑĢÐµÑģÑĤ":4352,"ĠÑģÐ»ÑĭÑĪÐ°Ð»":4353,"ĠÐ²ÑĭÐ¶":4354,"ĠÐ¼ÐµÐ¶Ð´ÑĥÐ½Ð°ÑĢÐ¾Ð´":4355,"ĠÐ´Ð¾ÑĢÐ¾Ð³Ðµ":4356,"ĠÐºÐ¾Ð»Ð¸ÑĩÐµÑģÑĤÐ²Ð¾":4357,"Ð½Ð°Ð·":4358,"Ð¸Ð²Ð°Ð»Ð¸ÑģÑĮ":4359,"ĠÐ´Ð°Ð»ÑĮÐ½ÐµÐ¹":4360,"ĠÐ¸Ð¼Ð¿ÐµÑĢÐ°":4361,"ĠÐ¿Ð¾Ð´ÑĬ":4362,"Ð¡Ð¿":4363,"ĠÐ²ÑĭÐ·Ð²":4364,"ĠÐ¸Ð½Ð¾ÑģÑĤÑĢÐ°Ð½":4365,"ĠÑģÐ¾Ð¿ÑĢÐ¾Ð²":4366,"ĠÐ·ÑĢÐµÐ½Ð¸Ñı":4367,"ÐµÑģÐ¿ÑĥÐ±Ð»Ð¸":4368,"ĠÐ»Ð¸ÑĨÐ¾Ð¼":4369,"ĠÑģÐµÑĢÐµÐ±":4370,"Ð·Ð´":4371,"ĠÐ¿ÐµÑĢÐ²ÑĭÐ¼":4372,"ĠÐ²ÑĭÐ½ÑĥÐ¶":4373,"ÐµÑĢÐºÐ²Ð¸":4374,"ĠÐ¾Ð±ÑıÐ·Ð°Ð½":4375,"ĠÐºÑĢÑĥÐ¶":4376,"ĠÐ¿ÑĢÐ¸Ð²Ð»ÐµÐº":4377,"ĠÐ¾ÐºÑĤÑıÐ±ÑĢÑı":4378,"ÑģÐºÐµ":4379,"ĠÑģÐ¸ÑĤÑĥÐ°ÑĨÐ¸Ð¸":4380,"ĠÐ³Ð¾Ð»ÑĥÐ±":4381,"ĠÐ±Ð¾Ð¼":4382,"Ð°Ð»Ð¾Ð³":4383,"Ð¾ÑģÐ½Ð¾Ð²":4384,"ĠÐ¡ÐµÑĢÐ³ÐµÐ¹":4385,"ĠâĢŀ":4386,"ĠÐ¿ÑĢÐ¸Ð±Ð»Ð¸Ð¶":4387,"ĠÑĢÐ°ÑģÑģÐºÐ°Ð·Ð°Ð»":4388,"ĠÐ¼Ð¾Ð¶ÐµÐ¼":4389,"ĠÑĤÑī":4390,"ÑİÑīÐ¸Ñħ":4391,"ĠÐ¾Ð²":4392,"Ð´Ð°ÐµÑĤÑģÑı":4393,"ĠÐ¿ÑĢÐ¸ÑĩÐ¸Ð½":4394,"ĠÐ³Ð¸Ð±":4395,"ĠÐ¾ÐºÐ½Ð°":4396,"ĠÐ¼Ð¾Ð¶ÐµÑĪÑĮ":4397,"ĠÑĩÐµÐ¼Ñĥ":4398,"ĠÑģÑĭÐ½Ð°":4399,"ĠÐºÑĥÑģ":4400,"ÐµÐ½Ñĥ":4401,"ĠÐ¿ÑĢÐµÐ´Ð¿Ð¾Ñĩ":4402,"Ð´ÑĢÑĥÐ³":4403,"Ð¾ÐºÐµ":4404,"ÐºÐ°Ð·":4405,"ĠÐ»ÑİÐ±Ð¾Ð²ÑĮ":4406,"Ð¸ÑīÐµ":4407,"ÐµÑĢÐ¾":4408,"Ð¾ÑĤÐµ":4409,"Ð»Ð°Ð¶":4410,"ĠÐ¢ÑĢ":4411,"ĠÑĢÑĭÐ½":4412,"ĠÐ¿Ð¾ÑħÐ¾Ð¶Ðµ":4413,"ĠÐºÐ½Ð¸Ð³Ð¸":4414,"ĠÐ´ÑĭÑħ":4415,"ĠÐ²ÑĭÐ´ÐµÑĢÐ¶":4416,"Ð½Ð¾ÑĢ":4417,"ĠÐĺÐ²Ð°Ð½":4418,"ĠÑģÑĤÐ°Ð½Ð¾Ð²Ð¸ÑĤÑģÑı":4419,"ĠÑģÑĢÐ¾Ðº":4420,"ĠÐ´Ð¾Ð±Ð°Ð²Ð¸Ð»":4421,"Ð°ÑģÐ¸Ð±Ð¾":4422,"ĠÐ¿ÑĢÐ¸Ð¼ÐµÐ½":4423,"ÑĢÐ¾ÑĢ":4424,"ĠÐŀÑģÑĤ":4425,"Ð»ÑĭÐ¹":4426,"ĠÐ¾ÑĢÐ³Ð°Ð½Ð¸Ð·Ð°ÑĨÐ¸Ð¸":4427,"ÑģÐ¾Ð¼":4428,"ĠÐ·Ð²ÑĥÑĩ":4429,"ĠÑĤÑĢÐ¸Ð´ÑĨ":4430,"ĠÐĲÑĦ":4431,"ĠÐŁÐ¾Ð¼":4432,"ĠÐ¼ÑıÑģ":4433,"ĠÐ¼Ð¾Ð»Ð¾Ð´Ð¾Ð¹":4434,"ĠÐ·Ð¸Ð¼":4435,"ĠÑģÑĢÐµÐ´ÑģÑĤÐ²":4436,"ĠÑıÐ½Ð²Ð°ÑĢÑı":4437,"ĠÐ¸Ð¼ÐµÐ½":4438,"ĠÐ¾ÑĤÑģÑĤÑĥÐ¿":4439,"Ð»ÑıÑİÑĤ":4440,"ĠÑģÐ²ÐµÐ¶":4441,"Ð½Ð¸ÑģÑĤ":4442,"ĠÑģÐ¼ÐµÑĪ":4443,"ĠÑģÑĨÐµÐ½":4444,"ĠÑĥÑĩÐµÐ½":4445,"ĠÐ¥ÑĢÐ¸ÑģÑĤ":4446,"ĠÐ½Ð°ÑģÐ»ÐµÐ´":4447,"Ð¾Ð¼Ð°":4448,"ĠÑĢÐ°":4449,"ĠÐłÑĥÑģ":4450,"ĠÐ°Ð½ÑĤ":4451,"Ð°Ð´ÐµÐ¼":4452,"000":4453,"ĠÑĥÑĩÐ°":4454,"Ð°ÑĢÐµ":4455,"ĠÐ¼Ð°Ð»ÑĮÑĩÐ¸Ðº":4456,"ĠÐ¾Ð¿ÑĢÐ°Ð²":4457,"ĠÐ¶ÐµÑĢÑĤÐ²":4458,"Ð¸ÑģÑĤÑĭ":4459,"ĠÐ¶Ð´Ð°ÑĤÑĮ":4460,"ĠÐ±ÑĭÐ²Ð°ÐµÑĤ":4461,"ÑĢÐ¾Ð¿ÐµÐ¹":4462,"ÐµÐµÑĤ":4463,"ĠÐ¼Ð»Ð°Ð´":4464,"ĠÐ±ÐµÑģÐµÐ´":4465,"ĠÑĥÑģÐ¿Ð¾ÐºÐ¾":4466,"ĠÐ²Ð¸Ð¶Ñĥ":4467,"ĠÑĢÐ°Ð·Ð²ÐµÑĢ":4468,"Ð¿ÑĢÐµÐ¶Ð½ÐµÐ¼Ñĥ":4469,"ĠÐĶÐ¾Ð½":4470,"Ð¸Ð²Ð°Ñİ":4471,"ÑģÑĤÑĢÐµÑĩ":4472,"ĠÐ¸ÑİÐ»Ñı":4473,"ĠÑĤÐ¾Ð»Ð¿":4474,"ĠÐ½ÐµÐ»":4475,"ĠÑĢÐ¾Ð´Ð°":4476,"Ð®":4477,"Ð»ÐµÑĤÐ²Ð¾ÑĢ":4478,"ĠÐĳÐµÐ·":4479,"Ð¾ÑĩÐ½Ð¾Ð¹":4480,"ĠÐºÐ°Ð¶Ð´Ð¾Ð³Ð¾":4481,"ĠÐ¾Ð±Ð¸Ð´":4482,"ĠÐ¼ÑĥÐ·Ñĭ":4483,"ĠÑĢÐ°Ð·Ð²Ð¸ÑĤÐ¸Ñı":4484,"ĠÐºÐ°ÐºÐ¾Ð³Ð¾":4485,"Ð°Ð½Ð³":4486,"ĠÑĢÐ°Ð·Ð½ÑĭÑħ":4487,"ĠÐ¾ÐºÐ°Ð·Ð°Ð»Ð°ÑģÑĮ":4488,"ĠÐ´ÑĢÐ¾Ð¶":4489,"ĠÐ³ÑĢÐ¾Ð·":4490,"ĠÑĤÐ²Ð¾Ð¹":4491,"ÑĥÑĢÑĥ":4492,"ĠÐ°ÑĤÐ°Ðº":4493,"ĠÑħÐ»Ð¾Ð¿":4494,"ĠÐ±ÐµÑģÐº":4495,"ĠÑĢÐ°Ð±Ð¾ÑĤÐ°":4496,"ÑĪÐ°":4497,"ĠÐ²ÑģÐ¿Ð¾Ð¼Ð¸Ð½":4498,"ÑģÑĤÐ²ÐµÐ½Ð½Ð°Ñı":4499,"ĠÐ»Ð¸Ð´":4500,"ĠÐ¿ÑĢÐ¾Ð¸Ð·Ð²ÐµÐ´":4501,"ĠÑĦÑĥÐ½Ðº":4502,"ĠÐ²ÐµÑĢÑĤ":4503,"ĠÑĢÐ¸Ñģ":4504,"ĠÐºÐ¾Ð¼Ð¸ÑģÑģ":4505,"Ð¾ÑħÐ¾ÑĤ":4506,"ĠÑģÐµÐ¼ÐµÐ¹":4507,"ĠÐĴÐ¾Ð»":4508,"Ð²ÐµÐ»":4509,"25":4510,"Ð¾ÑĢÐ³":4511,"ĠÐ¿Ð°ÑģÑģ":4512,"ÑĢÐ°Ð»Ñı":4513,"Ð¸Ð½ÐºÐ¸":4514,"ĠÐľÐ°ÑĤ":4515,"ĠÐĵÐ»Ð°Ð²":4516,"ÑıÐ»Ð¸ÑģÑĮ":4517,"ĠÐ¿ÑĭÑĤÐ°Ð»ÑģÑı":4518,"Ð¸ÑĢÐ°ÑĤÑĮ":4519,"ĠÑĦÐ¸Ð»Ð¾ÑģÐ¾ÑĦ":4520,"Ð¢Ðŀ":4521,"ĠÑħÐ»ÐµÐ±":4522,"ĠÐ¿ÑĢÐ¸Ð³Ð¾ÑĤÐ¾Ð²":4523,"ĠÑħÑĢÐ°Ð¼":4524,"ĠÐ½Ð¾Ð²Ð¾Ð¹":4525,"ĠÑĢÐ°Ð·Ð³Ð¾Ð²Ð°ÑĢ":4526,"ÐŁÐ¾Ð´":4527,"Ð¾Ð½Ð¸Ð¸":4528,"ĠÐ¿ÑĢÐ¸Ð²ÑĭÑĩ":4529,"ĠÐ±ÑĥÐºÐ²":4530,"ĠÐ¾ÐºÑĢÑĥÐ³":4531,"ĠÑģÐ¾ÑİÐ·":4532,"ĠÐ¿ÑĢÐ¸Ð¼ÐµÑĢÐ½Ð¾":4533,"ĠÐĲÐº":4534,"ĠÐºÑĢÐ¸ÑĤ":4535,"ÑĭÐ½":4536,"ÑĤÐ°Ñī":4537,"ĠÐ²ÑĭÑģÑĤÐ°Ð²":4538,"ĠÐ¼ÑĭÑĪ":4539,"ĠÐ¿ÑĢÐ¸Ð²ÑĭÐº":4540,"Ð¾ÐµÐ´Ð¸Ð½":4541,"ĠÐ¿ÑĢÐµÐºÑĢÐ°ÑģÐ½Ð¾":4542,"ĠÑģÑĦ":4543,"ĠÐ°Ð´ÑĢ":4544,"ĠÐ´Ð¸Ð²Ð¸Ð·":4545,"Ìģ":4546,"ĠÐ¿Ð¾Ð»Ðµ":4547,"ĠÑģÐ²ÑıÑī":4548,"ĠÐ¼Ð¾ÑĢÑı":4549,"ĠÐ´Ð²Ð¸Ð¶ÐµÐ½Ð¸Ñı":4550,"ĠÑĪÐ°ÑĢ":4551,"ĠÑĪÑĤÐ°Ð±":4552,"ĠÑģÑĤÐ¾ÑıÐ»Ð°":4553,"ĠÐ´Ð°ÑĢ":4554,"ĠÑģÐ¼ÐµÑĢÑĤ":4555,"30":4556,"ĠÐ¿Ð°ÑĢÑĤÐ¸Ð¸":4557,"ÑĭÑĤÑĮ":4558,"Ð»Ð°Ð³Ð¾Ð´Ð°ÑĢ":4559,"Ð°Ð±Ð°ÑĤ":4560,"ÑĥÐ½Ð´":4561,"ĠÐ¿ÑĢÐµÐ´Ð¿Ð¾Ð»Ð°Ð³":4562,"ĠÑģÐ¾Ð³Ð»Ð°ÑĪ":4563,"ĠÑģÐ¾ÐµÐ´Ð¸Ð½":4564,"ĠÑĤÐ¾Ð»ÑģÑĤ":4565,"ĠÐ¿ÑĢÐ¸Ð´ÑĥÐ¼":4566,"ĠÐºÐ¾ÑĤ":4567,"Ð°ÑİÑīÐ°Ñı":4568,"ĠÐ½Ð°ÑģÑĤÐ¾Ñı":4569,"ĠÐ´Ð¾Ð¿Ð¾Ð»Ð½":4570,"ĠÐ½ÐµÐ±Ð¾":4571,"ĠÐ¼Ð°ÑĪÐ¸Ð½Ñĥ":4572,"ĠÐľÐ¸ÑĢ":4573,"ĠÑĥÐ¿ÑĢÐ°Ð²Ð»ÐµÐ½Ð¸Ñı":4574,"Ð¾Ð½ÐµÑĩÐ½Ð¾":4575,"ĠÐ¡ÐµÐ¼":4576,"ĠÑĥÐ´Ð¾Ð±":4577,"ĠÐ²ÑģÐºÐ¾ÑĢÐµ":4578,"ĠÑģÐ¾Ð½":4579,"ĠÐ¼Ð°ÑĢÑĤÐ°":4580,"ĠÐ½ÐµÑĦ":4581,"ĠÐ½Ð°Ð¼ÐµÑĢ":4582,"ĠÐ¿Ð¾ÐµÐ·Ð´":4583,"ĠÑĤÑĢÑĥÐ´Ð¾Ð¼":4584,"ĠÐĶÐ¶Ð¾Ð½":4585,"ÐµÑİÑģÑĮ":4586,"Ð°ÑģÑĤÐ¸":4587,"ĠÐ¿ÑĢÐ¸Ð¿":4588,"Ð¾Ð²Ð°ÑĤÐµÐ»ÑĮ":4589,"ĠÐ³Ð»Ð°Ð²Ð½Ð¾Ðµ":4590,"ĠÐ¸ÑİÐ½Ñı":4591,"ĠÐ²Ð¾Ð·Ð±":4592,"Ġ195":4593,"ĠÑĦÐµÐ²ÑĢÐ°Ð»Ñı":4594,"ÑĢÑĭÑĤÑĮ":4595,"ĠÐ¿Ð»Ð°":4596,"Ð¾Ð²Ð»ÐµÑĤÐ²Ð¾ÑĢ":4597,"ĠÐ¿Ð¾Ð»Ð¾Ð¶ÐµÐ½Ð¸Ðµ":4598,"Ð¾Ð¿Ð¸Ñģ":4599,"ĠÑģÐ»ÐµÐ´ÑĥÑİÑīÐ¸Ð¹":4600,"Ð¾ÐºÐ¾Ð¼":4601,"ĠÐ¿Ð°ÑĢÐµÐ½ÑĮ":4602,"ĠÐ´ÐµÑıÑĤÐµÐ»ÑĮÐ½Ð¾ÑģÑĤÐ¸":4603,"ĠÐĺÑĢ":4604,"ĠÐ¿ÑĢÐ¸Ð½ÑıÑĤÑĮ":4605,"ĠÐ¿Ð¾Ð´ÑĩÐµÑĢÐº":4606,"ÑĢÐµÐ¶":4607,"ĠÐ¾ÑģÑĤÐ°Ð»ÑģÑı":4608,"Ð¾Ð²ÑĥÑİ":4609,"ĠÑĩÑĥÐ²ÑģÑĤÐ²Ð¾":4610,"ÐµÑĢÐ½Ð°":4611,"ĠÐ¾ÑģÑĤÐ¾ÑĢÐ¾Ð¶Ð½Ð¾":4612,"ĠÐ¼Ð°ÑģÑĤÐµÑĢ":4613,"ÑįÐ»ÑĮ":4614,"Ð´ÑĥÐ¼":4615,"ÑģÑĤÐ²Ð¾Ð²Ð°Ð»Ð¸":4616,"ĠÐºÐ¾Ð»ÑĮ":4617,"ĠÐŁÐ¾ÑĤÐ¾Ð¼Ñĥ":4618,"ĠÐĵÐµÐ½":4619,"ĠÐ²Ð»Ð°ÑģÑĤÑĮ":4620,"ĠÐ¿Ð¸ÑģÑĮÐ¼Ð¾":4621,"ĠÐ¿Ð¾Ð²Ð¾Ð´Ñĥ":4622,"ĠÑģÐ¼Ð¾Ð¶ÐµÑĤ":4623,"ĠÐ¾ÑĤÐ½Ð¾ÑĪÐµÐ½Ð¸Ð¸":4624,"ĠÐ¿ÐµÑĢÐµÐ³Ð¾Ð²Ð¾ÑĢ":4625,"Ð²ÑıÑī":4626,"ĠÐ¿Ð¾Ð´Ð¾Ð·ÑĢ":4627,"ĠÐĴÐ¾Ð·Ð¼Ð¾Ð¶Ð½Ð¾":4628,"ĠÐĲÐ½Ð´ÑĢÐµ":4629,"ĠÑĥÑĤÐ²ÐµÑĢÐ¶Ð´":4630,"ĠÑģÐ¿ÐµÑĪ":4631,"ĠÑĤÐµÐ»ÐµÑĦÐ¾Ð½":4632,"ĠÐ¼ÐµÑĩÑĤ":4633,"ĠÐ¾ÐºÐ°Ð·Ð°Ð»Ð¸ÑģÑĮ":4634,"ĠÑĢÐµÐ±ÐµÐ½ÐºÐ°":4635,"ĠÐ´Ð²ÑĥÐ¼Ñı":4636,"ÑĭÐ¶":4637,"ÑĤÐ¾Ð½Ð°":4638,"ĠÐ½ÐµÑĩÑĤÐ¾":4639,"ĠÐ²Ð½Ð¸Ð¼Ð°ÑĤÐµÐ»ÑĮÐ½Ð¾":4640,"ÑĪÐµÐ¼Ñĥ":4641,"Ð½Ð¾Ð¿":4642,"ĠÑħÑĥÐ¶Ðµ":4643,"Ð¾ÑĤÑĢÐµÐ±":4644,"Ð½Ð¸ÑĩÐµ":4645,"ĠÐ¼Ð¾Ð»ÑĩÐ°":4646,"Ð¸Ð½ÑĥÐ»ÑģÑı":4647,"ÐŀÐ½Ð¸":4648,"ÑİÐ¼":4649,"ĠÐ¡ÐµÐ²ÐµÑĢ":4650,"ÐµÐ½ÑĮÐµ":4651,"ĠÐ¾Ð´ÐµÐ¶":4652,"ĠÐļÐ»":4653,"ĠÐ¿Ð»ÐµÐ¼":4654,"ĠÐ´Ð¾ÑĢÐ¾Ð³Ñĥ":4655,"ĠÑĢÐ¾Ð²":4656,"ĠÑģÐ¾Ð¶Ð°Ð»":4657,"âĢĻ":4658,"ĠÐ»ÑİÐ´ÑıÐ¼":4659,"ĠÐĿÐ°ÑĤ":4660,"ĠÐļÐ¾Ð½ÑģÑĤ":4661,"ĠÐ±Ð»Ð°Ð³Ð¾Ð´Ð°ÑĢÑı":4662,"ĠÐºÑĥÐ»":4663,"ĠÐ»Ð¾Ð´":4664,"ĠÐ¿Ð¾Ð·Ð²Ð¾Ð½":4665,"ĠÑģÐ¾Ð±ÑĢÐ°Ð½":4666,"ĠÐ½Ð¾Ð¼ÐµÑĢ":4667,"ĠÐ¿ÑĢÐ¾Ð»":4668,"Ð°Ð½Ð½ÑĭÐ¼":4669,"ĠÐ´ÐµÐ¼Ð¾Ð½":4670,"ĠÐ´Ð¾Ð»Ð»Ð°ÑĢÐ¾Ð²":4671,"ĠÐ¶ÐµÐ½Ð°":4672,"Ð¾ÑĤÐ¾Ñĩ":4673,"ĠÐĴÑĤÐ¾ÑĢ":4674,"ĠÐ§ÑĤÐ¾Ð±Ñĭ":4675,"ĠÐ¶ÑĥÑĢÐ½Ð°Ð»Ð¸ÑģÑĤ":4676,"ĠÑĢÐ°ÑģÑģÑĩÐ¸ÑĤ":4677,"Ð°Ð´ÑĨÐ°ÑĤÐ¸":4678,"Ġ24":4679,"ĠÐ½Ð°Ð¸Ð±Ð¾Ð»ÐµÐµ":4680,"ĠÐ¿Ð»Ð¾Ñħ":4681,"Ð°Ð½Ð½Ð¾Ð³Ð¾":4682,"Ð·ÐµÐ¼":4683,"Ð¸ÑĢÐ¾Ð²Ð°Ð½Ð¸Ñı":4684,"ĠÐ²ÐµÑĢÐ½ÑĥÑĤÑĮÑģÑı":4685,"Ð¼Ð°Ð½Ð°":4686,"ĠÐ¾Ð±ÑĬÑıÑģ":4687,"Ð»ÑıÑĤÑĮÑģÑı":4688,"Ð°Ð¹ÑĤ":4689,"Ġ22":4690,"ĠÑĥÐ´Ð°Ð»":4691,"ĠÑģÐ²ÐµÑĤÐ°":4692,"ĠÑģÐ°Ð¼Ð¾Ð»":4693,"ĠÐºÐ°ÑĢÐ¼Ð°Ð½":4694,"ĠÑĨÐµÑĢÐºÐ¾Ð²":4695,"Ð¸Ð²Ð°":4696,"ÐµÐ¿ÐµÐ½Ð½Ð¾":4697,"ĠÐ³ÐµÐ½ÐµÑĢÐ°Ð»":4698,"Ð»ÑıÐ»Ð¸":4699,"Ð°Ð´ÑĨÐ°ÑĤ":4700,"ĠÐ¿Ð¾Ð²Ð¾ÑĢ":4701,"Ð¾Ð½Ð·":4702,"ĠÑĢÐ°Ð·Ð°":4703,"ĠÐļÐ°ÑĤ":4704,"Ð¸ÑĩÐµÑģÐºÐ¾Ð¼":4705,"ĠÐ½ÐµÐ²ÐµÑĢ":4706,"ĠÐ¼Ð½ÐµÐ½Ð¸Ñİ":4707,"ĠÑĤÐ¾ÑĩÐºÐ¸":4708,"ĠÐ¿ÐµÑĢÐµÑĪ":4709,"ĠÐ´Ð»":4710,"ĠÐ·Ð°ÐºÐ°Ð·":4711,"ĠÑĢÑĥÐºÐµ":4712,"Ġ(Â«":4713,"ĠÑĢÐ°Ð¹Ð¾Ð½":4714,"Ð¾Ð¿ÑĢÐ¸ÑıÑĤ":4715,"ĠÐ´ÐµÐ»Ð°ÐµÑĤ":4716,"ĠÐ¿ÑĢÐ¾ÑĪÐ»Ð¾":4717,"ĠÑħÑĢÐ¸ÑģÑĤÐ¸Ð°Ð½":4718,"ĠÐ½Ð¾ÑıÐ±ÑĢÑı":4719,"ĠÐ¿Ð¾ÐºÐ°Ð·Ð°Ð»Ð¾ÑģÑĮ":4720,"ĠÑĢÐµÐºÐ¸":4721,"ĠÐĵÐ¾Ð»":4722,"ĠÐ¿Ð¾Ð½ÑĢÐ°Ð²":4723,"ĠÑĤÐ¾ÑĢÐ¾Ð¿":4724,"ĠÐ¢Ð¾ÑĤ":4725,"ĠÐ¿Ð¾Ð»Ð¸ÑĨÐµÐ¹":4726,"ĠÐ±ÐµÑĢÐµÐ³Ñĥ":4727,"ĠÐ³Ð¾Ð²Ð¾ÑĢÐ¸Ð»Ð°":4728,"Ð°Ð½Ð¾Ð¼":4729,"ĠÐ¼Ð»Ð½":4730,"ĠÐ¼Ð°Ð¹":4731,"ĠÑĥÑĤÑĢÐ°":4732,"ĠÐ²ÑĢÐµÐ¼ÐµÐ½ÐµÐ¼":4733,"ÑĢÑĥÐ±":4734,"ĠÑĢÐ°ÑģÑģÑĤÐ¾Ñı":4735,"ÐĴÐ¾ÑĤ":4736,"ĠÐŃÑĤÐ¸":4737,"ĠÑĢÐ°Ð½ÐµÐµ":4738,"ĠÐĴÐ¾ÑģÑĤ":4739,"ÑĢÐ´":4740,"ĠÐ¿ÐµÑĢÐ²ÑĥÑİ":4741,"ÑĮÑİÑĤÐµÑĢ":4742,"Ð¸Ð±Ð»Ð¸":4743,"ĠÐ½Ð°ÑĪÐµÐ»":4744,"ĠÐ²ÑģÑĤÐ°Ð»":4745,"ĠÐºÐ¾Ð¼Ð½Ð°ÑĤÑĭ":4746,"ĠÑģÑĤÐµÐ¿ÐµÐ½Ð¸":4747,"ĠÑĢÐ°Ð·Ð´ÑĢÐ°Ð¶":4748,"ĠÐ¸ÑģÑħÐ¾Ð´":4749,"ÐµÐ½Ð¸ÑıÐ¼":4750,"ĠÑģÐ²ÐµÐ´":4751,"Ð¸ÑĤÐ°Ð»":4752,"ĠÐ·Ð°ÑīÐ¸Ñī":4753,"ĠÑĥÐ·Ð½Ð°Ð»":4754,"ĠÐ»ÑİÐ´ÑĮÐ¼Ð¸":4755,"ĠÐ´ÑĢÑĥÐ³Ð¸Ð¼Ð¸":4756,"Ð½Ð¸Ð¶":4757,"ĠÑģÐ¾Ð¼Ð½ÐµÐ²":4758,"ĠÐ»ÐµÐ´":4759,"ĠÐ´Ð¸ÑģÐº":4760,"ĠÐ²Ð·Ð´Ð¾ÑħÐ½ÑĥÐ»":4761,"ĠÑĤÐµÐºÑģÑĤ":4762,"ĠÑģÑĤÐ¾ÑıÐ»Ð¸":4763,"ĠÐ¾Ð±ÑĬÐµÐ´Ð¸Ð½":4764,"Ð²Ð°ÑĢÐ´":4765,"ĠÐ±Ð¸":4766,"ĠÐ¸ÑģÐ¿Ð¾Ð»ÑĮÐ·Ð¾Ð²Ð°ÑĤÑĮ":4767,"ÐµÐ´Ð»Ð¸Ð²":4768,"ĠÐ¾ÑĤÑģÑİÐ´Ð°":4769,"Ð½ÐµÑĤÑģÑı":4770,"ĠÐ¾ÑĤÑĢÐ°Ð¶":4771,"Ð¾Ð²ÐµÑĤ":4772,"ĠÑģÑĤÐ¾ÑĢÐ¾Ð½Ðµ":4773,"ĠÐ´Ð°Ð¼":4774,"Ð¸Ð»Ð¸Ñı":4775,"ÑħÐ¾Ð²":4776,"ÑįÐ¼":4777,"ĠÐ²ÑĭÐ¿ÑĥÑģÐº":4778,"Ð¸Ð´ÐµÐ½ÑĤ":4779,"ÑĩÐµÑĢ":4780,"ĠÐĺÐ¼ÐµÐ½Ð½Ð¾":4781,"ĠÑĢÐµÐ°Ðº":4782,"ÐµÐ´Ð¾Ð¼":4783,"ĠÐłÐ¾Ð±":4784,"ĠÐ²ÑĭÑĪÐ»Ð°":4785,"Ð»Ð¾Ñĩ":4786,"ĠÐķÑģÑĤÑĮ":4787,"Ð³Ð¾ÑĢÐ¾Ð´":4788,"ĠÐĹÐ½Ð°ÑĩÐ¸ÑĤ":4789,"ĠÐ²ÐµÑģÑĤÐ¸":4790,"ĠÐ½ÑĢÐ°Ð²Ð¸ÑĤÑģÑı":4791,"ĠÐ´Ð¾ÑĩÑĮ":4792,"ĠÐ¼Ð°Ð¼Ð°":4793,"ĠÐ´Ð¾ÑĢÐ¾Ð³Ð¸":4794,"ÐºÑĢÐµÑĤ":4795,"ĠÐ¿ÐµÑĢÑģÐ¾Ð½":4796,"ĠÐ·Ð°Ð¹":4797,"ĠÐ¾Ð¶Ð¸Ð´Ð°":4798,"ÐµÑĢÐ·":4799,"ĠÐ¿Ð¸Ð»":4800,"Ð°Ð²ÑĪÐµÐ³Ð¾":4801,"ĠÐ·Ð½Ð°Ð»Ð¸":4802,"ĠÐ´Ð¾ÑħÐ¾Ð´":4803,"ĠÐ²ÑģÑĤÐ°Ð²":4804,"ÐµÑĤÐ¾Ð¼":4805,"ĠÐ¼ÐµÑĤÑĢÐ¾Ð²":4806,"ĠÐ¿Ð¾Ð´ÑĢÑĥÐ³":4807,"ĠÑĤÑĢÐµÑĤ":4808,"ĠÐ¿Ð¾Ð·Ð¶Ðµ":4809,"ĠÐĲÐ½Ð´ÑĢÐµÐ¹":4810,"ÐŀÐ±":4811,"ĠÑģÑħÐ¾Ð´":4812,"ĠÐ¿Ð¾Ð¿ÑĢÐ¾Ð±":4813,"ĠÐ¿Ð¾Ð´ÑĩÐ¸Ð½":4814,"ĠÐ¿Ð¾Ð¹Ð¼":4815,"ĠÐ¼Ð³Ð½Ð¾Ð²ÐµÐ½Ð¸Ðµ":4816,"Ð¸Ð½ÑĥÐ²":4817,"ĠÐ½ÐµÐºÐ¾ÑĤÐ¾ÑĢÑĭÑħ":4818,"ÑĥÑĩÐ¸":4819,"ĠÐ°Ð¿ÑĢÐµÐ»Ñı":4820,"ĠÑįÐ»ÐµÐ¼":4821,"ĠÑģÐµÐ·":4822,"Ð«":4823,"ĠÑģÑħ":4824,"ĠÐ¼Ð¸ÑģÑĤÐµÑĢ":4825,"ĠÐ²Ð¾ÑģÑģÑĤÐ°Ð½Ð¾Ð²":4826,"Ð°ÑĤÐµÐ»ÑĮÑģÑĤÐ²Ð°":4827,"ĠÐ´Ð¾ÑģÑĤÑĥÐ¿":4828,"ĠÐ²ÑģÐ»ÐµÐ´":4829,"ĠÑĤÑıÐ¶ÐµÐ»Ð¾":4830,"ĠÐ¼ÑĥÐ¶ÑĩÐ¸Ð½":4831,"Ð¸Ð·Ð°ÑĨÐ¸Ð¸":4832,"ĠÐ¾ÑĤÐºÑĢÑĭÐ»":4833,"ĠÐ²ÑĭÐ³Ð»ÑıÐ´ÐµÐ»":4834,"Ð½Ð¸ÑĤ":4835,"Ð»Ð¸ÑĩÐ½Ð¾":4836,"ÑĥÑģÑĤÐ¸Ð»":4837,"ĠÐ¸ÑģÑĤÐ¸Ð½":4838,"ĠÐ¿Ð»ÐµÐ½":4839,"ĠÐ¿ÑĢÐµÐ´Ð¼ÐµÑĤ":4840,"ĠÐ»ÑİÐ±Ð¾Ð¿ÑĭÑĤ":4841,"Ð°ÑģÐ°":4842,"ĠÐĺÐ³Ð¾":4843,"ĠÐľÐ¸ÑħÐ°":4844,"ĠÐ¿Ð¾Ð´Ð°Ð²":4845,"ĠÑģÑĤÑĢÐ¾Ð¸ÑĤÐµÐ»ÑĮ":4846,"ĠÐ±ÑĥÐ´ÐµÑĪÑĮ":4847,"ĠÐ½Ð°ÑģÐºÐ¾Ð»ÑĮÐºÐ¾":4848,"Ð¾Ð¶Ñĥ":4849,"ĠÐ½Ð°ÑĢÐ¾Ð´Ð°":4850,"ĠÐ°Ñį":4851,"Ð°ÐµÐ¼ÑģÑı":4852,"ĠÐ¿ÑĢÐ¾Ñħ":4853,"ĠÐ¿Ð¾ÑĢÑĥÑĩ":4854,"Ð»Ð¾ÑĢ":4855,"ĠÐĵÑĢÐ¸":4856,"ĠÐ¿ÑĢÐµÐ´Ð»Ð¾Ð¶Ð¸Ð»":4857,"ĠÐ¿ÑĢÐ¸Ð½ÑıÑĤ":4858,"ĠÐ¾ÑģÑĤÐ°Ð½Ð¾Ð²Ð¸Ð»ÑģÑı":4859,"ĠÐľÐµÐ½Ñı":4860,"ÑĭÐ»Ð¸":4861,"ÑģÑĤÐ¸":4862,"ĠÑĥÐ»ÑĭÐ±Ð½ÑĥÐ»Ð°ÑģÑĮ":4863,"ÑıÐ½ÑĥÑĤ":4864,"ĠÐ²Ð·Ð°Ð¸Ð¼":4865,"ĠÐ¼ÐµÐ»ÑĮ":4866,"ĠÐ½Ð°ÑģÐµÐ»ÐµÐ½Ð¸Ñı":4867,"ĠÐ¿Ð¾Ð´Ð½ÑıÐ»ÑģÑı":4868,"ĠÐ±Ð»Ð¸Ð¶Ðµ":4869,"ĠÑģÑĤÑĢÑĥÐºÑĤ":4870,"Ð¾Ð²Ð¸Ñĩ":4871,"ĠÑĥÑĩÐµÐ½Ð¸":4872,"ĠÐ½ÐµÐ´Ð°Ð²Ð½Ð¾":4873,"ĠÐ¿Ð¾Ð´ÑĤÐ²ÐµÑĢÐ´":4874,"ÑĭÑĪÐ»ÐµÐ½":4875,"ĠÑģÐ¿ÐµÑĨÐ¸Ð°Ð»Ð¸ÑģÑĤ":4876,"Ð°ÑīÐµ":4877,"ÐµÐ²Ð°ÑĤÑĮ":4878,"ĠÐºÐ»Ð°Ð´":4879,"ĠÑĦÐ¾ÑĢÐ¼Ñĥ":4880,"ĠÐ½Ð°Ð²ÐµÑĢÐ½ÑıÐºÐ°":4881,"ĠÐ¾ÑĤÐ¼ÐµÑĤÐ¸Ð»":4882,"ĠÐ±Ð»Ð¾Ðº":4883,"ĠÐ²Ð°Ð¶Ð½Ð¾":4884,"Ð°ÑĪÐ¸":4885,"ĠÑģÐ¼ÑĭÑģÐ»Ðµ":4886,"Ð°Ð»Ð¸Ñĩ":4887,"ĠÐ¿ÐµÑĤ":4888,"ÑİÐº":4889,"ĠÐ¿Ð¾ÑģÐ¼Ð¾ÑĤÑĢÐµÐ»Ð°":4890,"ĠÐ¡Ð»ÐµÐ´":4891,"ĠÐ¾Ð±ÑıÐ·Ð°ÑĤÐµÐ»ÑĮÐ½Ð¾":4892,"ĠÐ»ÐµÐº":4893,"ĠÐ¿ÑĢÐ°Ð²Ð¸Ð»ÑĮÐ½Ð¾":4894,"ĠÐ²ÑĭÑĢÐ°Ð·":4895,"ĠÐłÐ°Ð½ÐµÐµ":4896,"ÑĭÐ´":4897,"ĠÑĨÐµÐ»Ð¸":4898,"ĠÐºÐ¾Ð½ÐµÑĨ":4899,"ĠÐ¿Ð»Ð¾ÑīÐ°Ð´":4900,"ĠÐ¿ÑĢÐ¾Ð·":4901,"ĠÐ¿Ð¾Ð´Ð±":4902,"ĠÑģÐ»Ð¾Ð²Ð°Ð¼Ð¸":4903,"ĠÑģÑĤÐ¾Ð»Ð°":4904,"ĠÐ¿ÑĭÑĤÐ°ÑıÑģÑĮ":4905,"ĠÐ¿ÑĢÐ¾ÑĪÐµÐ¿ÑĤ":4906,"ĠÐ²Ð¾ÑĢ":4907,"ĠÑĤÐµÑĤ":4908,"ÂłÂłÂłÂłÂłÂłÂłÂł":4909,"ĠÐ¸ÑģÐºÐ°ÑĤÑĮ":4910,"ÐµÑĢÑĭÐ²":4911,"ÐºÐ¸Ð¿":4912,"ĠÑĥÑĪ":4913,"Ð½Ð°Ð´":4914,"Ġ50":4915,"ĠÑģÐ¾Ð³Ð»Ð°ÑģÐ¸Ð»ÑģÑı":4916,"ĠÐĺÑģÑĤ":4917,"ÑİÑĩ":4918,"Ð¶Ð¸":4919,"ĠÐ´Ð²Ð¾Ðµ":4920,"ĠÐ¾Ð±Ð»ÐµÐ³":4921,"ĠÐ¾Ð±ÑĥÑĩ":4922,"ĠÑģÐ¸Ð»Ð¾Ð¹":4923,"ĠÐĲÑĢÑĤ":4924,"ÑģÑĤÑĢÐ°Ð´":4925,"ĠÐºÐ¸Ð»Ð¾Ð¼ÐµÑĤ":4926,"ĠÐ¿Ð¾ÑĩÑĥÐ²ÑģÑĤÐ²Ð¾Ð²Ð°Ð»":4927,"ĠÐ¿Ð¾ÑģÐ¼Ð¾ÑĤÑĢÐµÑĤÑĮ":4928,"ĠÐ¿Ð¾Ð´Ð¾Ð·ÑĢÐµÐ²":4929,"ĠÐ¿Ð¾ÑģÐµÑĤ":4930,"ĠÐŃÑĤÐ°":4931,"ĠÐ·ÐµÐ¼Ð»Ñı":4932,"ĠÑģÐ»ÑĥÑĩÐ°Ñı":4933,"ĠÐ³Ð»Ñı":4934,"Ð»Ð¾Ñī":4935,"ĠÐ¿Ð¾Ð´Ð¿":4936,"ÑĤÐ¸ÑĢÑĥ":4937,"ĠÐ¢ÑĥÑĢ":4938,"ÑģÐ¸Ð¸":4939,"ĠÑĥÐ·Ð½Ð°":4940,"ĠÑĥÐ´Ð¾Ð²Ð»ÐµÑĤÐ²Ð¾ÑĢ":4941,"Ð¸ÑĤÐµÐ»ÑĮÐ½Ð¾ÑģÑĤÐ¸":4942,"ĠÐ¶Ð¸Ð»Ð¸":4943,"ĠÐ´Ð¾Ð½":4944,"ĠÐ¿Ð¾Ð´Ð²":4945,"ĠÑħÑĥÐ´Ð¾Ð¶":4946,"ĠÐ²ÐµÐ»Ð¸Ñĩ":4947,"ĠÐ²Ð½ÐµÐ·Ð°Ð¿Ð½Ð¾":4948,"Ð¼ÑĭÑģÐ»":4949,"ĠÑģÐµÐ¼ÑĮÐ¸":4950,"Ð¾ÑģÐ°":4951,"ĠÑĢÐµÑĪÐ¸Ð»Ð°":4952,"ĠÐ¿Ð¸ÑĤ":4953,"ĠÐ¿Ð¾Ð²ÑĭÑĪ":4954,"ĠÐ´ÐµÐºÐ°Ð±ÑĢÑı":4955,"ĠÐ¼Ð°Ñħ":4956,"ĠÐ¾ÑģÑĤÐ°Ð»ÑĮÐ½ÑĭÐµ":4957,"ÑĥÑģÑĤÐ¸ÑĤÑĮ":4958,"ĠÐ½Ð°Ð·Ð²Ð°Ð½":4959,"ĠÐ»Ð¾Ð³":4960,"Ð¾ÑģÐ¿":4961,"ĠÐ½ÐµÐ´ÐµÐ»Ñİ":4962,"ĠÐ²Ð¸Ð´ÐµÐ»Ð¸":4963,"ĠÐ²Ð¾ÑģÐ¿Ð¾Ð¼Ð¸Ð½":4964,"ÐµÑģÑģÐ°":4965,"ĠÐ³Ð½ÐµÐ²":4966,"Ġ192":4967,"ÐµÐ¶Ð°ÑĤÑĮ":4968,"ĠÐ²Ð¾ÑģÑħ":4969,"Ð¾ÑĤÐ²Ð¾ÑĢ":4970,"ĠÐ½ÐµÐ¼ÐµÐ´Ð»ÐµÐ½Ð½Ð¾":4971,"ĠÑĥÐ²Ð¸Ð´ÐµÐ»Ð°":4972,"Ð¾ÑĩÐ¸Ð»":4973,"ĠÐ·ÐµÑĢÐº":4974,"Ð²ÐµÑģÑĤÐ¸":4975,"ĠÐ¿ÑĢÐ¾ÑĤÐ¸Ð²Ð½Ð¸ÐºÐ°":4976,"ĠÐ¾Ñħ":4977,"ĠÐĿÐ°ÑģÑĤ":4978,"ĠÑģÐ°Ð¼Ð¾Ð»ÐµÑĤ":4979,"ĠÐ¿Ð¾ÑıÐ²Ð¸Ð»ÑģÑı":4980,"ĠÑģÐ¿ÑĥÑģÑĤÑı":4981,"ĠÑįÐºÑĢÐ°Ð½":4982,"ÂłÑĤ":4983,"ĠÐºÐ¾Ð½Ñģ":4984,"ĠÐ½Ð°ÐºÐ°Ð·":4985,"ĠÑģÐ¾Ð»Ð½ÑĨÐµ":4986,"ĠÐļÐ°Ð¼":4987,"ÑİÐ±":4988,"ĠÐ±ÑĢÐ¾ÑģÐ¸Ð»":4989,"Ð¾Ð½ÐµÑĩ":4990,"Ġ23":4991,"ĠÐĲÐ±":4992,"ĠÐ¿ÑĢÐ¸ÑħÐ¾Ð´Ð¸Ð»Ð¾ÑģÑĮ":4993,"ĠÐºÐ¼":4994,"ĠÑģÐµÑĢÐµÐ´":4995,"Ð¾Ð²Ð°Ð»Ð°ÑģÑĮ":4996,"ĠÐ±ÑĥÑĤÑĭÐ»":4997,"ĠÐ³Ð¾ÑģÐ¿Ð¾Ð´Ð¸Ð½":4998,"ÑĪÐ¸Ð¼Ð¸":4999,"Ð¸ÐºÐ¾Ð¹":5000,"Ð¾ÑģÐ»ÐµÐ´":5001,"ĠÐ´ÑĢÑĥÐ³Ñĥ":5002,"ÐºÐ°Ð½":5003,"ĠÐºÐ°ÑģÐ°ÐµÑĤÑģÑı":5004,"Ð»ÑĭÐµ":5005,"ÑĥÐ³Ð¸":5006,"ĠÐ¿ÑĢÐ¸Ð½ÑıÐ»":5007,"ĠÐ¿ÑĢÐµÐ´Ð¿ÑĢÐ¸ÑıÑĤ":5008,"ĠÐ¾ÑģÐ¾Ð·Ð½":5009,"ĠÐļÑĢÑĭÐ¼":5010,"ÑģÑĤÑĢÐµÐ¼":5011,"ĠÐľÐ¾":5012,"ĠÑĤÑĭÑģÑıÑĩÐ¸":5013,"Ð¡Ðļ":5014,"ĠÐ²ÑĭÐ±ÑĢ":5015,"ĠÑħÐ¾Ð´Ðµ":5016,"ĠÑĨÐ²ÐµÑĤÐ°":5017,".:":5018,"Ð»Ð¾Ð¹":5019,"Ġ100":5020,"ĠÐ³Ð¾Ð²Ð¾ÑĢÐ¸ÑĤÑģÑı":5021,"ĠÐºÐ¾Ð¼Ð°Ð½Ð´Ñĭ":5022,"ĠÐ²Ð¸Ñģ":5023,"Ð¾Ð±Ð¾ÑĢÐ¾ÑĤ":5024,"ĠÐ¿ÑĢÐ¸Ð³Ð»Ð°ÑĪ":5025,"ĠÐ¿Ð¾ÐºÐ»Ð¾Ð½":5026,"ĠÐĿÐ¸ÑĩÐµÐ³Ð¾":5027,"ĠÐ¾Ð±ÑģÑĥÐ¶Ð´":5028,"ĠÐ²Ð°ÑĢ":5029,"Ð°ÑĤÑĥÑĢÑĭ":5030,"ĠÑĢÐµÐ¹":5031,"ĠÐºÑĥÑģÑĤ":5032,"ĠÐŁÑĥÑģÑĤÑĮ":5033,"ĠÐ·Ð°ÐºÑĢÑĭÑĤ":5034,"ĠÐ·Ð°ÑħÐ¾ÑĤ":5035,"ĠÐ¿ÑĢÐµÐ·Ð¸Ð´ÐµÐ½ÑĤÐ°":5036,"ÑĢÐ°ÑĤÐ½Ð¾":5037,"ĠÐ´ÐµÐ¿ÑĥÑĤ":5038,"ĠÐ¿ÑĢÐ¸Ð²ÐµÑĤ":5039,"ĠÐ³Ð¾ÑĢÐ´":5040,"ĠÐ´Ð²Ð¸Ð¶ÐµÐ½Ð¸Ðµ":5041,"ĠÐĿÐ°Ð¼":5042,"ÑĥÐ±Ð»Ð¸Ðº":5043,"ĠÐ¾Ð±Ð¼Ð°Ð½":5044,"Ð°Ð²ÐµÑĢÐ½Ð¾Ðµ":5045,"ĠÑħÐ¾ÑĤÐ¸ÑĤÐµ":5046,"ÑĢÐ¾ÑģÑĤ":5047,"ĠÑĥÐ¼Ð°":5048,"ĠÐ¶ÐµÐ»Ð°Ð½Ð¸Ðµ":5049,"ĠÑħÐ¾ÑĩÐµÑĤÑģÑı":5050,"Ð¾ÐºÐ¾Ð»":5051,"ÐºÐ¾Ð²Ð°":5052,"Ð°ÐµÑĪÑĮÑģÑı":5053,"ĠÐĻ":5054,"ÑĭÐ²Ð°ÑĤÑĮÑģÑı":5055,"ĠÐ»Ð°Ð²":5056,"Ð¾ÑĩÐµÐº":5057,"ÑĥÑħÐ°":5058,"ĠÐĺÑģÐ¿":5059,"Ð¿Ð¾":5060,"ĠÐ¿Ð¾Ð·Ð´Ð½Ð¾":5061,"ĠÐ¿ÑĢÐ¸ÑĪÐ»Ð°":5062,"ĠÐºÐ¾Ð½ÐºÑĢÐµÑĤ":5063,"ĠÐ°Ð´ÑĢÐµÑģ":5064,"ĠÐ¾Ð¿ÐµÑĢ":5065,"ĠÐľÐµÐ¶Ð´Ñĥ":5066,"Ð°Ð»Ð»":5067,"ÑĪÐµÐ±":5068,"Ð²ÐµÐ½":5069,"ĠÐ¼ÐµÑģÑıÑĨÐµÐ²":5070,"Ð´Ð°ÑİÑĤ":5071,"ĠÑįÐ¼Ð¾":5072,"Ð¾Ð²Ð°Ð½Ð¸ÐµÐ¼":5073,"Ð°Ð½Ð½Ð°":5074,"ĠÐ²Ð¸Ð´Ð¸Ð¼Ð¾":5075,"ĠÐ¸Ð·Ð±Ð°Ð²":5076,"Ð¸Ð»Ðµ":5077,"ĠÐ¸Ð·ÑĥÐ¼":5078,"Ð¸ÑĨÐ¸Ñİ":5079,"ÑĢÐ°Ð¶Ð´":5080,"ĠÐ½ÑĥÐ¶ÐµÐ½":5081,"ĠÐĵÐµÑĢÐ¼Ð°Ð½Ð¸Ð¸":5082,"Ð¾ÑħÑĢÐ°Ð½":5083,"ĠÑĪÐ»Ð¸":5084,"Ð»ÑĥÑĩ":5085,"ĠÐ¾ÑĤÐ´ÑĭÑħ":5086,"Ð¸Ð²Ð°Ð½Ð¸Ñı":5087,"ĠÑģÑĩÐ¸ÑĤÐ°ÐµÑĤ":5088,"ĠÐ½ÐµÐ¿Ð¾Ñģ":5089,"ĠÑĪÐ°Ð½Ñģ":5090,"ĠÑĢÑı":5091,"ĠÐ¿Ð¸ÑĪÐµÑĤ":5092,"ÑİÐ¶":5093,"ĠÐºÑĢÑĭÐ»ÑĮ":5094,"ĠÐ¼ÐµÑĤÐ¾Ð´":5095,"ĠÐĲÐ¼ÐµÑĢ":5096,"ĠÑĥÐ³Ð¾Ð»":5097,"ĠÑĢÐµÑĪÐµÐ½Ð¸Ñı":5098,"ĠÐ·Ð½Ð°Ð¼ÐµÐ½":5099,"ĠÐ·Ð°Ð³Ð¾":5100,"ĠÑĩÑĥÐ²ÑģÑĤÐ²Ð¾Ð²Ð°Ð»":5101,"ĠÐ¼ÑĥÐ¶ÑĩÐ¸Ð½Ñĭ":5102,"ÑĥÑĪÐºÑĥ":5103,"ĠÑģÑģÑĭÐ»":5104,"Ð°Ð»ÑĮÐ½ÑĭÐ¼Ð¸":5105,"Ð¾Ð¸Ð½":5106,"ĠÐ½ÐµÐ·Ð°Ð²Ð¸Ñģ":5107,"ĠÑĢÐ°Ð·Ð½ÑĭÐµ":5108,"ĠÑĥÐ±ÐµÐ¶Ð´":5109,"ĠÐ¿ÑĢÐ¾ÑĦÐµÑģÑģÐ¸Ð¾Ð½":5110,"ĠÐ¿ÐµÑĢÐµÐ²Ð¾Ð´":5111,"ĠÐ²ÑĩÐµÑĢÐ°":5112,"ĠÐ¥Ð¾ÑĢÐ¾ÑĪÐ¾":5113,"ĠÑĥÑģÐ»Ð¾Ð²Ð¸ÑıÑħ":5114,"ĠÐ³Ð¾ÑģÑĤÐ¸Ð½":5115,"Ð¸ÑģÑĤÐ°":5116,"ĠÐļÑĥÑĢ":5117,"Ð¾Ð¶Ð´ÐµÐ½Ð¸Ðµ":5118,"Ð¸ÑĤÐµÐ»ÑıÐ¼Ð¸":5119,"ĠÐłÐ°Ð·Ð²Ðµ":5120,"ĠÐºÐ¾Ð¼Ð¿ÑĮÑİÑĤÐµÑĢ":5121,"ĠÐ¸Ð³ÑĢÑĭ":5122,"ĠÑģÑĥÑīÐµÑģÑĤÐ²ÑĥÐµÑĤ":5123,"ĠÐ¿Ð¸ÑģÑĤ":5124,"ĠÐ¡Ð¾Ð±":5125,"Ð°Ð»Ð¸Ð¸":5126,"ĠÐ·Ð¾Ð²":5127,"ĠÐ¤ÑĢÐ°Ð½ÑĨÐ¸Ð¸":5128,"ÑıÑīÐµÐ³Ð¾":5129,"ĠÐĲÐ·":5130,"ĠÐ¡ÐºÐ¾ÑĢ":5131,"ĠÐ¿ÑĢÐ¾ÑĪÐµÐ»":5132,"ĠÐºÐ¾ÑĤÐ¾ÑĢÑĭÐ¼Ð¸":5133,"ĠÐºÐ½Ð¸Ð³":5134,"ĠÐĴÐ¾Ð·":5135,"ĠÐ±Ð¾ÑĢÑĤ":5136,"ĠÑĤÐ¸ÑĪ":5137,"ĠÐ°Ð¿Ð¿Ð°ÑĢ":5138,"ĠÐ½Ð°ÑģÑĤÐ¾ÑıÑīÐµÐµ":5139,"ĠÐ¸Ð¼ÐµÑİÑĤ":5140,"ĠÐ³Ð¾Ð»Ð¾Ð²Ð°":5141,"Ð»ÑĥÐ±":5142,"ĠÑģÑįÑĢ":5143,"ĠÐ¼Ð¾Ð¸Ð¼":5144,"ĠÐĹÐ°Ðº":5145,"ĠÑģÐ¿ÑĥÑģÐº":5146,"Ð¼Ð¾ÑĢ":5147,"ÑıÐµÑĤÑģÑı":5148,"ĠÐ½Ð°ÑĪÐ°":5149,"ĠÐºÐ¾Ð»Ð»ÐµÐº":5150,"ĠÐ²Ð´Ð¾Ð»ÑĮ":5151,"ĠÐ¿Ð¾Ð»Ð½Ð¾Ð¼":5152,"ĠÑįÐºÑģÐ¿ÐµÑĢ":5153,"ĠÑģÐ¿ÑĢÑıÑĤ":5154,"ÐµÐ¼Ð°":5155,"ĠÐ¿ÐµÑĢÐ²ÑĭÐµ":5156,"ĠÐļÐ¸ÐµÐ²":5157,"Ð¾Ð³Ñĥ":5158,"Ð°Ð´Ñĥ":5159,"ĠÐ½Ð¸ÐºÐ¾Ð¼Ñĥ":5160,"ĠÐ¡ÑĤÑĢ":5161,"ĠÑģÐ¿ÑĥÑĤ":5162,"ĠÐµÐ²ÑĢÐ¾Ð¿ÐµÐ¹":5163,"ĠÐ¿Ð»Ð°ÑģÑĤ":5164,"ĠÐľÐ¾Ð¶Ð½Ð¾":5165,"ÑıÑı":5166,"Ð¾Ð²Ð°Ð½Ð¸Ð¸":5167,"ĠÐĳÐ¾Ð¶":5168,"ĠÐ½Ð°ÑĪÐµ":5169,"ĠÐ½Ð°Ð¶":5170,"Ð¾ÑĢÑĤÐ°":5171,"ĠÐ²ÑĭÐ¸Ð³":5172,"ĠÐŀÑĩÐµÐ½ÑĮ":5173,"ĠÐ²ÐºÑĥÑģ":5174,"ĠÑģÐµÐ´":5175,"ĠÐ¿Ð¾Ð²ÐµÑĢÐ½ÑĥÐ»ÑģÑı":5176,"ĠÐ¿ÑĢÐ¾Ð½Ð¸Ðº":5177,"ĠÐĽÑİÐ±":5178,"ĠÑģÐ´ÐµÐ»Ð°Ð»Ð°":5179,"ĠÑĢÐµÑĪÐ¸Ð»Ð¸":5180,"ĠÐ½Ð°ÑģÐ»":5181,"ĠÑĥÐºÐ°Ð·ÑĭÐ²":5182,"ĠÐ´ÐµÐ¹ÑģÑĤÐ²Ð¸Ð¹":5183,"Ð°Ð½ÑĤÑĭ":5184,"ĠÑĢÐ°Ð·Ð³Ð»ÑıÐ´":5185,"ÑĩÐ¸ÐºÐ¸":5186,"ÂłÐº":5187,"ÑĨÐ¾":5188,"Ð°ÑĤÐµÐ»ÑĮÐ½ÑĭÐ¹":5189,"ĠÐ¿ÑĢÐ¾Ð±Ð¾ÑĢÐ¼Ð¾ÑĤ":5190,"ÑĥÑĢÐµ":5191,"ÑģÐºÐ¾":5192,"ÐµÑĪÑĮÑģÑı":5193,"Ð³Ð»Ð°Ð²":5194,"ĠÑģÐ¸Ð¼Ð²Ð¾Ð»":5195,"ÑģÑĤÐ°Ð½":5196,"ĠÑĩÐ°ÑģÑĤÐ½Ð¾ÑģÑĤÐ¸":5197,"ĠÑĦÐ°Ð¼":5198,"ĠÐ¼ÐµÑģÑıÑĨ":5199,"ĠÑĥÐ³Ð¾Ð´Ð½Ð¾":5200,"ĠÐ½ÐµÐ¿Ð¾Ð½ÑıÑĤ":5201,"ĠÑĥÑĢ":5202,"ĠÐľÐ¾ÑģÐºÐ²Ñĭ":5203,"Ð½ÐµÑĢ":5204,"ĠÐ¿Ð°ÑģÑģÐ°Ð¶":5205,"ĠÑıÐ²Ð»ÑıÑİÑĤÑģÑı":5206,"ĠÐ³ÑĥÑģÑĤ":5207,"ĠÐ¿Ð¾ÑģÑĤÐ°ÑĢ":5208,"ĠÐŁÐµÑĤÑĢÐ¾Ð²":5209,"ĠÑĨÐµÑĢÐºÐ²Ð¸":5210,"ĠÐ¿Ð°Ð¼ÑıÑĤÐ¸":5211,"ĠÐŃÑĤ":5212,"ĠÐ¿Ð¾Ð¼Ð½Ñİ":5213,"ĠÑĩÑĥÐ²ÑģÑĤÐ²Ð°":5214,"Ð¾Ñĥ":5215,"ĠÑĩÑĢÐµÐ·":5216,"ĠÑģÐ³":5217,"Ð¾Ð²ÐµÐ´":5218,"ĠÐ´ÑĢÑĥÐ³ÑĥÑİ":5219,"Ð²ÐµÑĢÐ³":5220,"ĠÐ¾ÑĤÐ²ÐµÑĤÑģÑĤÐ²ÐµÐ½":5221,"ĠÑĢÐ°ÑģÑģÐ¼Ð¾ÑĤÑĢ":5222,"ĠÐ²ÑģÑĤÑĢÐµÑĩÐ¸":5223,".].":5224,"ĠÑģÐ¸Ð»ÑĮÐ½ÐµÐµ":5225,"ÐĹÐ°":5226,"ĠÑĤÐµÑħÐ½":5227,"ĠÐ½ÐµÐ·Ð½Ð°ÐºÐ¾Ð¼":5228,"ĠÑĤÐ¸Ð¿Ð°":5229,"ĠÐ·Ð²ÐµÐ·Ð´":5230,"ĠÑģÐ°Ð»":5231,"ÐµÑħÐ°ÑĤÑĮ":5232,"ĠÑģÑĤÐ°Ðº":5233,"ÐµÐ»Ð»Ð¸":5234,"ĠÐ¿ÑĢÐµÐ´ÐµÐ»":5235,"ĠÐ¡Ð²ÐµÑĤ":5236,"ĠÐ¿ÑĢÐ¸Ð±Ñĭ":5237,"ÐµÑģÐµÐ´":5238,"ĠÐ¼ÐµÐ´Ð¸ÑĨ":5239,"ĠÐ·Ð°Ð¿Ð°Ñģ":5240,"ĠÐ¸Ð½ÑģÑĤÐ¸ÑĤÑĥÑĤ":5241,"ĠÑĢÐ°Ð±Ð¾ÑĤÐ°ÐµÑĤ":5242,"ĠÐ¸ÑģÑĤÐ¾ÑĢÐ¸Ñİ":5243,"ĠÑĤÐ¾ÑĢÐ¶Ðµ":5244,"ĠÐ´ÑĥÑĪÐµ":5245,"Ð¸ÑĤÐµÐ»ÑĮÐ½Ð°Ñı":5246,"ĠÑĪÐµÐ¿":5247,"Ð¾ÑģÑĤÐ¸Ð¶":5248,"ĠÐ½Ð°ÑħÐ¾Ð´Ð¸Ð»ÑģÑı":5249,"ĠÑĢÐµÐ·ÑĥÐ»ÑĮÑĤÐ°ÑĤ":5250,"Ð»ÐµÐ½Ð½Ð¾Ð¹":5251,"ĠÑģÑĤÐ¾Ð»Ðº":5252,"ĠÐ±Ð»ÐµÑģÑĤ":5253,"ĠÐ¾Ð±Ð»ÐµÐ³Ñĩ":5254,"ĠÐ¿ÑĢÐµÐ´ÑģÑĤÐ°Ð²Ð¸ÑĤÑĮ":5255,"ĠÐºÐ¸Ð½Ð¾":5256,"ĠÐ²Ð¾ÑģÐµÐ¼ÑĮ":5257,"ĠÐ²Ð°ÑĪÐµÐ¹":5258,"ĠÐ²Ðµ":5259,"ĠÐĿÐµÑģ":5260,"ĠÑĢÐµÑģÑĤ":5261,"ĠÐ²Ð°ÑĪÐµ":5262,"ĠÐ¾Ð±ÑīÐµÑģÑĤÐ²Ð°":5263,"ĠÐ¿Ð¾Ð½Ð¸Ð¼Ð°Ð»":5264,"ĠÑģÐ¾Ð²Ð¼ÐµÑģÑĤ":5265,"ĠÑģÐ¾ÑģÑĤÐ¾ÑıÐ½Ð¸Ðµ":5266,"ĠÑģÐ¼ÐµÑħ":5267,"ĠÐ¢Ðµ":5268,"ĠÐ¿ÑĢÐ¸ÑĪÐ»Ð¸":5269,"ĠÐ½Ð¸Ð¶Ðµ":5270,"ĠÐ¸ÑģÑĤÐ¾ÑĢÐ¸Ñı":5271,"Ð°Ð»ÑĮÑĪÐµ":5272,"ĠÐ¡ÐµÑĢ":5273,"ĠÐ´ÐµÐ²ÑĥÑĪÐºÐ¸":5274,"ĠÑĢÐ°Ð±Ð¾ÑĤÐ°Ð»":5275,"ÂłÐŀÑĤ":5276,"ĠÐ¾Ð¿ÑĢÐ°Ð²Ð´":5277,"Ġ26":5278,"ĠÐ¾ÑĤÐ´Ð°Ð»":5279,"ĠÐºÐ¾Ð»Ð»ÐµÐ³":5280,"ĠÐĿÐ°ÑĢ":5281,"ĠÑģÐ¿Ð°ÑĤÑĮ":5282,"Ð¸Ð»Ð¸Ð¿":5283,"ĠÐ½Ð°Ð·ÑĭÐ²Ð°ÐµÐ¼":5284,"ÑıÑİÑĤ":5285,"ĠÐŃÐ´":5286,"ĠÐ½Ð°Ð·Ð²Ð°Ð½Ð¸Ðµ":5287,"Ð°Ð»ÑĮÐ½Ð¾ÑģÑĤÐ¸":5288,"ÑıÑīÐ¸Ñħ":5289,"ĠÑģÐ°Ð¼Ð¾Ð¼Ñĥ":5290,"ÑĩÐ¸ÐºÐ°":5291,"ĠÑĥÑĤÐ¾Ñĩ":5292,"ĠÐ´ÑĥÐ¼Ð°Ð»Ð°":5293,"ĠÐºÑĢÐµÑģÑĤÑĮÑıÐ½":5294,"ĠÐ»ÑİÐ±Ð»Ñİ":5295,"ĠÐ¿ÑĢÐµÐ²ÑĢÐ°Ñī":5296,"ĠÐ»ÐµÐ¹":5297,"Ð¸ÑĢÐ°Ñı":5298,"ĠÐ¿Ð¾ÑģÐ»ÑĥÑĪ":5299,"ĠÐ¿Ð¾Ð´ÑĥÐ¼Ð°Ð»Ð°":5300,"ĠÐ¦ÐµÐ½ÑĤ":5301,"ĠÐ¿Ð»ÐµÑĩÐ¾":5302,"50":5303,"ÑģÐµÐ½":5304,"ĠÐ´Ð¸ÑĢÐµÐºÑĤÐ¾ÑĢ":5305,"ĠÐĶÑĢÑĥÐ³":5306,"ĠÐºÑĢÑĥÑĤ":5307,"Ð¸ÑĤÐ°ÑĢ":5308,"Ð¸ÑĪÑĮÑģÑı":5309,"ÐĲÑĢ":5310,"ĠÐ¼Ð°ÑĢÑĪ":5311,"ĠÐ¾ÑģÑĤÐ°ÐµÑĤÑģÑı":5312,"ĠÐľÑį":5313,"ĠÐ¿Ð¾ÑģÐ»ÐµÐ´Ð½ÐµÐµ":5314,"ĠÐºÐ¾ÑĢÐ°Ð±Ð»Ñı":5315,"ĠÐ±Ð¾Ð»Ð¸":5316,"ĠÐ½ÐµÐ´ÐµÐ»Ð¸":5317,"ĠÑģÐ¼Ð¾Ð¶":5318,"ÐµÐºÐ¾Ð¼":5319,"ĠÐ»Ð¸ÑĩÐ½Ð¾":5320,"Ð°Ð²ÑĪÐ°Ñı":5321,"ÑĩÐ¸ÐºÐ¾Ð²":5322,"ĠÐ¾ÑĤÑģÑĤ":5323,"Ð°ÑĤÑĥÑĢÐ°":5324,"ĠÐŀÐ»ÑĮ":5325,"ĠÐ¿ÑĢÐ¸ÑĩÐµÐ¼":5326,"Ð°Ð¹ÑĤÐµÑģÑĮ":5327,"ÑĢÐµÐ»":5328,"ĠÐ³ÑĢÐµÑħ":5329,"ĠÐ¿Ð¾Ð¿ÑĢÐ°Ð²":5330,"ÑĢÐµÐ´Ð¾ÑĤÐ¾Ñĩ":5331,"ĠÑĤÑİÑĢÑĮ":5332,"ĠÐ±Ð¸ÑĤ":5333,"ĠÐŁÐµÑĢÐµÐ´":5334,"ĠÐ³Ðµ":5335,"ĠÐºÐ¸Ð½":5336,"ĠÐ¿ÑĢÐ¸ÑģÑĤÑĥÐ¿":5337,"ĠÑĦÐ°Ð½ÑĤ":5338,"ÑıÐº":5339,"ĠÐºÐ¾ÑĢÐ°Ð±Ð»ÑĮ":5340,"ĠÐ½ÐµÐ±Ð¾Ð»ÑĮÑĪÐ¾Ð¹":5341,"ĠÑĩÐµÑģÑĤÑĮ":5342,"ÐºÑĥÐ¿":5343,"ĠÐĿÐµÐ¼":5344,"ĠÐ´ÑıÐ´":5345,"ĠÐ¾Ð´Ð½Ð¾Ð¼Ñĥ":5346,"ĠÐ²ÑĭÑĤÐ°Ñī":5347,"ĠÐ¾Ð´Ð¸Ð½Ð¾":5348,"ĠÐ¿ÐµÑĢÐµÐ»":5349,"ĠÐ±Ð¾Ð»ÑĮÑĪÐ¸Ð¼":5350,"ĠÐºÐ¾Ð¼Ð°Ð½Ð´Ð¸ÑĢ":5351,"Ð¾Ð·Ñĭ":5352,"ĠÐ²ÑĢÐµÐ¼ÐµÐ½Ð°":5353,"ĠÐŃÑĢ":5354,"ĠÐ»Ð°ÑģÐº":5355,"ĠÐ°Ð²ÑĤÐ¾Ð¼Ð°ÑĤ":5356,"ĠÐłÐ¾Ð¼":5357,"ĠÐ²ÑĢÐµÐ´":5358,"ĠÐ¾Ð¿ÑĢ":5359,"ĠÐ¡ÑĤÐ¾":5360,"ĠÐ¿ÑĢÐ¸ÑģÐ¾ÐµÐ´Ð¸Ð½":5361,"ĠÐºÐ°ÐºÐ¾Ð¼":5362,"Ð°ÑĤÐµÐ»ÐµÐ¼":5363,"ĠÐ¿Ð¾Ð»ÑĮÐ·Ñĥ":5364,"ĠÑĢÐ°ÑģÑħÐ¾Ð´":5365,"Ð¾Ð¿Ð¾Ð»Ð¾Ð¶":5366,"ĠÐ½Ð°ÑĪÐ»Ð¸":5367,"Ġ27":5368,"ĠÐ¿Ð¾Ð½ÑıÑĤÐ½Ð¾":5369,"ĠÐŃÐ»":5370,"ĠĠĊ":5371,"ÑĤÐ¸Ð²":5372,"ĠÐĿÐ°Ñĩ":5373,"ÐµÐ³Ð¾ÑĢ":5374,"Ð¸Ð»Ð»ÐµÑĢ":5375,"Ð¸Ð²Ð°ÑİÑĤÑģÑı":5376,"ĠÑĦÑĥÑĤÐ±Ð¾Ð»":5377,"Ð½Ð°ÑģÑĤ":5378,"ĠÐ²Ð·ÑĢÐ¾Ñģ":5379,"ĠÑģÑĤÑĢÐ°ÑģÑĤ":5380,"ĠÐ¿Ð¾ÑģÑĤÐµÐ¿ÐµÐ½Ð½Ð¾":5381,"ĠÐ¸Ñī":5382,"ĠÐ¿ÑĥÐ³":5383,"ĠÑĩÐµÐ»Ð¾Ð²ÐµÐºÑĥ":5384,"ĠÐ´Ð¾ÐºÑĤÐ¾ÑĢ":5385,"ĠÐĲÐ»ÐµÐº":5386,"ĠÐĳÐ¾Ð³Ð°":5387,"ĠÐ¿Ð¾Ð´ÑĢÐ°Ð·":5388,"ĠÐ¾ÐºÐ½Ð¾":5389,"Ġ28":5390,"ĠÐ½ÐµÑĳ":5391,"ÂłÐľÑĭ":5392,"ĠÑģÐ¼Ð¾ÑĤÑĢÐµÐ»Ð°":5393,"ĠÑģÑĤÐµÐ½Ðµ":5394,"ĠÐĿÐ°ÐºÐ¾Ð½ÐµÑĨ":5395,"ĠÑĨÐµÐ½ÑĤÑĢÐµ":5396,"ÐµÑĢÐ±ÑĥÑĢ":5397,"ĠÐĺÐ»ÑĮ":5398,"ĠÐ¿ÑĢÐ¾ÑĤÑıÐ½ÑĥÐ»":5399,"ĠÐ¾ÑĤÑĢÐ¸ÑĨ":5400,"**":5401,"ĠÐ±ÐµÐ·ÑĥÐ¼":5402,"ĠÐ¡Ð¸ÑĢ":5403,"Ð»ÑıÐ»ÑģÑı":5404,"ĠÑĥÑģÐ»ÑĭÑĪÐ°Ð»":5405,"ÑĦÐµÑĢ":5406,"ĠÐ½ÐµÐ´Ð¾":5407,"ĠÐĲÑħ":5408,"ĠÐ¿Ð¸Ñī":5409,"ĠÐŃÐ¹":5410,"ĠÑĢÐ¾Ð´ÑģÑĤÐ²ÐµÐ½":5411,"ĠÑĢÐ°Ð´Ð¾ÑģÑĤ":5412,"ĠÐ¿Ð°Ð»ÑĮÑĨÑĭ":5413,"ĠÑģÑĩÐ¸ÑĤÐ°ÑĤÑĮ":5414,"ĠÐ²Ð¾Ð´Ð¾Ð¹":5415,"ĠÐ»Ð°Ð¿":5416,"ĠÐ¿Ð¾ÑģÐ°Ð´":5417,"ÑĳÑĤÑģÑı":5418,"ÑĮÐµÐ¼":5419,"ĠÑģÐ»ÑĥÑħ":5420,"ĠÐºÐ¾ÑĦÐµ":5421,"Ð°Ð´Ð¾Ð±":5422,"ÑıÐ±ÑĢÐµ":5423,"ĠÐ½ÐµÐºÐ¾ÑĤÐ¾ÑĢÐ¾Ðµ":5424,"âĢĥ":5425,"ÑĥÐ¼Ð°":5426,"ĠÐŁÑĢÐ¸Ð¼":5427,"ĠÐ¸Ð½ÑĦÐ¾ÑĢÐ¼Ð°ÑĨÐ¸Ñİ":5428,"ĠÐ¼ÑĥÐ¶Ð°":5429,"Ð¸Ð´Ñĥ":5430,"ĠÑĥÑģÑĤÐ°Ð»":5431,"ÐĺÐĲ":5432,"ĠÑĨÐµÐ»ÑĮÑİ":5433,"ĠÐ²ÐµÑģÐµÐ»":5434,"ÑĢÐ¾ÑĪ":5435,"ÂłÐŀÐ½":5436,"Ð°Ð½Ð´Ð°":5437,"ĠÐ½ÑĥÐ¶Ð½Ð°":5438,"Ð¾ÑĤÐ¾Ð²":5439,"ĠÑĤÐµÑģ":5440,"ÑĢÑĥÑģ":5441,"ÐµÑĢÐµÐ·":5442,"Ð±Ð»":5443,"ĠÐ²ÐµÐ´ÑĥÑī":5444,"ÑĥÑİÑģÑı":5445,"ĠÐ´ÑĭÑĪ":5446,"ĠÐ´Ð¾ÐºÑĥÐ¼ÐµÐ½ÑĤ":5447,"ĠÐĶÐ¶ÐµÐ¹":5448,"ĠÐ·Ð°Ð³Ð¾Ð²Ð¾ÑĢ":5449,"ĠÐ¼ÐµÑģÑıÑĨÐ°":5450,"Ġ21":5451,"ĠÐ±Ð¾Ð»ÑĮÑĪÑĥÑİ":5452,"ĠÐ¢Ð°ÐºÐ¶Ðµ":5453,"ĠÐ²ÑĢÑıÐ´":5454,"ĠÐ½Ð°Ð´Ðµ":5455,"ĠÐ¡Ð¾Ñİ":5456,"ĠÐ³ÑĢÑĥÐ´ÑĮ":5457,"ĠÐºÑĢÐ°Ñı":5458,"ĠÐ½ÑĭÐ½ÐµÑĪ":5459,"ĠÐ£ÐºÑĢÐ°Ð¸Ð½Ðµ":5460,"ĠÐ¡ÑĥÐ´":5461,"ĠÐ¿ÑĢÐµÐ´ÑģÐµÐ´":5462,"ĠÑĥÑĩÐµÐ±":5463,"ĠÐŀÐ»ÐµÐ³":5464,"ĠÑģÐµÐºÑĥÐ½Ð´":5465,"ĠÐ·Ð°Ð²Ð¾Ð´":5466,"ĠÐ±Ð¾Ð»ÑĮÑĪÐ¸Ðµ":5467,"ĠÐ°Ð±ÑģÐ¾Ð»ÑİÑĤÐ½Ð¾":5468,"ĠÐºÑĥÑĩ":5469,"ĠÐ·Ð°Ð¼ÐµÑĤÐ¸Ð»Ð°":5470,"ĠÐ²Ð°ÑĪÐ¸":5471,"ĠÐ¼Ð½Ð¾Ð¶ÐµÑģÑĤÐ²Ð¾":5472,"ĠÐ¿Ð¾ÑıÑģÐ½":5473,"ÐĿÑĥ":5474,"ĠÐ²Ð¾Ð¹Ð½Ð°":5475,"Ð¸ÐºÐ°Ð¼Ð¸":5476,"ĠÐ½Ð¸ÐºÐ°ÐºÐ¾Ð¹":5477,"ĠÐ¢Ð¾Ð»":5478,"ĠÑĥÐºÑĢÐµÐ¿":5479,"Ð»ÐµÐ·":5480,"ĠÐ¼Ð¸Ð½Ð¸Ð¼":5481,"Ð¾ÑģÑĤÐ¾ÑıÑĤÐµÐ»ÑĮ":5482,"ĠÐºÐ¾Ð¼Ð¿Ð°Ð½Ð¸Ñı":5483,"ÑĥÐ»Ð°":5484,"Ð¹ÑĤÐµ":5485,"Ð¸Ð½ÐºÐ°":5486,"ĠÐ¿ÑıÑĤÐ¸":5487,"ĠÐ¿ÐµÑĢÐ²ÑĭÑħ":5488,"ÐµÐ½Ñī":5489,"Ð¸ÑģÐ¿":5490,"ĠÐ¿ÑĢÐµÑģÐ»ÐµÐ´":5491,"ĠÐ´ÐµÑĢÐµÐ²ÑıÐ½":5492,"ĠÐ¾ÑģÐ²Ð¾Ð±":5493,"ĠÐ½Ð°Ð¿ÑĢÐ¾ÑĤÐ¸Ð²":5494,"ĠÑĥÑģÑĤÑĥÐ¿":5495,"ĠÐ¾ÑģÐ½Ð¾Ð²Ð½Ð¾Ð¼":5496,"ĠÐ²Ð¼ÐµÑĪ":5497,"ĠÐ¼Ð¸Ðº":5498,"ĠÑģÑĤÑĢÐ°Ð½Ð½Ð¾":5499,"ĠÐ¸Ð·Ð¼":5500,"ÑĥÐ½ÐºÑĤ":5501,"ĠÑģÐ¾Ð±ÑģÑĤÐ²ÐµÐ½Ð½Ð¾Ð¹":5502,"Ð»ÐµÐ±":5503,"ĠÑģÐ¿ÐµÑĨ":5504,"ĠÐĴÐ·":5505,"ĠÐ¿ÑĢÐ¾ÑģÑĮ":5506,"ĠÐŃÐ¼":5507,"ĠÐ¿Ð¾Ð´ÑĤÐ²ÐµÑĢÐ¶":5508,"Ð¸Ð½Ð¸":5509,"ĠÐ¿ÑĢÐµÐ¿Ð¾Ð´":5510,"ÐµÑĢÐ°ÑĨÐ¸Ð¸":5511,"ĠÐ¿ÑĢÐ¸Ð±Ð»Ð¸Ð·":5512,"ĠÑģÑĥÐ´Ð°":5513,"Ð¾ÑĩÐµ":5514,"ÐµÐºÐµ":5515,"ĠÐ¸ÑģÐºÑĢÐµÐ½":5516,"ÐºÐ¾ÑģÑĤÑĮ":5517,"ĠÐ¿ÑĢÐµÐºÑĢÐ°ÑĤ":5518,"ĠÑĤÐµÑĢÑĢÐ¾ÑĢ":5519,"ĠÑĢÐ¾Ð±":5520,"ĠÑĢÐ°ÑģÑĪÐ¸ÑĢ":5521,"ĠÐ»Ð¾Ðº":5522,"ĠÐŁÑĢÐ¸Ñĩ":5523,"ĠÑĥÑĪÐµÐ»":5524,"Ð°ÑģÑĤÑĭ":5525,"ĠÐ¨ÑĤ":5526,"ĠÐ¿Ð¾Ð»Ð¸ÑĨÐ¸Ð¸":5527,"ĠÐĲÐ¹":5528,"Ð¼Ð¾Ð¹":5529,"ĠÐ²ÑĭÐ¹ÑĤÐ¸":5530,"ÑģÐ¼":5531,"ĠÐĹÐ°Ð²":5532,"ĠÐľÐ°Ð³":5533,"ĠÐ½Ð¸Ð¶":5534,"ĠÑĩÐ°Ð¹":5535,"ĠÑĢÐ°ÑģÐ¿Ð¾Ð»Ð°Ð³":5536,"Ð¸Ð½ÐºÑĥ":5537,"ĠÐºÐ»ÐµÑĤ":5538,"ĠÑģÐ²Ð¾Ð´":5539,"ĠÐ±Ð»ÐµÐ´":5540,"ĠÐ¾Ð´Ð½Ð°Ð¶Ð´Ñĭ":5541,"ĠÐ¿Ð»ÐµÑĩÐ¸":5542,"ĠÐ³ÑĢÑĥÐ¿Ð¿Ð°":5543,"ĠÐ¿ÐµÑĢÐ²Ð¾Ð¼":5544,"ĠÐĺÑĤ":5545,"ĠÑĩÐ°ÑģÑĭ":5546,"ĠÐ²Ð¾Ð»Ð½":5547,"ĠÐĶÐ¼Ð¸ÑĤÑĢ":5548,"ĠÑģÐ¾Ð¿ÑĢÐ¾ÑĤÐ¸Ð²":5549,"ĠÐ¿Ð¾Ð»Ð½Ð¾Ð¹":5550,"ĠÐ¿ÑĢÐ°Ð²Ð¸ÑĤÐµÐ»ÑĮÑģÑĤÐ²Ð°":5551,"Ð°Ð½Ð½ÑĥÑİ":5552,"ĠÐ»Ð¸Ð½Ð¸Ð¸":5553,"ĠÐĲÐ½Ð³Ð»Ð¸":5554,"ÐĴÐĲ":5555,"ĠÐ¼Ð¸Ð½ÑĥÑĤÑĭ":5556,"ÑĪÐµÐ´":5557,"ĠÐ²ÐµÑĢÐ½Ð¾":5558,"ĠÐķÐ¹":5559,"Ð°ÑĤÐµÐ»ÑĮÑģÑĤÐ²Ð¾":5560,"ĠÑĤÑĢÑĥÐ¿":5561,"ĠÑĥÐ¹ÑĤÐ¸":5562,"ĠÑģÐ¾ÑģÑĤÐ°Ð²Ðµ":5563,"ÑĨÐ²ÐµÑĤ":5564,"ÑĨÐ°Ñħ":5565,"Ð°ÑĤÐºÐ¸":5566,"ĠÐ¾Ð±ÐµÐ´":5567,"Ð¸Ð¼Ð°Ñı":5568,"ĠÑĦÐ¸ÑĢ":5569,"ĠÑĥÑģÐ¼ÐµÑħÐ½ÑĥÐ»ÑģÑı":5570,"ĠÑĤÐ°Ð»":5571,"ĠÐĴÐ¸ÐºÑĤÐ¾ÑĢ":5572,"ĠÐ¸Ð´Ð¸":5573,"ĠÐ¾ÑģÑĤÐ°Ð»Ð¸ÑģÑĮ":5574,"Ð½Ð¾Ñĩ":5575,"ĠÐºÐ»Ð¸Ð½":5576,"ĠÐŁÐ¾Ð²":5577,"Ð°Ð½Ð´Ð¸Ð´":5578,"ÑīÐ¸ÐºÐ¾Ð²":5579,"ĠÐ³ÑĢÐ¾Ð¼ÐºÐ¾":5580,"ĠÐ²Ð¿ÐµÑĢÐµÐ´Ð¸":5581,"ĠÐĴÐ°ÑĢ":5582,"ĠÐ³Ð»ÑĥÐ±Ð¾ÐºÐ¾":5583,"ĠÐºÐ°Ð¶Ð´Ð¾Ð¹":5584,"ĠÑĤÐ²ÐµÑĢÐ´":5585,"ĠÑģÐ»ÑĥÐ¶Ð±Ñĭ":5586,"ĠÐĿÐµÑĥÐ¶ÐµÐ»Ð¸":5587,"ĠÐ¿Ð¾ÑĪÐ»Ð¸":5588,"ĠÐ¿Ð¾Ð¿ÑĭÑĤÐ°Ð»ÑģÑı":5589,"ĠÐ¿ÑĢÐµÐ±":5590,"ĠÑģÐ´ÐµÐ»Ð°Ð»Ð¸":5591,"ĠÐ¡ÐµÐ³Ð¾Ð´Ð½Ñı":5592,"ĠÑħÐ²Ð¾ÑģÑĤ":5593,"ĠÐ²Ð¾Ð·Ð´ÑĥÑħÐµ":5594,"ÐŁÐ¾ÑģÐ»Ðµ":5595,"ÑģÐµÐ³Ð´Ð°":5596,"ĠÐ²Ð¾Ð½":5597,"ĠÑģÐ¿Ð¸Ð½Ñĥ":5598,"ÐºÐ¸Ð½Ð°":5599,"ĠÐ¿Ð¾ÑĤÑĢÑıÑģ":5600,"ĠÐ¼Ð¸Ð½Ð¸ÑģÑĤ":5601,"ÑıÐ»Ð¾":5602,"ĠÐ£Ð¶Ðµ":5603,"ĠÐ½ÑĥÐ¶Ð½Ñĭ":5604,"ĠÐ½Ð°ÑĩÐ°Ð»Ð¾":5605,"ÑĥÑİÑīÐ¸Ð¹":5606,"ĠÐ±Ð¾Ð»ÑĮÑĪÐ°Ñı":5607,"Ð»Ð¾Ñħ":5608,"ĠÑĪÐ»Ð°":5609,"ĠÐ¿Ð¸ÑģÐ°Ð»":5610,"ĠÑĦÐ¾ÑĢÐ¼Ðµ":5611,"Ð°Ð±ÑĢ":5612,"Ð¾Ð²Ð¾Ðµ":5613,"ĠÐ²ÑĭÑĢÐ²":5614,"ĠÐ¿Ð¾Ð¸Ð½ÑĤÐµÑĢÐµÑģ":5615,"Ð»ÑıÑİÑī":5616,"ÐŀÐĿ":5617,"ĠÑģÐ»Ð°Ð´":5618,"ĠÐ½Ð°ÐºÐ»Ð¾Ð½":5619,"ĠÐ·Ð½Ð°ÑĩÐµÐ½Ð¸Ðµ":5620,"ĠÐ½Ð¾Ð³Ð°Ð¼Ð¸":5621,"ĠÐ±ÑĢÐ°ÑĤÐ°":5622,"ĠÐ¿Ð¾ÑıÑģ":5623,"ÑģÐ»Ñı":5624,"Ð¼Ð¾Ñģ":5625,"ĠÑĩÐ°ÑīÐµ":5626,"ĠÐ¾ÑģÐ²Ð¾Ð±Ð¾Ð´":5627,"ĠÐŁÐµÑĤÑĢ":5628,"ĠÐ´Ð¾ÑĢÐ¾Ð¶":5629,"ĠÑĤÑĢÑĥÐ´Ð°":5630,"ĠÑĢÐ°ÑģÑĤÐµÑĢ":5631,"ĠÐ²ÑĭÐ¹":5632,"ĠÐ´ÑĥÑĪÑĥ":5633,"ÐµÐ»Ð°ÑģÑĮ":5634,"ĠÐŁÐ¾Ð¿":5635,"ĠÐ»ÐµÑĩ":5636,"ĠÐºÐ°Ð»":5637,"ĠÐ¿ÑĢÐµÑĤ":5638,"ÐºÐ½ÑĥÐ»Ð°":5639,"ĠÑĢÐ°Ð·Ð¼ÑĭÑĪ":5640,"Ð¸ÑģÐºÐ¸":5641,"ĠÐºÐ°ÑĦ":5642,"ĠÐ½ÐµÐ¿ÑĢÐ°Ð²":5643,"Ð¸ÑĩÐµÑģÐºÐ¸Ð¼Ð¸":5644,"Ð¸Ð½Ð´":5645,"ĠÐ¿Ð¾ÑıÐ²Ð¸Ð»Ð°ÑģÑĮ":5646,"Ð¿ÐµÑĢÐ²":5647,"ĠÐĴÐ°Ð¼":5648,"ĠÐĴÐ¼ÐµÑģÑĤ":5649,"ĠÑįÑĤÐ°Ð¿":5650,"ĠÐ¾ÑĤÑĤÑĥÐ´Ð°":5651,"ĠÑģÑĤÑĢÐ°ÑĪÐ½Ð¾":5652,"ĠÐ¿Ð»Ð°Ð²":5653,"ĠÐ¸Ð·Ð²Ð¸Ð½":5654,"ĠÑĢÑĥÐºÐ°":5655,"ĠÐ¥Ð°ÑĢ":5656,"ĠÑĥÐ¿Ð¾ÑĢ":5657,"ĠÐ²ÐµÑĢÐ¾ÑıÑĤÐ½Ð¾":5658,"ĠÐ¾ÑģÐ¼Ð¾ÑĤÑĢ":5659,"ĠÑıÐ¿Ð¾Ð½":5660,"Ð¸Ð½ÑģÐºÐ¾Ð¹":5661,"ĠÐºÐ¾Ð½ÐºÑĥÑĢ":5662,"ĠÐļÐ°Ð¶Ð´":5663,"ĠÑĩÐµÑĤÑĭÑĢÐµÑħ":5664,"ĠÐ¿Ð¾Ð³Ð¾Ð²Ð¾ÑĢÐ¸ÑĤÑĮ":5665,"Ð°Ð¹Ð´":5666,"ĠÐºÑĥÑĢÑģ":5667,"Ð³Ð½":5668,"ĠÐ¿Ð¾ÑģÑĤÑĢÐ°Ð´":5669,"ĠÐ¾ÑĢÑĥÐ¶Ð¸Ñı":5670,"ÑĥÑİÑĤÑģÑı":5671,"ĠÐ´Ð¾ÑĪ":5672,"ÑĥÑİÑīÐµÐµ":5673,"ĠÐ¿Ð»Ñİ":5674,"ĠÐ³Ð¾Ð»Ð¾Ð´":5675,"ĠÑĢÐ°ÑģÐ¿Ð¾ÑĢÑıÐ¶":5676,"ĠÐ¼Ð¾ÑģÐºÐ¾Ð²":5677,"ĠÐ¿Ð°Ðº":5678,"24":5679,"ĠÐ¾ÑĤÐºÑĢÐ¾Ð²":5680,"Ð¶Ð°":5681,"ĠÑĥÐ³Ð¾Ð»Ð¾Ð²":5682,"ĠÐ½ÐµÐ´Ð¾Ð²Ð¾Ð»ÑĮ":5683,"ĠÐ²Ð¾Ð´Ð°":5684,"ĠÑĥÐ±Ð¸ÑĤÑĮ":5685,"ÐľÐĺ":5686,"ĠÐ¶Ð¸ÑĤÐµÐ»ÐµÐ¹":5687,"ÐµÐ½ÑĨÐ¸":5688,"Ð¸Ð½ÑģÐºÐ¸Ð¹":5689,"ĠÐ³Ð»Ð°Ð²Ð°":5690,"ĠÑĢÐµÑģ":5691,"ÑĢÐµÑģÑģ":5692,"ĠÐĵÐ¾Ð²Ð¾ÑĢ":5693,"ĠÐ¾ÑĤÑĢÑıÐ´":5694,"ĠÐ²Ð¾ÑģÐºÑĢÐµÑģ":5695,"ĠÐ§ÐµÐ¼":5696,"ĠÐĿÐ°Ñģ":5697,"ÐŁÑĢÐ¸":5698,"Ð¾Ð²Ð°Ð½Ð¸Ð¹":5699,"Ð½ÑıÐ¼Ð¸":5700,"ĠÐ¿ÑĢÐ°Ð²Ð¸Ð»ÑĮ":5701,"Ð¸Ð½ÑģÐºÐ¾Ð³Ð¾":5702,"ĠÐ¾ÑīÑĥÑĤ":5703,"ĠÑĢÐ°Ð·Ð½Ð¾":5704,"ĠÑįÐºÐ¸Ð¿":5705,"ĠÐ¼ÑĥÐ·ÑĭÐº":5706,"ĠÐ²Ð¾ÑĪÐµÐ»":5707,"ĠÐ½ÐµÐ¾Ð±ÑĭÑĩ":5708,"ÐĴÐĶ":5709,"ĠÐĿÑĮÑİ":5710,"ĠÐ¿Ð¾ÐºÐ¾Ð»":5711,"ÑģÑĤÐ²Ð°Ñħ":5712,"ĠÐ´ÐµÐ´":5713,"ĠÐ¿Ð¾ÑĢÐ°Ð·":5714,"ĠÐ±ÑĭÑģÑĤÑĢÐµÐµ":5715,"ĠÐ´ÑĢÑĥÐ·ÐµÐ¹":5716,"ĠÐ·Ð°Ð¸Ð½ÑĤÐµÑĢÐµÑģ":5717,"Ð¸ÐºÑģ":5718,"ĠÐ°ÐºÐºÑĥ":5719,"Ð°Ð½ÑĤÐ¾Ð²":5720,"ĠÐĵÐ°ÑĢÑĢÐ¸":5721,"ĠÐ¸Ð¼Ð¸":5722,"ĠÑģÐ¾ÑģÑĢÐµÐ´Ð¾ÑĤÐ¾Ñĩ":5723,"ĠÑģÐ¾Ð±ÑĭÑĤÐ¸Ð¹":5724,"ĠÐŁÐ¾ÑģÐ»ÐµÐ´":5725,"ÑĥÐºÐ¾Ð²":5726,"Ð¾Ð²Ñĭ":5727,"ĠÐ¸Ð³ÑĢÐ°ÑĤÑĮ":5728,"Ð¸Ð¼Ð¾Ð¹":5729,"ĠÐ¿Ð¾Ð»ÑĥÑĩÐ¸Ð»Ð¸":5730,"Ð½Ð¸Ð»":5731,"ĠÐ¾ÑģÑĤÐ°Ð²Ð°Ð»Ð¾ÑģÑĮ":5732,"ĠÐºÑĢÐ¾Ð²Ð°ÑĤÐ¸":5733,"ĠÐ¿Ð¾Ð·Ð½Ð°ÐºÐ¾Ð¼":5734,"ÑĥÑīÐµÐµ":5735,"Ð¾ÑĨÐ¸":5736,"ĠÑĥÑģÑĤÑĢÐ¾Ð¹":5737,"ĠÐ²Ð¾Ð»ÑĪÐµÐ±":5738,"ĠÐ³Ð¾Ð´Ð¾Ð²":5739,"ĠÐ½Ð°Ð»Ð¸Ñĩ":5740,"ĠÑĪÐºÐ¾Ð»Ñĭ":5741,"ĠÑĥÐºÑĢÐ°ÑĪ":5742,"Ġ40":5743,"ÐµÐ»Ð¾Ð²ÐµÐº":5744,"ĠÑģÐºÐ°Ð·Ð°Ð»Ð¸":5745,"ÑıÑīÐ¸Ðµ":5746,"ĠÐ½ÐµÑĩÐµÐ³Ð¾":5747,"ĠÐ¿ÑĢÐ¸ÑħÐ¾Ð´Ð¸ÑĤÑģÑı":5748,"ÐŁÐµÑĤ":5749,"ĠÐĹÐ°ÑĩÐµÐ¼":5750,"ĠÐ²ÑĤ":5751,"ĠÐ¿Ð¾Ð´Ð½Ñı":5752,"ĠÐłÑĥ":5753,"Ð¼Ð¾Ð½":5754,"Ð¸Ð¹ÑģÐºÐ¾Ð³Ð¾":5755,"ĠÑĥÐ¿Ð¾Ð¼Ð¸Ð½":5756,"ÐºÑģ":5757,"ÐµÐ½Ð½Ð¾Ð¼Ñĥ":5758,"ĠÑģÐ¸ÑĤÑĥÐ°ÑĨÐ¸Ñı":5759,"Ð°ÐµÐ²":5760,"ĠÐ°ÑģÑģ":5761,"ĠÐ¸Ð½ÑĦ":5762,"ĠÑħÐ¾ÑĤÐµÐ»Ð¸":5763,"ĠÑĩÑĥÐ²ÑģÑĤÐ²Ñĥ":5764,"ĠÐ¿Ð¾ÑĢÐ°":5765,"ĠÐ¾ÑģÐ²ÐµÑī":5766,"ĠÐ»Ð°Ð±":5767,"ĠÑĨÐµÐ»Ð¾Ð¼":5768,"ĠÐĽÐ¾Ð½Ð´":5769,"Ð¿Ð»":5770,"ĠÐ·Ð°Ð¿ÑĢÐµÑī":5771,"Ð°ÑĤÐµÐ»ÑĮÐ½Ð¾Ð¹":5772,"ĠÐ¼Ñĥ":5773,"ĠÑĩÐ¸Ð½Ð¾Ð²":5774,"ĠÑĤÑĭÑģ":5775,"ÐµÐºÑĤÐ¾Ð²":5776,"ĠÐ²ÑĭÑĪÐ»Ð¸":5777,"ĠÐ²ÑģÐ¿Ð¾Ð¼Ð½Ð¸Ð»":5778,"ĠÐĲÐ»Ð¸":5779,"ĠÑģÐ²ÑıÐ·ÑĮ":5780,"Ð¾ÑģÑħÐ¾Ð´":5781,"Ð¾Ð²Ð°Ð½Ñĭ":5782,"ĠÑģÑĥÑī":5783,"Ð¿ÑĢÑıÐ¼":5784,"ĠÐ·Ð°Ð²ÐµÐ´":5785,"ĠÑĥÑĤÑĢÐ¾":5786,"ĠÐ·Ð²ÑĥÐº":5787,"Ð±ÐµÑĢÐ³":5788,"ĠÐ²Ð¸Ð´Ð¾Ð¼":5789,"ĠÐ¿Ð¾Ð¶Ð°Ð»ÑĥÐ¹ÑģÑĤÐ°":5790,"ĠÐºÐ¾ÑĢÐ¾Ð»Ñı":5791,"ĠÐ¿Ð¾ÑģÐ²ÑıÑī":5792,"Ð¾Ð²Ð°Ð»Ð¸ÑģÑĮ":5793,"ĠÑĢÐ°ÑģÑģÐ»ÐµÐ´":5794,"ĠÑĤÐ²Ð¾Ñı":5795,"ĠÑįÑĤÐ¸Ð¼Ð¸":5796,"ÐĴÑĭ":5797,"ĠÑģÐ¾Ð±ÑĭÑĤÐ¸Ñı":5798,"ĠÐľÐµÐ´":5799,"ĠÑģÑĤÐ¾Ð»Ð¾Ð¼":5800,"Ð¢ÐĲ":5801,"ĠÑĢÑĥÑģÑģÐºÐ¸Ñħ":5802,"ĠÐ·Ð½Ð°ÑİÑĤ":5803,"ĠÑĥÐ¼Ð¸ÑĢ":5804,"ĠÑĩÐ¸ÑģÐ»Ð¾":5805,"ÑĮÐµÑĢ":5806,"ĠÐĺÐ¸Ñģ":5807,"ĠÐ¼Ð¸Ð»Ð¸":5808,"ĠÐ¼Ð¸ÑģÑĤ":5809,"ĠÐ¿ÑĢÐ¾ÐºÑĥÑĢ":5810,"ĠÐ·Ð°ÑģÐµÐ´":5811,"ĠÐ¿ÑĢÐ¾ÑĪÐ»Ð¾Ð¼":5812,"ĠÐ¼ÑĥÑģ":5813,"ĠÐ´Ð°ÐµÑĤ":5814,"ĠÑĥÑĢÐ¾Ð²Ð½Ðµ":5815,"ĠÐ³Ð°Ð´":5816,"ĠÐ´ÐµÐ»Ñĥ":5817,"ĠÐ»Ð¾Ð¼":5818,"ĠÐ±ÑĢÐ¾Ð²":5819,"Ð¾Ð»ÐµÐ¿":5820,"ĠÐ²Ð¾Ð¹ÑģÐºÐ°":5821,"ĠÐĵÐ°Ð»":5822,"ĠÐºÐ¾Ð½ÑĤÑĢÐ¾Ð»":5823,"Ð¾Ð²Ð°Ð»Ð¾":5824,"Ð¾Ð±Ð½Ð¾":5825,"Ð¾Ð¶Ð°Ð»ÑĥÐ¹":5826,"Ð°Ð²Ð°Ñı":5827,"ÂłÐķÑģÐ»Ð¸":5828,"Ð¸ÑĢÐ¾Ð²Ð°Ð»Ð°":5829,"ĠÑģÐ¸ÑĢ":5830,"ÐµÐ½ÑĮÑİ":5831,"ĠÐ±Ð¾Ð»ÑĮÑĪÐ¸Ð½ÑģÑĤÐ²Ð¾":5832,"ĠÑİÐ¶":5833,"ĠÑģÐ»ÑĥÑĩÐ°Ð¹Ð½Ð¾":5834,"Ð½Ð¸ÑĨÐµÐ¹":5835,"ĠÐ¸Ð½ÑĤÐµÑĢÐµÑģÐ½Ð¾":5836,"Ð½ÑıÐµÑĤ":5837,"ĠÐ½Ð°Ð¿Ð¸ÑģÐ°Ð»":5838,"ĠÐ¿Ð¾Ñį":5839,"ÑĮÑıÐ¼Ð¸":5840,"ĠÐºÐ½Ð¸Ð¶":5841,"ĠÐ³Ð¾Ð½":5842,"ĠÐ²Ð¾Ð·ÑĢÐ°Ð·":5843,"ĠÑĥÐ±Ð¸ÑĤ":5844,"ĠÐ±ÐµÑģÐ¿Ð¾ÐºÐ¾Ð¹":5845,"ĠÐ·Ð°ÑĪ":5846,"ĠÐ´ÐµÐ²Ð¾ÑĩÐºÐ°":5847,"ĠÐĿÐ¸ÐºÐ¾Ð»Ð°":5848,"ĠÐ½Ð°ÑĪÑĥ":5849,"ĠÐ¾ÐºÐ¾Ð½ÑĩÐ°ÑĤÐµÐ»ÑĮÐ½Ð¾":5850,"ĠÐ¿Ð¾ÑĤÐ¾Ð»":5851,"ĠÑģÐ¾Ð¾ÑĤÐ²ÐµÑĤÑģÑĤÐ²ÑĥÑİÑī":5852,"ĠÐĴÐ°ÑĪ":5853,"ĠÐķÐ²ÑĢÐ¾Ð¿Ñĭ":5854,"Ð¸Ð±Ð»Ð¸Ð¾ÑĤ":5855,"ĠÐ½Ð°Ð¿Ð¾Ð¼Ð½":5856,"ĠÐºÐ¾Ð¼Ð¼ÐµÐ½ÑĤ":5857,"ĠÐ²Ð¾ÑģÑĮ":5858,"ĠÐ¾Ð±ÑĬÐµÐºÑĤ":5859,"ĠÑģÑĥÐ¿ÑĢÑĥÐ³":5860,"ĠÐ¢Ð°ÐºÐ¸Ð¼":5861,"ĠÐ¿Ð»Ð°ÑĤÑĮÐµ":5862,"ĠÐ»ÐµÐ·":5863,"ĠÐ·Ð°Ð¼ÐµÑĢ":5864,"ĠÐ²Ð¿ÐµÑĩÐ°ÑĤÐ»ÐµÐ½Ð¸Ðµ":5865,"ĠÐ²ÑĭÑģÑĤÑĢÐµÐ»":5866,"ÑģÐºÐ¾ÑĢÐ±":5867,"ÑĩÐ¾Ð½":5868,"Ð²Ð¾Ðº":5869,"Ð¶Ð°Ð»":5870,"ĠÐ²ÑģÑıÐºÐ¸Ð¹":5871,"ÑģÑİ":5872,"ĠÐĲÐ»ÐµÐºÑģÐµÐ¹":5873,"Ð¸Ð²Ð¸Ð»":5874,"ÐµÐ»ÑĮÐµ":5875,"ĠÐ¿ÑĢÐ¸Ð½ÑĨ":5876,"ĠÐ½ÐµÐ¿Ð¾ÑģÑĢÐµÐ´":5877,"ĠÐ¿ÑĥÐ½ÐºÑĤ":5878,"ĠÐ®ÑĢ":5879,"ĠÐ¿ÑĢÐ¾Ð¸Ð³":5880,"ĠÑĢÐµÐ¶Ð¸Ð¼":5881,"ĠÐ¿ÑĢÐ¾Ð²ÐµÑģÑĤÐ¸":5882,"ĠÐ±ÑĥÐºÐ²Ð°Ð»ÑĮÐ½Ð¾":5883,"ĠÐ·Ð½Ð°Ðº":5884,"ĠÑĢÐµÐ´Ð°Ðº":5885,"Ð¿Ð°ÑĤ":5886,"ĠÐ¿Ð¾ÑĪÐ»Ð°":5887,"ĠÐ´Ð¾Ð¼Ð°ÑĪ":5888,"ĠÐ±ÐµÐ·Ð´":5889,"Ð°Ð½ÐºÐ°":5890,"ĠÐĿÐ°Ð¿ÑĢÐ¸Ð¼ÐµÑĢ":5891,"Ð¾Ð¶Ð¸Ð»":5892,"ĠÐ½Ð¾Ð²ÑĥÑİ":5893,"Ð¸ÑĤÐµÐ»ÑıÐ¼":5894,"ĠÑģÐµÐºÑĥÐ½Ð´Ñĥ":5895,"Ð°Ð½Ð¸ÑıÑħ":5896,"ĠÐ±Ð°Ð½Ð´":5897,"ĠÐºÐ¸Ñģ":5898,"ĠÐ»Ð¸ÑĤÐµÑĢÐ°ÑĤÑĥÑĢ":5899,"ÑĭÐ²Ð°Ð»ÑģÑı":5900,"Ð¾ÑĤÐº":5901,"ĠÑĥÑģÐ»Ð¾Ð²Ð¸Ñı":5902,"ĠÐ²ÐµÐ´Ð¾Ð¼":5903,"ĠÐ¾Ð¿ÐµÑĢÐ°ÑĨÐ¸Ð¸":5904,"ĠÐŀÑģÐ¾Ð±":5905,"ĠÐ·Ð°ÑģÐ»ÑĥÐ¶":5906,"Ð¾ÐºÑģ":5907,"Ð°ÑĢÐ¸Ð¹":5908,"ĠÐŁÐ¾ÑģÑĤ":5909,"Ð¸ÑĢÐ¾Ð²Ð°Ð½Ð¸Ðµ":5910,"ÐĴÐ¾":5911,"ÐµÑĢÑģ":5912,"Ð¾Ð»ÐµÐ½":5913,"ĠÑģÐºÐ¾Ð»ÑĮÐ·":5914,"ĠÐ¼Ð°ÐºÑģÐ¸Ð¼":5915,"Ð°Ð½Ð¸ÑıÐ¼Ð¸":5916,"ĠÐ²Ð·ÑıÐ»Ð°":5917,"Ð°ÑĢÐ¸Ð¸":5918,"ÑĤÐµÐ½Ð°Ð½ÑĤ":5919,"ĠÐ»ÑİÐ±Ð¸ÑĤ":5920,"ĠÐºÐ°Ð´":5921,"ĠÑģÐ»Ð¾Ð¼":5922,"ĠÐ¾ÑĤÑĩÐµÑĤ":5923,"ĠÐ¼Ð°Ð»ÐµÐ½ÑĮÐºÐ¸Ð¹":5924,"ÑĨÐ¸ÑĦ":5925,"ĠÐ¼Ð¸Ð»Ð»Ð¸Ð¾Ð½Ð¾Ð²":5926,"Ð½Ð°Ð¼":5927,"ĠÑĤÐ°ÑĢ":5928,"ĠÐ¾ÑĤÐ½Ð¾ÑģÐ¸ÑĤÐµÐ»ÑĮÐ½Ð¾":5929,"ĠÐ²Ð¾Ð·ÑĮ":5930,"ĠÐºÐ¾ÑĢÐ¾Ð»ÑĮ":5931,"ĠÑĢÐ°Ð¹Ð¾Ð½Ð°":5932,"ÑĭÐ²Ð°ÑıÑģÑĮ":5933,"ĠÐ·Ð°ÐºÑĢÑĭÐ²":5934,"ĠÑģÑĤÐ°ÑĢÑĭÐ¹":5935,"ĠÐ·Ð°ÐºÑĢÐ¸Ñĩ":5936,"Ð¸Ð¾Ð½Ð°":5937,"ĠÑıÐº":5938,"ÂłÐ¿ÑĢ":5939,"ĠÐ²ÐµÐ½":5940,"ĠÐºÐ¸Ð²Ð½ÑĥÐ»Ð°":5941,"22":5942,"ĠÐºÐ¾Ð»ÐµÐ½Ð¸":5943,"ĠÐ·Ð½Ð°Ð¼ÐµÐ½Ð¸ÑĤ":5944,"Ð½Ð¸Ñģ":5945,"Ð¸Ð²ÐµÑĤ":5946,"Ð¸Ð±Ð¸ÑĢ":5947,"ĠÐ¾ÑĤÐ¾Ð·Ð²":5948,"ĠÑĢÐ°Ð¼ÐºÐ°Ñħ":5949,"ĠÐºÐ¾ÑĢÐ¼":5950,"ĠÑģÐ°Ð¿":5951,"Ð½Ð¸ÑĨÐ¸":5952,"Ð¾Ð³ÑĢÐ°Ð¼":5953,"ĠÐ¿Ð¾Ð½Ð°Ð´Ð¾Ð±":5954,"ĠÐ´ÐµÐ»Ð°Ð»":5955,"ÐµÐ²ÐµÐ»":5956,"ÑĪÑĤÐ°Ð±":5957,"ĠÐ¿Ð¾ÐºÐ¾Ð¹":5958,"ĠÐ¿Ð°Ñħ":5959,"Ð°ÑĤÑĭÐ¹":5960,"ĠÐºÐ°Ð½Ð´Ð¸Ð´":5961,"ĠÑįÑĦÑĦÐµÐºÑĤÐ¸Ð²":5962,"ÑĳÐ·":5963,"Ð¸Ð²Ð°ÐµÐ¼":5964,"ĠÑĥÐ¿Ð°Ð»":5965,"Ð¸ÑīÐ°":5966,"ĠÐ²ÑĬ":5967,"Ġ29":5968,"ĠÐ»ÑİÐ±Ð¸Ð»":5969,"ÂłÐľÐ½Ðµ":5970,"ĠÐ·Ð°ÑĤÐ¾":5971,"ĠÐĹÐ½Ð°":5972,"ĠÑģÐ°Ð¼Ð¾ÑģÑĤÐ¾ÑıÑĤÐµÐ»ÑĮ":5973,"ĠÐ¼Ð»ÑĢÐ´":5974,"ĠÑģÐ¾Ð³Ð»Ð°ÑģÐ½Ð¾":5975,"ĠÐºÐ¾ÑĢÑĢ":5976,"ĠÐ²Ð°ÑĪÐµÐ³Ð¾":5977,"ĠÐ¿Ð¾Ð¿ÑĢÐ¾ÑģÐ¸Ð»":5978,"ĠÐ²Ð¾Ð·Ð±ÑĥÐ¶Ð´":5979,"ĠÑĤÑĢÐ°Ð½ÑģÐ¿Ð¾ÑĢÑĤ":5980,"ĠÑģÑĤÐ°ÑĢÐ¸Ðº":5981,"ÐµÐ²Ð¾":5982,"ĠÐ¾ÑĤÐºÐ°Ð·ÑĭÐ²":5983,"Ð½Ð¾Ð³Ð¸Ðµ":5984,"ĠÐ³Ð¾Ð»Ð¾ÑģÐ°":5985,"ĠÐľÐ¾ÑģÐºÐ¾Ð²":5986,"Ð¼Ð¸Ð³":5987,"ĠÐ»ÐµÐ¶Ð°Ð»":5988,"Ð¾ÑĢÑĥÑģ":5989,"ĠÑģÐ¸Ñı":5990,"ĠÐ¼Ð°Ð»ÑĮÑĩÐ¸ÑĪ":5991,"ĠÐĿÐ¸ÐºÐ¾Ð»Ð°Ð¹":5992,"ĠÐ¢ÐµÐ±Ðµ":5993,"ĠÐļÐ°Ð»":5994,"ÑģÑĤÑĢÐµÐ±":5995,"Ð¸Ð¿Ð»Ð¾Ð¼":5996,"ĠÑĤÑĢÐ¾Ð¿":5997,"ĠÑģÑĢÐµÐ´ÑģÑĤÐ²Ð°":5998,"ĠÐ¾ÑĤÐ¾ÑĢ":5999,"ĠÐ¼Ð½ÐµÐ½Ð¸Ðµ":6000,"ÐµÑħÐ°Ð»Ð¸":6001,");":6002,"ÑģÐ¿ÐµÐºÑĤÐ¸Ð²":6003,"ĠÐºÐ¾ÑĢÐ¾Ð±":6004,"ÑĢÐ°ÑĤÐµÐ³":6005,"ĠÐ·ÑĥÐ±Ñĭ":6006,"ÐłÐ°Ð·":6007,"ÑıÐ½ÑĥÐ»Ð°":6008,"ĠÑĥÑģÑĤÑĢÐ°":6009,"Â»?":6010,"Ð¾ÐºÐ¾Ð²":6011,"ĠÐ²Ð¾ÑģÐ¿Ð¾Ð»ÑĮÐ·":6012,"ĠÐĶÐ°Ð½":6013,"ĠÑĢÐ°ÑģÑģÐ¼Ðµ":6014,"Ð¸Ð²Ð°Ð»Ð°ÑģÑĮ":6015,"ĠÐ¿ÑĢÐ°Ð²Ð¸Ð»":6016,"ĠÐĿÐ¸ÐºÑĤÐ¾":6017,"ĠÐ¾ÑĤÑģÑĤÐ°Ð²":6018,"ĠÑģÐ°Ð¼Ð°Ñı":6019,"ĠÐ¼Ð½Ð¾Ð³Ð¾ÑĩÐ¸Ñģ":6020,"ÐµÐ½ÑĮÐºÐ°":6021,"ĠÑĥÐ¼Ðµ":6022,"ĠÐ¾Ð±ÑĬÑıÑģÐ½Ð¸ÑĤÑĮ":6023,"ĠÑģÑĤÐ°Ð´":6024,"Ð»Ð¸ÑĩÐµÑģÐº":6025,"ĠÐ¿ÐµÑĢÐµÐ´Ð°Ñĩ":6026,"ĠÐ¾Ð·Ð½Ð°ÑĩÐ°ÐµÑĤ":6027,"ĠÐ¾ÐºÐµ":6028,"ĠÐ¿Ð¾ÑĢÑıÐ´Ð¾Ðº":6029,"ĠÐ°Ð¼":6030,"ĠÑĤÐ²Ð¾ÐµÐ¹":6031,"ÐµÐ»ÑĮÐ½Ð¾":6032,"Ð³Ð¸Ð¾Ð·":6033,"ĠÐ¾ÑĤÐ¾":6034,"ĠÐ¿ÐµÑĢÐµÑĩ":6035,"ĠÐ¢Ð¾ÑĢ":6036,"Ð¾ÑħÐ¾Ð¶Ðµ":6037,"ĠÐ´ÑĭÑħÐ°Ð½Ð¸Ðµ":6038,".-":6039,"ĠÐ¢ÐµÑĢ":6040,"ĠÐ¿Ð¾ÐºÐ°Ð·Ð°Ð»":6041,"ĠÐ¾Ð±Ð¸ÑĤ":6042,"ĠÑĥÐ»ÑĭÐ±ÐºÐ¾Ð¹":6043,"ÑĥÑģÐ»Ð¾Ð²":6044,"ÑĥÑİÑīÐ¸Ñħ":6045,"ĠÑĤÐ°ÐºÐ¸Ð¼Ð¸":6046,"ĠÐ¿ÐµÑĢÐµÐ´Ð°ÐµÑĤ":6047,"ĠÐ¿Ð°Ð¼ÑıÑĤÑĮ":6048,"ĠÐ´Ð¾ÑģÑĤÐ¾Ð¹":6049,"ĠÐĲÐ¼":6050,"Ð°ÑģÑĮ":6051,"Ð¾Ð³Ð»Ð°ÑģÐ½Ð¾":6052,"Ð¶Ñĥ":6053,"ĠÑĢÐ°Ð·Ð»Ð¸ÑĩÐ½ÑĭÑħ":6054,"ĠÑĤÑĥÐ¿":6055,"Âł-":6056,"Ð³ÐµÑĢ":6057,"ĠÐļÐ°Ð½":6058,"ĠÐ²ÑĤÐ¾ÑĢÐ¾Ð³Ð¾":6059,"ĠÐ¼Ð°ÑĪÐ¸Ð½Ð°":6060,"ÑģÐ»ÑĥÑĪ":6061,"ĠÐ¿Ð¾Ð´Ð´":6062,"ĠÐ¿Ð¾Ð¿ÑĥÐ»ÑıÑĢ":6063,"Ð¼Ð¾Ð¼":6064,"ÂłÂłÂł":6065,"ĠÐ¸Ð½Ð²ÐµÑģÑĤ":6066,"ĠÑĥÑĢÐ¾Ð²Ð½Ñı":6067,"ĠÐ¿ÑĢÐ¾Ð²ÐµÐ»":6068,"Ð¾Ð½Ð°Ñĩ":6069,"ĠÐ¸Ð»":6070,"ĠÐ½Ð°Ð±Ð»Ñİ":6071,"Ð°ÑģÐ¿":6072,"ĠÐºÑĢÐµÐ´":6073,"ĠÐĶÐ°ÑĢ":6074,"Ð»ÑĮÑĦ":6075,"Â°":6076,"ĠÐ¼ÑĥÐ´ÑĢ":6077,"ĠÑģÑĤÐ¾Ð¹":6078,"ÐµÑģÐ¿ÑĥÐ±Ð»Ð¸ÐºÐ¸":6079,"ĠÑĢÐ°Ð·Ð¾Ð±ÑĢ":6080,"Ð¸ÑĤÐµÐ»ÑĮÐ½ÑĥÑİ":6081,"ĠÐ¼Ð¾Ð»Ð¸ÑĤ":6082,"ĠÑĦÐ»":6083,"ĠÑģÐ¿Ð¸Ñģ":6084,"ĠÐºÐ¸ÑĤÐ°Ð¹":6085,"ĠÐļÐ°Ð¿":6086,"ĠÑĪÑĤÑĥÑĢ":6087,"ĠÑģÐ¾Ð±Ð¸ÑĢÐ°Ð»ÑģÑı":6088,"ÐµÑģÐºÐ¾Ð»ÑĮÐºÐ¾":6089,"ĠÐ¿ÑĢÐ¾Ð³Ð¾Ð²Ð¾ÑĢÐ¸Ð»":6090,"ĠÑħÐ²Ð°ÑĤÐ¸ÑĤ":6091,"ĠÐ½ÐµÑĥÐ´Ð°":6092,"ĠÐ¿ÑĢÐ¸ÐºÐ°Ð·Ð°Ð»":6093,"].":6094,"ĠÐ½Ð¾Ð²Ð¾Ðµ":6095,"ÐĿÐĺ":6096,"ĠÐ·Ð°Ð²ÐµÑĢ":6097,"ĠÐ±ÑĢÐ¸Ð³":6098,"ĠÑıÐ·ÑĭÐºÐµ":6099,"ĠÐ²Ð¾ÑģÐ¿Ð¸ÑĤ":6100,"ĠÐ¿Ð»Ð°Ðº":6101,"ĠÐĽÐµÐ²":6102,"ĠÐ²Ð¾ÐµÐ½Ð½ÑĭÑħ":6103,"ĠÐ½Ð°ÑĩÐ¸Ð½Ð°ÐµÑĤ":6104,"ĠÐ¾ÑĤÑĢÑı":6105,"Ð¾Ð»Ð²":6106,"ĠÐ°Ð³ÑĢ":6107,"ĠÐ¼ÐµÑģÑĤÐ°Ñħ":6108,"ÐµÐ¶Ð°Ð»Ð°":6109,"ÐĿÐµÑĤ":6110,"ĠÐ¾Ð±ÑģÑĤÐ°Ð½Ð¾Ð²":6111,"ĠÐ¿Ð¾ÐºÐ°ÑĩÐ°Ð»":6112,"ĠÐ¿Ð¾Ð²ÐµÐ»":6113,"Ð»ÑıÐµÐ¼":6114,"ÑĭÐ²Ð°Ñİ":6115,"ĠÐ¾ÑĤÐ»Ð¸ÑĩÐ¸Ðµ":6116,"ĠÑģÐ¼ÑĥÑĤ":6117,"ĠÑģÐ¼ÑĥÑī":6118,"ĠÐļÑģÑĤÐ°ÑĤÐ¸":6119,"ĠÐ¼Ð°ÑĤÑĩ":6120,"ĠÐĿÐµÐ²":6121,"ĠÑģÐºÐ°Ð¶Ñĥ":6122,"ĠÑģÐ¾Ð¶Ð°Ð»ÐµÐ½Ð¸Ñİ":6123,"ĠÐ·Ð°Ð³Ð°Ð´":6124,"ĠÑĤÑĢÐ¸Ð´ÑĨÐ°ÑĤÑĮ":6125,"ĠÐ¿ÑĢÐ¾Ð·Ð²":6126,"Ð»ÑıÐ»Ð°":6127,"ÑĢÐ°Ð»Ð¸":6128,"ĠÐ¸Ð½ÑģÑĤÑĢÑĥ":6129,"ĠÐºÑĢÐµÐ¿ÐºÐ¾":6130,"ĠÐ±ÑİÐ´Ð¶":6131,"ĠÑħÑĢ":6132,"ĠÑĤÑĢÐµÑĤÐ¸Ð¹":6133,"ĠÑģÐµÑĢÐ´ÑĨÐ°":6134,"ĠÐ·Ð»Ð¾":6135,"Ð°ÐºÐµ":6136,"ĠÐ²ÑĭÑĢÐ¾Ñģ":6137,"ĠÐ½ÐµÑĥÐ´":6138,"ĠÐ¿ÑĢÐµÐ´ÑĥÑģ":6139,"ĠÑĩÐ°ÑĪ":6140,"ĠÐºÑģÑĤÐ°ÑĤÐ¸":6141,"ĠÐ·Ð°ÑĢÐ°Ð±Ð¾ÑĤ":6142,"ĠÐŀÐ½Ð¾":6143,"Ð½Ð¾ÑģÑĤÑıÐ¼Ð¸":6144,"ĠÑģÐµÐ¹":6145,"ĠÑĢÐ°Ð½ÐµÐ½":6146,"ĠÐ½ÐµÐ½Ð°Ð²Ð¸ÑģÑĤ":6147,"ÐµÐ¼Ð°ÑĤ":6148,"ÐŁÐ¾Ð»":6149,"Ð»Ð°Ñħ":6150,"ĠÐ½Ð°Ð¾Ð±Ð¾ÑĢÐ¾ÑĤ":6151,"ĠÐļÐ¾Ð½ÑģÑĤÐ°Ð½ÑĤ":6152,"ĠÐ¾Ð¿ÑĢÐµÐ´ÐµÐ»Ñı":6153,"ĠÐ¿ÑĢÐµÐ¸Ð¼":6154,"ĠÐ¾Ð±Ð»Ð°ÑģÑĤ":6155,"ĠÐ¿Ð¾Ð´Ð²ÐµÑĢÐ³":6156,"ĠÐ¶Ð¸Ð²ÐµÑĤ":6157,"Ð°Ð»ÑĮÐ½Ð¾ÑģÑĤÑĮ":6158,"ĠÐ±Ð¾Ð»ÑĮÑĪÐ¾Ðµ":6159,"ÂłÐ·":6160,"ĠÐ¾ÑĢÐ³":6161,"ĠÐ½Ð°Ð¿ÑĢÐ°Ð²Ð»ÐµÐ½Ð¸Ð¸":6162,"ĠÑĢÐ°Ð½Ð¾":6163,"ĠÑģÑĩÐ¸ÑĤÐ°Ð»":6164,"ĠÐ²Ð·Ð³Ð»ÑıÐ½ÑĥÐ»":6165,"ĠÐ»Ð¾Ð±":6166,"ĠÐ¿Ð¾Ð»ÐµÑĤ":6167,"Ð¸Ð¼ÑĭÐ¹":6168,"ĠÐļÐ¾":6169,"ĠÐ¿ÑĢÐ¾Ð¹ÑĤÐ¸":6170,"ĠÑģÐµÑĢÑĮÐµÐ·Ð½Ð¾":6171,"ĠÑĢÐµÑĩÐ¸":6172,"ĠÐ¿Ð¾Ð»Ð¾Ð¶Ð¸Ð»":6173,"ĠÑĤÐ²Ð¾Ð¸":6174,"ĠÑĤÐµÐ½Ð¸":6175,"ĠÐ¿ÑĢÐ¸Ð²ÑıÐ·":6176,"ĠÐ¾ÑģÑĤÐ°Ð½Ð°Ð²Ð»Ð¸Ð²":6177,"ĠÑħÐ¾ÑĤÑıÑĤ":6178,"ĠÐ¶ÐµÐ»ÑĤ":6179,"ĠÐ¿ÑĢÐ¸Ð³Ð»Ð°Ñģ":6180,"ĠÐ²Ð¾ÑģÐºÐ»Ð¸ÐºÐ½ÑĥÐ»":6181,"ĠÐ¿ÑĢÐµÐ´ÑĥÐ¿ÑĢÐµÐ´":6182,"ĠÐ¿Ð¾ÑįÑĤ":6183,"Ð»ÑıÑİÑĤÑģÑı":6184,"ĠÐļÐ¸ÑĤ":6185,"ÑģÑĤÑĢÐµÑĩÑĥ":6186,"ĠÑģÐ¸ÑģÑĤÐµÐ¼Ð°":6187,"ĠÐ³Ð¸Ð³":6188,"ÐµÑĢÐ±ÑĥÑĢÐ³":6189,"ĠÑģÐ¸Ð³Ð°ÑĢ":6190,"ĠÐ±ÐµÑģÐ¿Ð¾ÐºÐ¾":6191,"ÑģÑĤÐ²ÑĥÑİÑĤ":6192,"ĠÐ¿ÑĢÐ¸Ð²ÐµÐ´":6193,"ĠÑĤÐµÑħÐ½Ð¸ÑĩÐµÑģÐº":6194,"ÐµÐ½ÑĮÑĪ":6195,"ĠÐºÐ½Ð¸Ð³Ñĥ":6196,"ĠÐĳÑĭÐ»Ð¾":6197,"Ð¿Ð¾Ð·":6198,"ĠÐ»Ð¸Ðº":6199,"Ð°ÑħÐ°ÑĢ":6200,"ĠÐ¡Ð»Ð¾Ð²":6201,"ĠÐĽÑĥÑĩ":6202,"ĠÐ±Ð»Ð¸Ð·ÐºÐ¾":6203,"ĠÐ´Ð¾ÑģÑĤÐ¾Ð¸Ð½":6204,"ĠÑģÑĤÑĢÐ°ÑħÐ°":6205,"Ð»ÐµÑĩÑĮ":6206,"ĠÐ´ÑĥÐ¼Ð°ÐµÑĪÑĮ":6207,"ĠÐ»Ð¾ÑĪÐ°Ð´":6208,"ĠÐ¶Ð´Ð°Ð»":6209,"Ð¼Ð¾ÑĤÑĢÐ¸":6210,"ĠÐ³ÐµÑĢÑĨ":6211,"ĠÐ¾ÑģÑĤÐ°Ð²Ð¸ÑĤÑĮ":6212,"ĠÐ¾ÑĩÐµÑĢÐµÐ´Ð½Ð¾Ð¹":6213,"ĠÐĿÐ°Ð²ÐµÑĢÐ½Ð¾Ðµ":6214,"ĠÐ²Ð¾Ð·Ð´ÑĥÑĪ":6215,"Ð½Ð¾Ñİ":6216,"ĠÑĢÐ¾Ð¶":6217,"ĠÑĥÐ»Ð¸ÑĨÑĥ":6218,"ĠÐ¿Ð¾Ð²ÐµÐ·":6219,"Ð¸ÑĤÐµÐ»ÑĮÐ½Ð¾ÑģÑĤÑĮ":6220,"ĠÐ¢Ð°":6221,"ĠÐ¾ÑĤÐ¿ÑĢÐ°Ð²Ð¸Ð»ÑģÑı":6222,"ÐµÐ²Ð½Ð°":6223,"ĠÐ¿ÑĢÐ¾ÑĤÐµÑģÑĤ":6224,"ĠÑĤÐµÐ°ÑĤ":6225,"ĠÐºÐ½ÑıÐ·ÑĮ":6226,"ĠÑĢÐµÐ±ÐµÐ½Ð¾Ðº":6227,"Ð»Ð¾ÑħÐ¾":6228,"ĠÐ¨Ð°ÑĢ":6229,"Ð¾ÑĢÑī":6230,"Ð´Ð°ÑİÑī":6231,"ĠÑģÐºÑĥÑĩ":6232,"Ð»ÐµÐ½Ð½Ð¾Ð³Ð¾":6233,"ĠÐ¾ÑģÑĤÐ°Ð²Ð¸Ð»":6234,"ĠÐºÑĢÐ°Ð¹Ð½Ðµ":6235,"ĠÐļÐ¾ÑģÑĤ":6236,"ĠÐ¿Ð¾Ð´ÑĥÐ¼Ð°ÑĤÑĮ":6237,"Ð¾ÑģÐ»Ð°Ð²":6238,"ÑĥÐ³Ð°":6239,"ĠÐ´Ð°Ð½Ð½ÑĭÐµ":6240,"ĠÐ¼Ð¾Ð¼ÐµÐ½ÑĤÐ°":6241,"Ð°Ð»Ð¸Ð·Ð°ÑĨÐ¸Ð¸":6242,"ĠÐ¾ÑĩÐµÐ²Ð¸Ð´Ð½Ð¾":6243,"ĠÑĢÐµÑģÑĤÐ¾ÑĢ":6244,"ĠÐ¿ÑĢÐ¸Ð¼ÐµÑĢ":6245,"ĠÑģÐ¾ÑĢÐ¾Ðº":6246,"ĠÐĶÑį":6247,"Ð³Ð¸Ð¿":6248,"ĠÐ·Ð°Ð±ÑĭÐ»":6249,"ĠÑįÐºÑģÐ¿ÐµÑĢÐ¸Ð¼":6250,"ĠÑģÐ½Ð°ÑĢ":6251,"Ð¾ÑĢÑıÐ´":6252,"Ð½Ð¸Ð¼Ð¸":6253,"ĠÑĤÐµÐ¼Ð¿ÐµÑĢ":6254,"ĠÐ³Ð¾Ð´Ð°Ñħ":6255,"Ð¾Ð²Ð°Ð½Ð¸Ñİ":6256,"ĠÐ¼Ð¸ÑģÑģÐ¸Ñģ":6257,"ĠÐ¿Ð»Ð¾ÑīÐ°Ð´Ð¸":6258,"ĠÑģÑĤÐ°ÑĢÐ°ÑıÑģÑĮ":6259,"ĠÐ¿ÑĢÐ°Ð²Ð¸Ð»Ð¾":6260,"Ð»ÐµÐ½Ð½ÑĭÐ¼":6261,"Ð¸ÑĤÐ¸":6262,"23":6263,"ĠÑģÐ¼ÐµÐ½":6264,"ĠÐ´ÐµÐ»Ð¾Ð¼":6265,"Ð¢Ñĭ":6266,"ĠÐ¿Ð¾Ð¼ÐµÑĪ":6267,"ĠÑĥÑĢÐ¾Ð²ÐµÐ½ÑĮ":6268,"ÐľÐ°ÑĢ":6269,"Ð½Ð°ÑĤÑĮ":6270,"ĠÐºÑĢÐ¸ÐºÐ½ÑĥÐ»":6271,"ÑĢÑĭÐ»":6272,"ÐµÑģÐ»Ð¸":6273,"ĠÐŁÐ¾Ðº":6274,"Ð¸Ð½ÑĥÑĤÑĮ":6275,"40":6276,"ĠÐ·Ð°Ð³Ð»Ñı":6277,"ĠÐ¾ÑģÑĤÐ°ÑĤÑĮÑģÑı":6278,"ĠÐĿÐµÐºÐ¾ÑĤÐ¾ÑĢ":6279,"ĠÐ³Ð¾ÑĤÐ¾Ð²Ñĭ":6280,"ĠÐ¾ÑĤÐ½Ð¾ÑĪÐµÐ½Ð¸Ðµ":6281,"ĠÐ´Ð¸Ð¿Ð»Ð¾Ð¼":6282,"ĠÑĢÐ°ÑģÐ¿Ð°Ñħ":6283,"ĠÑģÐµÐ»Ð°":6284,"ĠÐ¿Ð¾Ð¿Ð°Ð»":6285,"Ð°ÑĤÐ°ÑĢ":6286,"ĠÐ¿ÑĢÐ¾ÑĤÑıÐ¶":6287,"Ð¾Ð²Ð¾Ð¼":6288,"ĠÐºÐ¾Ð»Ð¾Ð½":6289,"Ð¾ÑĩÐ½ÑĭÐ¹":6290,"ĠÐ½ÐµÐ²Ð¸Ð´":6291,"ĠÐ¿Ð¾ÑıÐ²Ð¸Ð»Ð¸ÑģÑĮ":6292,"ĠÐ¸Ð½Ð¸ÑĨÐ¸":6293,"ĠÐĲÐ»ÐµÐºÑģÐ°Ð½Ð´ÑĢÐ°":6294,"ÑĥÐ½Ð°":6295,"ÐºÐ¾ÑĤ":6296,"ĠÐ¿Ð¾Ð»Ð¾Ñģ":6297,"ĠÐ¿Ð¾Ð´ÐµÐ»":6298,"Ð°ÑĤÐ¾Ñĩ":6299,"ĠÐ´Ð°Ð»ÐµÐµ":6300,"ĠÐľÐ¾Ð½":6301,"ĠÑĦÐµÐ´":6302,"ÑģÐ¾ÑĤ":6303,"ÑĮÐµÑĤ":6304,"ĠÐ¿ÑĢÐ¾ÑĤÐ¸Ð²Ð¾Ð¿Ð¾Ð»Ð¾Ð¶":6305,"ĠÐ½ÐµÐ±ÐµÑģ":6306,"ĠÐ²Ð¾Ð¹Ð½Ðµ":6307,"ÐµÐ²Ð°Ð»":6308,"ĠÐ·Ð°Ð¼ÐµÑģÑĤ":6309,"ĠÐ¡Ð²ÑıÑĤ":6310,"ÑģÐºÐ¾ÑĢÐµ":6311,"ĠÐ¼Ð¾ÐµÐ¼":6312,"ÐµÐºÑĤÐ¾ÑĢÐ°":6313,"ĠÐ²Ð·ÑıÑĤ":6314,"ÐµÐ²Ð¸Ð·":6315,"ĠÐ°Ð²ÑĤÐ¾Ð±":6316,"ĠÐ½Ð°ÑĩÐ°ÑĤÑĮ":6317,"ĠÐ²Ð¾Ð·Ð´ÐµÐ¹ÑģÑĤÐ²":6318,"ĠÐ¸Ð¼ÐµÑİ":6319,"Ð¸ÑĤÐ¾Ð¼":6320,"ĠÐ¸Ð¼ÐµÐ»Ð¸":6321,"Ð½Ð¾Ð·":6322,"ĠÑĢÐ°ÑģÑģÐºÐ°Ð·Ð°ÑĤÑĮ":6323,"ĠÐĹÐ°Ð¿Ð°Ð´":6324,"ĠÑģÑĤÑĢÑĥ":6325,"ĠÑĪÐ¸ÑĢÐ¾ÐºÐ¾":6326,"Ð°Ð»ÑĮÑıÐ½":6327,"Ð²ÑĭÑĩ":6328,"ĠÐ³Ð¾ÑĢÑĭ":6329,"ĠÑģÐ½Ð¸Ð¶":6330,"ĠÐ³ÐµÐ½":6331,"ĠÐ¾Ð±ÑĢÐ°ÑĤÐ¸Ð»ÑģÑı":6332,"ÑıÑĢ":6333,"ĠÑģÐ¾ÑģÑĤÐ°Ð²Ð»ÑıÐµÑĤ":6334,"ĠÐľÐ¸Ð»":6335,"ĠÐ³Ð»Ð°Ð²Ðµ":6336,"ÐµÐ½Ð¸ÑĢÐ¾Ð²":6337,"ĠÐ°ÐºÐ°Ð´ÐµÐ¼":6338,"Ð¸ÑĩÐ½ÑĭÐ¹":6339,"ĠÑģÐ»ÐµÐ´Ð¾Ð²Ð°Ð»Ð¾":6340,"ĠÑĢÐ¾Ñģ":6341,"Ð¼ÑĥÑī":6342,"ÑĢÐ°Ð»Ð°":6343,"ĠÐ±ÑĥÐ¼Ð°Ð³Ð¸":6344,"ÑĨÐµÐ»Ð¾Ð²":6345,"ĠÐ¡Ð¸Ð½":6346,"ĠÐ³Ð»Ð°Ð²Ð½ÑĭÐ¹":6347,"ĠÐ¾Ð±Ð¼":6348,"ĠÐ±ÑĥÐ´ÐµÑĤÐµ":6349,"ĠÑģÑĤÑĢÐ°ÑĤÐµÐ³":6350,"ĠÐ³Ð»ÑĥÑħ":6351,"ĠÐµÑİ":6352,"ĠÐĺÑģ":6353,"ĠÐĿÐĲ":6354,"ĠÐ»ÐµÑģÑĤÐ½Ð¸ÑĨÐµ":6355,"ĠÐ±Ð¸Ð±Ð»Ð¸Ð¾ÑĤ":6356,"ĠÐ½Ð¾Ð³Ñĥ":6357,"ĠÐ¸ÑĤÐ¾Ð³Ðµ":6358,"ÑĥÐ¶Ð½Ð¾":6359,"ĠÐ¤ÑĢ":6360,"ĠÐĴÑĭÑģ":6361,"ĠÑģÐ»ÐµÐ·Ñĭ":6362,"ĠÑģÐ¿Ð°Ð»ÑĮ":6363,"Ð½Ð°Ð·Ð½Ð°Ñĩ":6364,"ÐºÐ°ÑĤÐµÑĢ":6365,"ÂłÐ±":6366,"ĠÐ¿ÑĢÐµÐ¼ÑĮ":6367,"ĠÐ¾ÑĤÐ²ÐµÑĤÐ°":6368,"ĠÐ·Ð°Ð¼ÑĥÐ¶":6369,"ĠÐ·Ð´ÑĢÐ°Ð²":6370,"Ð½ÐµÐ¿":6371,"ĠÑĢÐ°ÑģÑģÐ»":6372,"ĠÐ´Ð°Ð»Ð¸":6373,"ĠÐ½Ð°ÑĪÐµÐ¼":6374,"ĠÐ´Ð½ÐµÐ¼":6375,"Ð²Ð°Ð»Ð¸":6376,"ĠÐ²Ð°ÑĪÐ°":6377,"ĠÐ²Ð·Ð´ÑĢ":6378,"ĠÐ²Ð°ÑĢÐ¸Ð°Ð½ÑĤ":6379,"ÑĥÐ´Ð¸":6380,"ĠÐ¾ÑģÐº":6381,"ĠÑģÑĥÑĢ":6382,"ĠÐºÑĥÐ»ÑĮÑĤÑĥÑĢ":6383,"ĠÐ·Ð½Ð°ÐµÐ¼":6384,"ĠÐĲÐ»ÐµÐºÑģÐµ":6385,"ĠÑĤÑĢÐ°Ð³":6386,"ĠÑĤÑĢÑĥÐ±ÐºÑĥ":6387,"ĠĠĠĠĠĠĠĠ":6388,"ĠÐłÐĺÐĲ":6389,"ĠÐ²Ð¾Ð¸Ð½":6390,"ĠÐ±ÑĢÐ¾Ð½":6391,"ĠÐ¿Ð¸ÑģÑĤÐ¾Ð»ÐµÑĤ":6392,"ĠÐºÑĢÐ°ÑĤ":6393,"Ð²ÑĤÐ¾ÑĢ":6394,"Ð°ÑĨ":6395,"ÐµÑģÑģÐµ":6396,"ĠÐ¿ÑĢÐµÐ²Ð¾ÑģÑħÐ¾Ð´":6397,"ĠÐ²Ð´Ð¾Ñħ":6398,"Ð°Ð¼ÐµÐ½ÑĤ":6399,"ĠÐ½ÐµÐ¾Ð±ÑħÐ¾Ð´Ð¸Ð¼Ð¾ÑģÑĤÐ¸":6400,"ĠÐ¿Ð¾ÐºÑĢÑĭÑĤ":6401,"ĠÐ½Ð°Ð¿Ð¾Ð»Ð½":6402,"ĠÐ´Ð¾ÐºÐ»Ð°Ð´":6403,"ĠÑĥÐ»Ð¸ÑĨÑĭ":6404,"Ð¾ÐºÑĥ":6405,"ĠÑģÐ²ÑıÑīÐµÐ½":6406,"Ð½ÑıÑĤÑĮ":6407,"Ð¸Ð½ÑĥÐ»Ð°":6408,"Ð¸ÑĤÐ¾":6409,"ĠÑģÐµÐ¼ÑĮÐµ":6410,"ĠÐ¶ÐµÑģÑĤÐ¾Ðº":6411,"ĠÐ¼Ð°ÑģÐº":6412,"Ð°Ð¹Ð½Ð¾":6413,"ĠÐ¿ÑĢÐ°Ð²Ð¸ÑĤÐµÐ»ÑĮÑģÑĤÐ²Ð¾":6414,"Ð¸Ð²ÑĪÐ¸Ð¹ÑģÑı":6415,"ĠÑĨÐ¸ÑĦ":6416,"ĠÐ¿ÑĢÐ¸Ð¾Ð±ÑĢÐµÑĤ":6417,"ĠÑĢÑĥÐ±Ð°ÑĪ":6418,"ĠÑĢÐ¾Ð¶Ð´ÐµÐ½Ð¸Ñı":6419,"ĠÐ¾ÑħÐ²Ð°ÑĤ":6420,"ĠÐ¾ÑĤÐ²ÐµÑĤÐ¸ÑĤÑĮ":6421,"ĠÐ¿ÑĢÐµÐ´ÑģÑĤÐ°Ð²Ð¸ÑĤÐµÐ»ÑĮ":6422,"ĠÐ¶Ð´ÐµÑĤ":6423,"ĠÐłÐ¾ÑģÑģÐ¸Ñİ":6424,"ĠÑĪÐ°Ñħ":6425,"ĠÐºÑĥÐ»ÑĮÑĤÑĥÑĢÑĭ":6426,"ĠÐ¥Ð¾Ð»":6427,"ĠÑĨÐµÐ»ÑĭÐ¹":6428,"Ð¸Ð´ÐµÑģÑı":6429,"ĠÐ·Ð¾Ð»":6430,"ÑīÐ¸ÐºÐ¸":6431,"ĠÐ²Ð¾Ð¿ÑĢÐ¾ÑģÐ¾Ð²":6432,"ĠÐºÐ°Ð¼ÐµÐ½ÑĮ":6433,"ĠÐºÐ°ÑĤÐµÐ³Ð¾ÑĢ":6434,"ĠÐĺÐ³Ð¾ÑĢÑĮ":6435,"ĠÐ¾ÑģÑĤÐ°Ð»ÑĮÐ½ÑĭÑħ":6436,"ĠÑĪÐ»Ñı":6437,"ĠÐ¿ÑĢÐµÐ´Ð»Ð¾Ð¶ÐµÐ½Ð¸Ðµ":6438,"ĠÐ¾ÑĢÑĥÐ´":6439,"ĠÐ¼ÐµÐ¶":6440,"ĠÐ¿ÐµÑĢÐ²Ð¾Ðµ":6441,"Ð¾Ð²Ñĥ":6442,"Ð°Ð²ÑĪÐµÐ¹":6443,"ĠÐľÐ¸ÑĪ":6444,"ÑĢÐ¸Ñģ":6445,"ĠÐĺÐ½Ð´":6446,"ĠÐ·Ð°Ð¿ÑĢÐµÑĤ":6447,"ĠÐ´Ð¾ÑĢÐ¾Ð³Ð¾Ð¹":6448,"ÐµÐ½ÑĮÐºÐ¾":6449,"ĠÑįÐ¿Ð¾Ñħ":6450,"ĠÐ¿ÑĢÐ¸Ð²ÐµÐ·":6451,"ĠÑĪÐºÐ¾Ð»ÑĮ":6452,"ĠÐ¼Ð¾Ð±":6453,"Ð±ÐµÐ¶":6454,"ĠÐ»ÐµÐ³ÑĩÐµ":6455,"ĠÑĩÐ°ÑģÑĤÑĮÑİ":6456,"ĠÑģÐ¾Ð±ÐµÑģÐµÐ´":6457,"ĠÑģÐ¼Ð¾ÑĤ":6458,"ĠÐ¿Ð¾Ð¹ÑĤÐ¸":6459,"ĠÐ¾ÑģÐºÐ¾ÑĢÐ±":6460,"ĠÐ²Ð¾Ð¹Ð½Ñĥ":6461,"Ð°Ð²Ð¸Ð»":6462,"ĠÐ¿ÐµÑĢÑģÐ¿ÐµÐºÑĤÐ¸Ð²":6463,"ĠÐ¾ÑģÐ½Ð¾Ð²Ðµ":6464,"ĠÐ¾Ð±Ð¾ÑĢÑĥÐ´":6465,"Ð¸Ð¼ÑĭÐ¼":6466,"ĠÐ¿ÑĢÐ¾Ð²Ð¸Ð½":6467,"ĠÐ´ÐµÑĢ":6468,"ĠÑģÑĤÐ°Ð½ÑĨÐ¸Ð¸":6469,"ĠÐ¶Ð¸Ð·Ð½ÑĮÑİ":6470,"Ð¸Ð¹ÑģÐºÐ¸Ð¹":6471,"ĠÐ¿ÑģÐ¸ÑħÐ¾Ð»Ð¾Ð³":6472,"ĠÐ²Ð½Ðµ":6473,"Ġ190":6474,"Ð°Ð»Ðº":6475,"ÑĭÐ´ÑĥÑī":6476,"ĠÐ¸Ð»Ð»Ñİ":6477,"ĠÑĢÐ°Ð·ÑĥÐ¼ÐµÐµÑĤÑģÑı":6478,"ÑĥÑİÑīÐ¸Ðµ":6479,"ÑĪÐ¸Ð½":6480,"ÑĢÑĭÐ·":6481,"Ð¾ÑĩÐºÐµ":6482,"Ð²Ð¾Ðµ":6483,"ĠÐ¿ÑĢÐ¸Ð½ÑıÐ»ÑģÑı":6484,"ÐµÐ¼Ð¾Ð½":6485,"Ð²Ð°Ñĩ":6486,"ĠÐ¸Ð½Ð´Ð¸Ð²":6487,"Ð»Ð°Ðº":6488,"ĠÐ¿ÑĢÐ°Ð²Ð´Ñĥ":6489,"Ð¸Ð½Ð³ÑĢ":6490,"ĠÐ¿ÑĢÐµÑĢÐ²":6491,"ĠÐ¾ÑĤÑĢÑĭÐ²":6492,"ĠÐŁÐ¾Ñĩ":6493,"ĠÐ³Ð»Ð¾ÑĤ":6494,"ĠÑģÑĤÐ¾Ð»Ðµ":6495,"Ð¾Ð»ÑĩÐ°Ð»":6496,"ĠÐ³ÑĢÐ°Ð¼":6497,"ĠÐ´ÑĥÐ±":6498,"Ð°ÑİÑīÐ¸Ð¼Ð¸":6499,"....":6500,"ĠÑģÐ¾Ð¿ÑĢÐ¾Ð²Ð¾Ð¶Ð´":6501,"ĠÐ¿Ð¾Ð¶ÐµÐ»":6502,"ĠÐ¿Ð°Ð»ÑĮÑĨÐ°Ð¼Ð¸":6503,"Ð°Ð½Ñı":6504,"ĠÐ¿Ð°Ð»ÑĮÑĨÐµÐ¼":6505,"Ġ%":6506,"ĠÑĢÐµÐ»Ð¸Ð³Ð¸Ð¾Ð·":6507,"ÐµÐ½Ð¾Ð¼":6508,"ĠÑģÐ²Ð°Ð»":6509,"ĠÐ´Ð¾ÑģÑĤÐ¸Ð¶":6510,"ĠÐ½Ð°Ð²ÑģÐµÐ³Ð´Ð°":6511,"ĠÑģÐºÑĢÐ¾Ð¼":6512,"ĠÑįÐ½ÐµÑĢÐ³Ð¸Ð¸":6513,"Ð°ÑĤÐµÐ»ÑĮÐ½ÑĭÑħ":6514,"ĠÐºÑĥÐ±":6515,"Ð¸ÑģÐºÐ¾Ð¿":6516,"ĠÐ¿Ð¾Ð»Ð½Ð¾":6517,"ĠÐ¿Ð°ÑĢÐ»Ð°Ð¼":6518,"200":6519,"ÑĥÐ·Ñĭ":6520,"ÐµÐ·Ð´Ñĭ":6521,"ĠÑĦÑĢÐ°Ð·":6522,"ĠÐ³Ð»Ð°Ð´":6523,"ĠÐ¿ÑĢÐ¾Ð¸Ð·Ð½ÐµÑģÐ»Ð°":6524,"ĠÑģÐ¸Ð´ÐµÐ»Ð¸":6525,"ĠÑĥÑĩÐ¸ÑĤ":6526,"ÑĢÐ°ÑĤÐ¸Ð²":6527,"ĠÐ±ÑĢÐ¸ÑĤÐ°Ð½":6528,"ĠÑĢÐµÐ´ÐºÐ¾":6529,"ĠÐ£Ñĩ":6530,"Ð°ÑĤÐµÐ»ÑĮÐ½Ð¾Ð³Ð¾":6531,"ĠÐ¡Ð¸Ð¼":6532,"ĠÐ®Ð¶":6533,"Ð°Ð½ÑĩÐ¸Ð²":6534,"ĠÐ·Ð½Ð°Ñı":6535,"Ð»Ð¾Ð´":6536,"Ð°Ð²Ð°":6537,"ĠÐ¾Ð±ÐµÐ·":6538,"ĠÐĲÐ³":6539,"ĠÐ¡Ð½Ð°ÑĩÐ°Ð»Ð°":6540,"ĠÐ»ÐµÑģÑĥ":6541,"ĠÐ»Ð°Ð´Ð½Ð¾":6542,"Ð¾Ð³Ð¾Ð²":6543,"ĠÑģÐ¾Ð»Ð½ÐµÑĩ":6544,"ĠÐ¿Ð¾Ð¾Ð±":6545,"ĠÑĩÑĥÐ´Ð¾Ð²":6546,"ĠÑģÐ¾Ð·Ð½Ð°Ð½Ð¸Ðµ":6547,"ĠÑģÐµÐ³Ð¾Ð´Ð½ÑıÑĪ":6548,"ĠÐĴÐ°ÑģÐ¸Ð»ÑĮ":6549,"ĠÐ¸Ð½Ð¶":6550,"ÑĨÐµÐ½Ð¸Ð²":6551,"ĠÑįÐºÑģÐ¿ÐµÑĢÑĤ":6552,"ĠÐ¾ÑģÐ¾Ð±Ð¾":6553,"ÑģÑĤÑĢÐ°":6554,"ĠÐºÐ¾Ð½ÑĨ":6555,"ĠÐ²Ð»ÑİÐ±":6556,"ĠÐ¿Ð¾Ð´Ð±Ð¾ÑĢ":6557,"ĠÑģÐ»ÑĥÑĩÐ°ÑıÑħ":6558,"ĠÐ¿Ð¾Ð½Ð¸Ð¼Ð°ÐµÑĪÑĮ":6559,"ĠÐľÐ°ÐºÑģ":6560,"ĠÐºÐ°Ð±Ð¸Ð½ÐµÑĤ":6561,"ĠÐ½Ð°ÑģÑĤÐ¾ÑıÑīÐ¸Ð¹":6562,"Ð¾ÑĩÐ½ÑĭÑħ":6563,"ĠÐ´Ð¾Ð¼Ñĥ":6564,"ĠÐ³Ð»Ð°Ð²Ð½ÑĭÐ¼":6565,"ĠÐ²ÑĭÑĢÐ°Ð¶ÐµÐ½Ð¸Ðµ":6566,"ĠÐ¾Ð±ÑĬÐµÐ¼":6567,"ĠÐ¼Ð¾ÐµÐ¼Ñĥ":6568,"ĠÑĥÐ¿Ð¾ÑĤÑĢÐµÐ±":6569,"ĠÐ´ÐµÐ²ÑĥÑĪÐºÑĥ":6570,"ĠÑģÑĤÐ²Ð¾Ð»":6571,"ĠÑģÐ¸ÑĤÑĥÐ°ÑĨÐ¸Ñİ":6572,"ÑĮÑģÑı":6573,"ĠÐ¾ÑĤÐ¿ÑĥÑģÐº":6574,"ĠÑįÑģÐº":6575,"Ð°ÑģÑĤÑĢÐ¾ÑĦ":6576,"ĠÑįÐºÐ·":6577,"ĠÑĦÐ¸Ð³ÑĥÑĢ":6578,"ĠÑĪÐºÐ¾Ð»Ðµ":6579,"ĠÐ¾ÑĦ":6580,"ĠÐļÑį":6581,"ĠÐľÐ¸ÑħÐ°Ð¸Ð»":6582,"ĠÐ²ÑģÑıÐºÐ¾Ð¼":6583,"ĠÐ¿ÑĢÐ¸Ð¿Ð¾Ð´":6584,"ĠÐ¼Ð°ÑĪÐ¸Ð½Ðµ":6585,"Ð¸Ð»Ð¸Ð¸":6586,"ĠÑĥÐ¹":6587,"ĠÑģÐ²ÐµÑĢÑħÑĥ":6588,"ĠÐ²ÐµÑĩÐµÑĢÐ°":6589,"ĠÐ·Ð°Ð½Ð¸Ð¼Ð°ÑĤÑĮÑģÑı":6590,"ĠÑģÐ¾Ð¾Ð±ÑīÐ¸Ð»Ð¸":6591,"ĠÐ¿Ð¾Ð·Ð¸ÑĨÐ¸Ð¸":6592,"ĠÐľÐ¾ÑģÐºÐ²Ñĥ":6593,"ÐºÐ¾Ð¼Ñĥ":6594,"ĠÑģÐ½Ð¸Ð·":6595,"ĠÐ¿ÑĢÐµÐ¼":6596,"ĠÐ²Ð·Ð´Ð¾ÑħÐ½ÑĥÐ»Ð°":6597,"ĠÑģÑĤÑĢÐ¾Ð¹":6598,"ĠÐ¿Ð¾ÐºÐ°Ð·Ð°ÑĤÑĮ":6599,"ÐłÐĲ":6600,"ÑĳÐ²":6601,"ĠÑĢÐ°Ð·ÑĬ":6602,"ĠÐ¡ÑĤÐµÐ¿":6603,"ÑıÑīÐµÐ¹":6604,"Ð¸Ð¼Ð¾Ðµ":6605,"ÐļÐ¾ÑĢ":6606,"Ð°Ð¼Ð±":6607,"ĠÑĤÐµÐ¼Ñĥ":6608,"ĠÐ½Ð°Ð²ÑģÑĤÑĢÐµÑĩÑĥ":6609,"ÐµÐ´Ð¶":6610,"Ð¾ÑĤÐ¾Ð¹":6611,"ÐµÑĤÑĮÑģÑı":6612,"ĠÐ¾ÑģÑĤÐ°Ð»Ð°ÑģÑĮ":6613,"ĠÐ²ÑģÐ¿ÑĭÑħ":6614,"Ð¿ÐµÑĢÐ²ÑĭÑħ":6615,"ĠÐ¿Ð»Ð°Ð¼":6616,"ĠÐ¾Ð³Ð½Ñı":6617,"--":6618,"ĠÐĵÐµ":6619,"ĠÐĳÐ¾ÑĢÐ¸Ñģ":6620,"ĠÐ»Ð¸ÑĨÑĥ":6621,"Ð¾Ð¼Ð½Ð¸Ð¼":6622,"ĠÑģÐ°Ð½Ðº":6623,"ÑĨÐ¸Ð¾Ð½Ð½Ð¾Ð¹":6624,"ĠÐ³ÑĢÑĥÑģÑĤ":6625,"Ð¾Ð³ÑĢÐ°Ð´":6626,"ĠÐ¶ÐµÐ½ÑīÐ¸Ð½Ñĥ":6627,"ĠÐ¶ÐµÐ½Ñĭ":6628,"26":6629,"ĠÑĥÐ´Ð¸Ð²Ð¸Ð»ÑģÑı":6630,"ĠÐ¿Ð¾Ð»ÑĥÑĩÐ¸Ð»Ð¾ÑģÑĮ":6631,"Ð¾Ð»ÑİÐ±":6632,"Ð¸Ð²ÑĪÐ°Ñı":6633,"ÐµÐ²ÑĭÑħ":6634,"ÐºÐ°ÑĦ":6635,"ÑĥÑĤÐ°":6636,"ĠÐ¿ÑĢÐµÐ´Ð½Ð°Ð·Ð½Ð°Ñĩ":6637,"ĠÐ¼Ð¾Ð½Ð°ÑģÑĤÑĭ":6638,"ĠÐ²ÐµÑīÐµ":6639,"ĠÑĪÐµÑİ":6640,"ĠÐ±Ð°Ð½Ðº":6641,"ĠÐ²Ð¾Ð´Ðµ":6642,"Ð¾ÑĢÐµÑĩ":6643,"Ð¼ÐµÑĢÑĤ":6644,"ĠÐ²Ð¸Ð´Ð¸ÑĤ":6645,"ĠÐºÑĢÐ¸Ð·":6646,"ĠÐ¾Ð´Ð½Ð¸":6647,"ĠÐ¼Ð¾Ð»ÑĩÐ°Ð»":6648,"ÑīÐ°":6649,"ĠÐ»ÐµÐ´Ð¸":6650,"Ð²ÑĥÑĩ":6651,"ĠÐ²Ð¾Ð·Ð½Ð¸ÐºÐ°":6652,"ĠÐ¿ÑĢÐ¾ÑĪÐ»Ð¾Ð³Ð¾":6653,"ÑĭÐ²Ð°Ð»Ð¸ÑģÑĮ":6654,"ĠÐ²ÐµÐ»Ð¸ÐºÐ¾Ð»ÐµÐ¿":6655,"ĠÐ¿ÑĢÐµÐ¸Ð¼ÑĥÑīÐµ":6656,"ÑĬÑıÐ²":6657,"ĠÑĩÐ¸ÑĤÐ°ÑĤÑĮ":6658,"Ð²Ð°ÑĤÑĮ":6659,"Ð¾Ð´ÐµÐ¹ÑģÑĤÐ²":6660,"ÑģÑĤÑģÑı":6661,"Ð¾Ð´Ð¾Ð»":6662,"Ð°Ð»ÑĤ":6663,"ĠÐļÑĥÐ±":6664,"Ð¾ÑĪÑĥ":6665,"ĠÐĶÑĥÐ¼Ð°Ñİ":6666,"ĠÑģÐ¸Ð´ÐµÐ»Ð°":6667,"ĠÐ´Ð²Ð¾ÑĢÐµ":6668,"ĠÑĦÐ¾ÑĢÐ¼Ñĭ":6669,"ĠÐ»ÑİÐ±Ð¾Ð¼":6670,"Ð·Ð¸":6671,"ĠÑĩÐµÑģÑĤÐ½Ð¾":6672,"Ð°Ð²ÑĪÐ¸Ð¹ÑģÑı":6673,"ĠÐ±ÑĢÐ¾Ð´":6674,"ĠÐĽÑİÐ´Ð¸":6675,"ĠÐ¿Ð¾Ð´Ð¶":6676,"ĠÑħÐ¾Ð·ÑıÐ¸Ð½":6677,"ĠÐĽÐ°Ð²":6678,"ĠÐ¼Ð¾Ðº":6679,"ĠÑģÐ¼Ð¾ÑĤÑĢÐ¸ÑĤ":6680,"ĠÐ¿Ð¾ÐºÐ¾ÑĢ":6681,"ĠÐŃÐº":6682,"ĠÐ¸ÑģÐ¿ÑĢÐ°Ð²":6683,"27":6684,"ÑĥÐ²ÐµÑĢ":6685,"ĠÐ¼Ð¸ÑĢÐ¾Ð²Ð¾Ð¹":6686,"Ð°ÑĤÐµÐ»ÑĮÐ½ÑĭÐµ":6687,"ĠÐ¾ÑĤÑĩÐ°ÑıÐ½":6688,"ĠÐ²Ð¸Ð½Ð°":6689,"ĠÑĤÑĮ":6690,"21":6691,"Ð°Ð½ÑģÐºÐ¾Ð¹":6692,"ÑĭÑĪÐµ":6693,"ÑģÑĤÐ²ÐµÐ½Ð½ÑĥÑİ":6694,"Ð±Ð¾Ð¼":6695,"ĠÐ¿Ð¾ÑģÐ¿ÐµÑĪ":6696,"ÐµÐ¸":6697,"ĠÐ¿ÐµÑī":6698,"ĠÐ´ÑĢÑĥÐ³Ð°Ñı":6699,"Ð°ÑİÑīÐµÐµ":6700,"ĠÐĶÐ¾Ðº":6701,"ĠÑĢÐµÐºÐ»Ð°Ð¼":6702,"ĠÐ²Ð¾ÐµÐ½Ð½Ð¾":6703,"ĠÐ§Ð°ÑĢ":6704,"ĠÐ°Ð²ÑĤÐ¾Ð¼Ð¾Ð±Ð¸Ð»ÑĮ":6705,"ÑģÑĤÐ²Ð°Ð¼Ð¸":6706,"ĠÑģÐ¾ÑĤÐ½Ð¸":6707,"Ð½Ð°Ð¼Ð¸":6708,"ĠÐ½Ð°ÑĢÑĥÐ¶":6709,"ĠÐºÑĥÐ·":6710,"Ð½Ð¸ÑĪÑĮ":6711,"ĠÐ¿Ð¸ÑģÑĮÐ¼Ð°":6712,"ĠÑĩÐ»ÐµÐ½Ð¾Ð²":6713,"ĠÑĥÑī":6714,"ĠÐºÐ¾Ð²":6715,"Ð¾ÑĢÐ¸":6716,"Ð°Ð³Ð°":6717,"ĠÐ¿ÑĢÐ¾ÑĨÐµÐ´":6718,"ĠÑıÐ·ÑĭÐºÐ°":6719,"ĠÐĽÐ°Ð´Ð½Ð¾":6720,"ĠÐ¾ÑīÑĥÑīÐµÐ½Ð¸Ðµ":6721,"ĠÐ¿ÐµÐ½Ñģ":6722,"ĠÐ¿Ð¾Ð»ÑĮ":6723,"ĠÑĢÐµÐºÐ¾Ð¼":6724,"ĠÐ»ÐµÑģÐ°":6725,"ĠÐ¼ÐµÑĢÐ¾Ð¿ÑĢÐ¸ÑıÑĤ":6726,"Ð±Ð°Ñģ":6727,"ĠÐ»Ð¾Ð¿":6728,"ĠÑģÑĤÑĢÐ¾Ð³Ð¾":6729,"ĠÐ·Ð¾Ð²ÑĥÑĤ":6730,"ĠÐłÐ¸Ð¼":6731,"ĠÐ»ÐµÐ¶Ð¸ÑĤ":6732,"ĠÐ¿Ð¾ÑģÐ»ÐµÐ´Ð½Ð¸Ñħ":6733,"ĠÐ²Ð¾Ð·Ð³Ð»Ð°Ð²":6734,"Ð¸Ð»Ð¸Ð¹":6735,"Ð°Ð²Ð°Ð»Ð¸":6736,"Ð²ÑĮÑİ":6737,"ĠÐľÐ¾Ð¹":6738,"ĠÐ½Ð°Ð³ÑĢÐ°Ð´":6739,"Ð¾Ð¹Ð´Ñı":6740,"Ð½ÑĥÑģÑĮ":6741,"ĠÐ¡ÐºÐ¾Ð»ÑĮÐºÐ¾":6742,"ĠÐļÑĢÐ¸ÑģÑĤ":6743,"ĠÐ²Ð½":6744,"ĠÐķÐ´Ð¸Ð½":6745,"ĠÐ¶ÐµÐ»Ð°Ð½Ð¸Ñı":6746,"ĠÐĳÐ¾Ð¶Ðµ":6747,"ĠÐ¿Ð¾ÑģÐµÑī":6748,"ĠÑĢÐ°Ð·Ð´Ð°Ð»ÑģÑı":6749,"Ð»Ð¸Ð¼Ð¿":6750,"Ð¿ÑĢÐ¾":6751,"ĠÐ»Ð¸Ñħ":6752,"Ð»ÑĥÑħ":6753,"ĠÐ¿Ð¾ÑģÑĤÐµÐ»Ð¸":6754,"ĠÐ¾ÑĦÐ¸ÑĨÐµÑĢ":6755,"ĠÐ¼Ð°ÑĤÐµÑĢÐ¸Ð°Ð»":6756,"ĠÐĳÐ»":6757,"Ð»ÑĭÑħ":6758,"ĠÐ¿ÑĥÑĤÐµÐ¼":6759,"Ð½Ð¸ÐµÐ¼":6760,"ĠÐ¸Ð´ÐµÑı":6761,"ĠÐ´Ð¾ÑĩÐµÑĢÐ¸":6762,"Ð¾Ð»Ð¾Ð¼":6763,"ĠÐ¿Ð¾ÑģÑĤÐ°Ð²Ð¸Ð»":6764,"ĠÐºÐ¾Ð½ÑģÑĤÑĢÑĥÐº":6765,"ÑĥÑģÐ¾Ð²":6766,"ÑĭÑģÐ»Ð°":6767,"ĠÐ½Ð°Ð·ÑĭÐ²Ð°ÐµÑĤÑģÑı":6768,"ÂłÐŁÐ¾ÑĩÐµÐ¼Ñĥ":6769,"Ð¾ÑĢÐ°Ñĩ":6770,"ĠÐĴÐµÐ½":6771,"ĠÐ¿ÑĢÐµÐ´ÑĭÐ´ÑĥÑī":6772,"ĠÐ½Ð°ÑĪÐ¸Ð¼":6773,"ĠÐºÐ¸Ð¿":6774,"ĠÐ²Ð²ÐµÐ´":6775,"ĠÐ´Ð²ÐµÐ½":6776,"ĠÐ±Ð¾Ð¶Ðµ":6777,"ĠÐ¾Ð±Ð¾ÑĢÐ¾Ð½Ñĭ":6778,"ĠÐ¾Ð±Ð¾Ð·Ð½Ð°Ñĩ":6779,"ĠÐºÐ¾ÑĢÐ¾Ð»":6780,"ÐµÐ²ÑĪÐ¸Ð¹":6781,"ĠÑĩÑĥÐ´ÐµÑģ":6782,"ĠÑģÑĭÐ³ÑĢ":6783,"ÑıÑİ":6784,"ÑĢÑĥÑģÑĤ":6785,"28":6786,"ĠÐ¡Ð¾Ð»Ð½":6787,"ĠÐ±ÑĥÐ´ÑĮ":6788,"Ð°Ð»Ð°Ñħ":6789,"ĠÐ·Ð´Ð°Ð½Ð¸Ñı":6790,"Ð¸Ð´Ð¶":6791,"ÑģÐµÑĢ":6792,"Ð°ÐµÐ¼ÑĭÑħ":6793,"Ð°ÐµÐ¼ÑĭÐ¹":6794,"ĠÐ¸ÑģÐºÐ»ÑİÑĩÐ¸ÑĤÐµÐ»ÑĮÐ½Ð¾":6795,"ÑĢÐµÑĪ":6796,"ÐµÐ»Ð»":6797,"ĠÐ¿Ð¾ÑĨÐµÐ»Ð¾Ð²":6798,"ĠÐ²ÐµÑĢÐ¾ÑıÑĤ":6799,"ĠÐ²ÑĭÐ½ÑĥÐ¶Ð´":6800,"ĠÑĤÐµÑħÐ½Ð¾Ð»Ð¾Ð³":6801,"ĠÐ´ÐµÑĢÐ¶Ð°ÑĤÑĮ":6802,"ĠÐ±Ð¾Ð»ÑĮÐ½Ð¾":6803,"Ð°Ð¹Ð»Ð¾Ð²":6804,"Ð¼ÐµÐ»":6805,"Ð·Ðµ":6806,"ĠÐ´ÑĥÑĪÐ°":6807,"ĠÐ¼ÑĢÐ°Ñĩ":6808,"ĠÐ°ÑĢÑĤÐ¸Ð»Ð»ÐµÑĢ":6809,"ĠÑĢÐ¾ÑģÑģÐ¸Ð¹ÑģÐºÐ¸Ñħ":6810,"ĠÐ±ÐµÑģÐºÐ¾Ð½ÐµÑĩ":6811,"ĠÐĳÐ¾Ð»":6812,"ĠÐ¿ÑĢÑĭÐ³":6813,"ĠÐ¿ÑĢÐ¾Ð±Ð¾ÑĢÐ¼Ð¾ÑĤÐ°Ð»":6814,"ĠÐ¿Ð¸ÑĤÑĮ":6815,"ĠÐłÐ°Ð¹":6816,"ĠÐ½Ð°Ð·Ð²Ð°ÑĤÑĮ":6817,"ĠÑĩÑĢÐµÐ·Ð²ÑĭÑĩ":6818,"ĠÐ¡Ð¾ÑĦ":6819,"âĢĳ":6820,"ĠÑĢÐµÐ±ÑıÑĤÐ°":6821,"ĠÐ¿Ð¾ÑģÑĤÐ°Ð½Ð¾Ð²":6822,"Ð°Ð»ÑĮÐ´":6823,"ĠÐ¼Ð½Ð¾Ð³Ð¾Ðµ":6824,"ÑĳÑģ":6825,"ĠÐĶÐ¼Ð¸ÑĤÑĢÐ¸Ð¹":6826,"ĠÐ´ÐµÐ²ÑıÑĤ":6827,"Ð¸ÐºÐ¾":6828,"ĠÐłÐµÐ¹":6829,"ĠÑģÐ¼Ð¾Ð³Ñĥ":6830,"ĠÐºÐ°Ð¶Ð´Ð¾Ð¼":6831,"ĠÐ¸Ð¼ÑĥÑīÐµ":6832,"ĠÐ¿Ð¾ÑĤÑı":6833,"ÐłÐŀ":6834,"ÑĤÐµÑĢÐµÑģÐ½Ð¾":6835,"ĠÐ±Ð¾Ð¼Ð±":6836,"Ð°Ð»ÐµÐºÐ¾":6837,"Ð¾ÑĩÐ½Ð¾Ð³Ð¾":6838,"ĠÐ¼Ð³Ð½Ð¾Ð²ÐµÐ½Ð½Ð¾":6839,"ĠÐ¿ÑĢÐ¾Ð±Ð»ÐµÐ¼Ð°":6840,"Ð¾Ð¿ÑĢÐ¾Ñģ":6841,"ĠÐ¤Ð¸Ð»Ð¸Ð¿":6842,"ĠÑĤÐµÐ¿Ð»Ð¾":6843,"ĠÐµÐ·Ð´":6844,"ĠÑĤÑīÐ°ÑĤÐµÐ»ÑĮÐ½Ð¾":6845,"ĠÐ·Ð½Ð°ÑĩÐ¸ÑĤÐµÐ»ÑĮÐ½Ð¾":6846,"ÑīÐ¸Ð¹":6847,"Ġ2016":6848,"ĠÐ½Ð°Ð¿ÑĢÐ°Ð²Ð¸Ð»ÑģÑı":6849,"ĠÐ¿ÑĢÐµÐ´ÑģÑĤÐ°Ð²Ð»ÑıÐµÑĤ":6850,"ÂłÐĴÑģÐµ":6851,"ĠÐ½Ð°ÑĩÐ°Ð»ÑĮÐ½Ð¸Ðº":6852,"ĠÐ²Ð¾Ð·ÑĢÐ°Ð¶":6853,"ĠÑĥÐ¼ÐµÐ½ÑĮÑĪ":6854,"ĠÐĶÐ¶Ð¾":6855,"Ð¾ÑĩÐ½ÑĭÐµ":6856,"Ð°Ð±Ñĭ":6857,"ĠÐ¼Ð¾ÑĤÐ¸Ð²":6858,"ĠÐºÐ°Ð¶":6859,"ĠÑĢÐµÑĪÐ¸ÑĤÐµÐ»ÑĮÐ½Ð¾":6860,"ĠÐ²Ð½ÑĥÑĤÑĢÑĮ":6861,"Ð¸ÑĤÐ¸Ð²":6862,"ĠÑĤÐµÐ»ÐµÐ²Ð¸Ð·":6863,"ĠÑĢÐ°Ð·Ð±Ð¸ÑĢ":6864,"ĠÑħÐ²Ð°ÑĤÐ°Ð»Ð¾":6865,"ÑĪÐµÐµÑģÑı":6866,"ĠÑĨÐ¸ÑĤ":6867,"ĠÐ½ÐµÐ´Ð¾ÑĥÐ¼":6868,"Ð½Ð¾Ð¶":6869,"ĠÐ´Ð°Ð½Ð½ÑĭÐ¹":6870,"Ð»ÑĥÑĪÐ°Ð¹":6871,"ĠÐ¿ÑĢÐµÐ´Ð²Ð°ÑĢ":6872,"Ð»Ð°ÑģÑģ":6873,"ĠÐ±Ð¾Ð»ÑĤ":6874,"ĠÐ´ÑĢÐ°Ðº":6875,"ĠÐ¿ÑĢÐ¾ÑĪÐ»Ð°":6876,"Ð¸ÑĢÑĥÑİÑĤ":6877,"ĠÐ´ÐµÑıÑĤÐµÐ»ÑĮÐ½Ð¾ÑģÑĤÑĮ":6878,"ĠÐ²Ð¿ÑĢÐ¾ÑĩÐµÐ¼":6879,"ĠÐ¿ÑĭÐ»ÑĮ":6880,"ĠÐ²Ð¾Ð¾Ð±ÑĢÐ°Ð¶":6881,"Ð»ÑĭÐ¼":6882,"Ð¾Ð¹ÑĩÐ¸Ð²":6883,"Ð»ÑıÑİ":6884,"ĠÐ½Ð°ÑģÑĩÐµÑĤ":6885,"Ð¡Ð¢":6886,"Ð´Ð¾ÑĢÐ¾Ð²":6887,"ĠÐĶÐ¸":6888,"Ð»ÑıÐ»Ð¸ÑģÑĮ":6889,"ĠÐĲÑĢÐ¼":6890,"ĠÐ¾Ð´Ð¸Ð½Ð°ÐºÐ¾Ð²":6891,"ĠÐºÐ°ÑĢÑĮ":6892,"ĠÐ¿ÑĥÑģÐº":6893,"ĠÐĺÐ½Ð¾Ð³Ð´Ð°":6894,"ĠÑģÐ¾Ð¼Ð½ÐµÐ½Ð¸Ñı":6895,"ĠÐ²Ð¾ÑģÐ¿ÑĢÐ¸Ð½Ð¸Ð¼":6896,"ĠÐºÐ¾Ð½ÐµÑĩ":6897,"ĠÑģÐºÑĢÐ¸Ð¿":6898,"ĠÐ¾ÑģÑĤÐ°Ð½ÐµÑĤÑģÑı":6899,"Ð¸Ð²Ð°Ð½Ð¸Ðµ":6900,"ĠÐ¸ÑģÐ¿Ð¾Ð»":6901,"ĠÑĤÐ²ÐµÑĢ":6902,"ĠÐ³Ð¾ÑĢÐ¸Ð·":6903,"ÑĪÐ¸ÐµÑģÑı":6904,"ĠÐ´Ð°Ð½Ð½ÑĭÑħ":6905,"Ġ60":6906,"ĠÐľÐ°ÑĢÑĤ":6907,"ĠÐ¿Ð¾Ð·Ð°Ð´Ð¸":6908,"ĠÑĢÑĥÑģÑģÐºÐ¾Ð¹":6909,"ĠÑĥÐ³ÑĢÐ¾Ð¶":6910,"ÑįÑĤÐ¾":6911,"Ð¾Ð²Ð°Ð½Ð½ÑĭÐ¹":6912,"ÐĿÐ¸Ðº":6913,"ĠÑģÑĤÐ¾Ð¸Ð»Ð¾":6914,"ĠÐºÐ²Ð°ÑĢ":6915,"ĠÑģÐ¿ÐµÑĨÐ¸Ð°Ð»ÑĮÐ½Ð¾":6916,"ĠÑĤÑĥÑĢÐ½Ð¸":6917,"Ð¾Ð²Ð°Ð½Ð°":6918,"ĠÐ°Ð²ÑĤÐ¾":6919,"ĠÐľÐ°Ð¹Ðº":6920,"ĠÐľÑĥÐ¶":6921,"ĠÐľÐ°ÐºÑģÐ¸Ð¼":6922,"Ð¸ÑĢÐµ":6923,"ĠÐ³Ð¾Ð»Ð¾ÑģÐµ":6924,"Ð¸Ð²ÑĪÐ¸Ñħ":6925,"ĠÐľÐ¾Ð»":6926,"Ð½Ð¾ÑģÑĤÑıÑħ":6927,"ĠÐŁÑĢÐ¸Ð½":6928,"ĠÐ¸Ð·Ð±ÑĢÐ°Ð½":6929,"ÑıÑīÐµÐµ":6930,"ĠÐĿÐ¸ÐºÐ°Ðº":6931,"ĠÐ¿ÐµÑĢÐ²Ð°Ñı":6932,"ĠÑĨÐ¸Ð²Ð¸Ð»":6933,"Ð»Ð°Ð·Ð°":6934,"ĠÐĴÐµÑĢÑħÐ¾Ð²":6935,"ĠÐ½ÐµÑĤÐµÑĢÐ¿":6936,"ĠÐ½Ð°ÑħÐ¼ÑĥÑĢ":6937,"ĠÐ¶ÑĥÑĤ":6938,"ÐŀÐ´Ð½Ð°ÐºÐ¾":6939,"ĠÑģÐ¾ÑĩÐ¸Ð½":6940,"ĠÑĢÐ¾Ð»Ð¸":6941,"ĠÑĤÐµÑĩ":6942,"ĠÑĢÐ°Ð·Ñĥ":6943,"ÑĩÐ°Ð»":6944,"ĠÐ¿ÑĥÐ»":6945,"Ġ$":6946,"ĠÐ½Ð°ÑħÐ¾Ð´Ð¸Ð»Ð¸ÑģÑĮ":6947,"ĠÐ°ÑįÑĢÐ¾Ð¿":6948,"ĠÐ°Ð´Ð²Ð¾Ðº":6949,"ĠÑģÐ¾Ð·Ð´Ð°ÑĤÑĮ":6950,"ĠÐķÐºÐ°ÑĤÐµÑĢ":6951,"ĠÑģÑĩÐ¸ÑĤÐ°ÑİÑĤ":6952,"ÂłÐ¥Ð¾ÑĢÐ¾ÑĪÐ¾":6953,"ÑĤÐ¸Ð¼":6954,"ĠÐ¢Ð°ÑĢ":6955,"Ð»ÐµÐ¿":6956,"Ġ2013":6957,"ĠÐ·Ð°Ð±Ð»":6958,"ĠÐ¿ÑĢÐ¸Ð½ÑıÑĤÐ¾":6959,"ÐµÐ¶ÑĥÑĢ":6960,"ĠÑģÐ¼Ð¾Ð³Ð»Ð¸":6961,"Ð±Ð¸Ð½":6962,"ĠÑģÐ¾Ð¿ÐµÑĢ":6963,"ĠÐ¿Ð¾Ð´ÑĢÐ°Ð·Ð´ÐµÐ»":6964,"ĠÐ´ÐµÐ»Ð°ÑİÑĤ":6965,"ÑĢÐ¾Ñħ":6966,"Ð¾Ð´ÑĥÑĪ":6967,"ĠÐľÐ°ÑĢÐ¸Ñı":6968,"Ð¾ÑģÐ»ÐµÐ´ÑģÑĤÐ²Ð¸Ð¸":6969,"ĠÐ¿Ð¾ÑģÐ»ÐµÐ´Ð½ÐµÐ³Ð¾":6970,"ĠÐ£Ð¶":6971,"ĠÐ¿Ð¾Ð»ÑĥÑĩÐ¸Ð»Ð°":6972,"ĠÐ½Ð°ÑħÐ¾Ð´ÑıÑĤÑģÑı":6973,"ĠÑħÐ¾Ð´Ñĥ":6974,"ĠÑĤÑĢÐ¾Ðµ":6975,"ĠÐ³Ð¸Ð¿":6976,"ĠÐ²Ð¾Ð·Ð´ÑĥÑħÐ°":6977,"ĠÐ³Ð»Ð°Ð²Ñĭ":6978,"ÐµÑĤÐ¾":6979,"ĠÑģÐ¼Ð¾ÑĤÑĢÐµÐ»Ð¸":6980,"ĠÐ²Ð¸Ð´Ð°":6981,"Ð¾ÑĢÐ´Ð¶":6982,"ĠÐĿÐµÐ¿":6983,"ĠÐ·Ð°ÑĢÐ°Ð½ÐµÐµ":6984,"ĠÐ¸ÑģÑĤÑĢÐµÐ±":6985,"ĠÐ¦ÐµÐ½ÑĤÑĢ":6986,"ĠÐ²Ð¾Ð·Ð¼ÑĥÑī":6987,"ĠÐ¾Ð±Ð¾Ð¸Ñħ":6988,"ĠÐ¿Ð¾Ð²ÐµÑĢÑħÐ½Ð¾ÑģÑĤÐ¸":6989,"ĠÐ¸ÑģÑģÐ»ÐµÐ´Ð¾Ð²Ð°Ð½Ð¸Ñı":6990,"ĠÐ±Ð°ÑĤÐ°Ð»ÑĮ":6991,"ĠÐ´ÐµÐ¹ÑģÑĤÐ²Ð¾Ð²Ð°ÑĤÑĮ":6992,"Ð¿ÑĢÐµÐ´ÐµÐ»":6993,"ĠÐµÑģÑĤÐµÑģÑĤÐ²ÐµÐ½Ð½Ð¾":6994,"Ð°Ð´Ð¾":6995,"ĠÐļÐ°Ð¶Ð´ÑĭÐ¹":6996,"Ð°Ð½ÑģÐºÐ¾Ð³Ð¾":6997,"ĠÑģÐ¾Ð±ÑģÑĤÐ²ÐµÐ½Ð½Ð¾":6998,"ĠÐ¿ÑĢÐ¾Ð¼ÑĭÑĪÐ»ÐµÐ½":6999,"ÐļÐ¾Ð¼":7000,"ÑĪÐ¸ÑħÑģÑı":7001,"ĠÐ¿ÑĢÐ¸Ð³Ð¾Ð²Ð¾ÑĢ":7002,"ĠÐ¿Ð°ÑĨÐ¸":7003,"ĠÐ³ÑĢÑĥÐ±":7004,"ĠÑĢÑĥÑģÑģÐºÐ¾Ð³Ð¾":7005,"ÑĥÑĪÐºÐµ":7006,"Ð°Ð½Ð´Ð°ÑĢÑĤ":7007,"ĠÑģÐµÐ¼ÑĮÑı":7008,"ĠÑħÐ¾ÑĢÐ¾ÑĪÐ¸Ð¹":7009,"ÑıÑīÐ¸Ð¼":7010,"ĠÑģÐ¾Ð»Ð½ÑĨÐ°":7011,"ĠÐ¿Ð¾Ð·Ð²Ð¾Ð»ÑıÐµÑĤ":7012,"ÑĢÐ¸Ð½":7013,"ĠÐ¿ÑĢÐ¾ÑĪÐ»Ð¸":7014,"=\"":7015,"ĠÐ¿Ð¾Ð´Ð²Ð¾Ð´":7016,"ĠÑģÐ¼Ð¾Ð³Ð»Ð°":7017,"ĠÑĥÑĩÑĢÐµÐ¶Ð´":7018,"Ð¿ÑĢÐµÐ¶Ð´":7019,"Ð¸Ð²ÑĪÐ¸ÑħÑģÑı":7020,"ĠÑĥÐ³Ð»Ñĥ":7021,"ĠÐ¿ÑĥÐ½Ðº":7022,"ÑĨÐ¸ÑıÐ¼Ð¸":7023,"ĠÐ·Ð°ÑħÐ¾Ð´":7024,"ĠÑĩÐµÐ»Ð¾Ð²ÐµÑĩÐµ":7025,"ĠÐ³ÐµÑĢÐ¾":7026,"ĠÑĢÐ°Ð·Ð¾Ñĩ":7027,"ĠÐĿÐµÑģÐ¼Ð¾ÑĤÑĢÑı":7028,"ĠÐ²Ð¾ÑģÑħÐ¸Ñī":7029,"ĠÑģÐ»ÐµÐ¿":7030,"Ð°Ð½Ð½ÑĭÐ¼Ð¸":7031,"Ã©":7032,"ĠÑħÐ²Ð°ÑĤÐ°ÐµÑĤ":7033,"Ð¾ÑĩÐµÑĤ":7034,"Ð°ÑİÑīÐµ":7035,"ÂłÐ¡Ð¿":7036,"ĠÐ²ÐµÐ¶":7037,"ĠÐ¿ÑĢÐ¸ÐµÐ·Ð¶":7038,"ÑĹ":7039,"ĠÐ¢Ð¸Ð¼":7040,"ĠÐ¿Ð¾Ð´ÑħÐ²Ð°ÑĤ":7041,"ÑĤÐ°ÑĢ":7042,"ĠÑĤÐ°Ð½ÐºÐ¾Ð²":7043,"ĠÐĶÐµÐ»Ð¾":7044,"ĠÑĩÑĳÑĢ":7045,"Ð¾ÑģÑĤÐµÐ¹":7046,"Ð´Ð¾Ð¼":7047,"ÑĨÐ¸ÑıÑħ":7048,"ĠÐ²ÐµÑĢÐ½ÑĥÐ»Ð°ÑģÑĮ":7049,"ĠÐ¿ÑĢÐ¸ÑģÐ»ÑĥÑĪ":7050,"ĠÐ¾ÑĤÑĢÐµÐ·":7051,"ĠÑĥÑĢÐ¾Ðº":7052,"ĠÐ´Ð¾ÑģÑĤÐ°Ð»":7053,"Ð¾ÑĢÐ°ÑĤÐ¾ÑĢ":7054,"ĠÑĥÑģÑĤÑĢÐµÐ¼":7055,"ĠÐ¿Ð°ÑĤÑĢÐ¸":7056,"ĠÐ¿Ð¾ÑĩÑĥÐ²ÑģÑĤÐ²Ð¾Ð²Ð°Ð»Ð°":7057,"ĠÐ¿ÑĢÐ¾ÐºÐ»ÑıÑĤ":7058,"ĠÑģÐ¾Ð·Ð½Ð°Ð½Ð¸Ñı":7059,"Ð°ÑİÑīÑĥÑİ":7060,"ÐĻÐ¾ÑĢ":7061,"ĠÐ·Ð°Ð±Ð¾Ð»ÐµÐ²":7062,"ĠÐ±ÑĥÐ´ÑĥÑīÐµÐµ":7063,"Ð°ÑĤÐµÐ»ÑĮÐ½ÑĭÐ¼":7064,"ĠÐ²ÐµÑģÐµÐ»Ð¾":7065,"ĠÐ»Ð°Ð´Ð¾Ð½":7066,"ĠÐ¼Ð°Ðº":7067,"Ð¸ÑıÐ¼":7068,"Ð¸ÑĢÐ¾Ð²ÐºÐ¸":7069,"ĠÐĴÑĤÐ¾ÑĢÐ¾Ð¹":7070,"Ð·Ð°Ð¿":7071,"ĠÐĶÐ¶ÐµÐº":7072,"ĠÐ´ÐµÐ²ÑĩÐ¾Ð½":7073,"ĠÐ¿ÑĢÐ¸Ð½Ð¸Ð¼Ð°ÑĤÑĮ":7074,"ĠÐ¼ÐµÑĢÑĭ":7075,"Ð´Ð°Ñħ":7076,"ĠÐ²ÑĭÑģÐºÐ°Ð·":7077,"Ð»ÐµÐ½Ð½Ð°Ñı":7078,"ĠÑĪÐ¿":7079,"ĠÐ¿ÑĢÐ¸ÑıÑĤÐ½Ð¾":7080,"ĠÑģÐ¾ÑģÑĤÐ¾Ð¸ÑĤ":7081,"ĠÐ²Ð¾ÑĢÐ¾ÑĤÐ°":7082,"ĠÐ³Ð¾ÑģÑĤÐµÐ¹":7083,"ĠÐ¶Ð¸Ð²Ð¾ÑĤÐ½ÑĭÑħ":7084,"ĠÑĥÐ³ÑĢÐ¾Ð·":7085,"Ð¾Ð»Ð¸ÑĤ":7086,"ĠÑģÐ¿ÑĢÐ°Ð²ÐµÐ´Ð»Ð¸Ð²":7087,"ĠÑģÐ²Ð¾Ñĳ":7088,"ĠÑĢÐ°ÑģÑĩ":7089,"ĠÐ¿ÑĢÐ¾Ð³ÑĢÐ°Ð¼Ð¼Ñĭ":7090,"ĠÐŁÐ¾ÑĢ":7091,"âĢĥâĢĥ":7092,"ĠÐ¾Ð´Ð¾Ð±ÑĢ":7093,"ĠÐºÐ¾Ð¼Ð¿Ð»ÐµÐº":7094,"ĠÑħÐ¾Ð´Ð¸ÑĤÑĮ":7095,"Ð½Ð¸ÐºÐ°Ñħ":7096,"ÑĥÐ¼ÐµÐµÑĤÑģÑı":7097,"ĠÑĤÐµÐ¼Ð½Ð¾ÑĤÐµ":7098,"ĠÐĶÐ¾ÑĢ":7099,"ĠÑģÐ»Ð¾Ð²Ð¾Ð¼":7100,"ĠÐ¿ÑĢÐ¾Ð´Ð¾Ð»Ð¶Ð¸Ð»":7101,"ĠÐ³Ð¾ÑĤÐ¾Ð²Ð°":7102,"ĠÐ±Ð»Ð°Ð³Ð¾ÑĢÐ¾Ð´":7103,"ĠÐ£Ð´":7104,"ĠÐ·Ð°ÐºÐ¾Ð½Ð¾Ð´":7105,"ÂłÐĿÐ°":7106,"ĠÐ¿Ð¸ÑģÐ°ÑĤÑĮ":7107,"ĠÐ¾Ð³Ð»ÑıÐ´":7108,"60":7109,"ĠÐ°ÑĢÐ¼Ð¸":7110,"ĠÐłÐ¾ÑģÑģÐ¸Ð¹ÑģÐºÐ¾Ð¹":7111,"ĠÐ¿Ð¾Ð»Ð¾ÑĤ":7112,"ĠÑģÐµÑĢÐµÐ±ÑĢÑı":7113,"ĠÐ´Ð°Ð²Ð°Ð¹":7114,"ĠÑħÐ¾ÑĢ":7115,"ÑĥÐºÑĥ":7116,"ĠÐ¶Ð¸Ð´":7117,"ĠÑĩÐµÑĤÐ²ÐµÑĢÑĤ":7118,"ĠÐ±Ð¾ÑĢÑĮÐ±Ñĭ":7119,"Â»)":7120,"ĠÐ»ÑİÐ±Ð¾Ð³Ð¾":7121,"Ð¸ÑĢÑĥÐµÑĤÑģÑı":7122,"Ð¼Ð¾ÐµÐ¼Ñĥ":7123,"29":7124,"ĠÐ±Ð¾Ð»ÑĮÑĪÐ¸Ñħ":7125,"ĠÐ¿ÑĢÐ¾Ð¸ÑģÑħ":7126,"ÑīÐ¸ÐºÐ°":7127,"Ð²ÐµÑĩ":7128,"ĠÐ½Ð°Ð·Ð²Ð°Ð»":7129,"ÑĳÑħ":7130,"ÑĢÐ¸ÑĤ":7131,"ÐµÐ³Ð°":7132,"ĠÑģÐ²ÐµÑĩ":7133,"ĠÑĥÑģÐ¿ÐµÐ»Ð°":7134,"ĠÑģÐ¸Ð´ÐµÑĤÑĮ":7135,"ĠÑĥÐ»ÑĥÑĩ":7136,"Ð¾Ð¿Ð¾Ð»ÑĥÑĩ":7137,"Ð¿Ð°Ð´":7138,"ĠÐ¡ÐľÐĺ":7139,"ĠÐŁÐ¾Ð³":7140,"ĠÑĥÐ´Ð°ÑģÑĤÑģÑı":7141,"Ð¾Ð¸Ñħ":7142,"Ð³ÑĢÐ¾Ð¼":7143,"ĠÐ·Ð°Ð²ÑĤÑĢ":7144,"Ð¾Ð¶Ð°":7145,"ĠÑģÐºÐ°Ð½Ð´":7146,"Ð¾ÑĢÐ¾Ð´":7147,"ÑĮÐµÐ¹":7148,"ÐµÑĤÐ¸":7149,"ĠÐ¾Ð±Ð¾ÑĢÐ¾ÑĤ":7150,"ĠÑģÐ¸ÑģÑĤÐµÐ¼Ñĥ":7151,"ĠÐºÐ¾Ð½ÑĤÑĢÐ¾Ð»ÑĮ":7152,"ĠÐ¿Ð¾Ð¿Ð°ÑģÑĤÑĮ":7153,"ĠÐ¾Ð¿Ð°ÑģÐ½Ð¾ÑģÑĤÐ¸":7154,"ĠÑģÐµÐ²":7155,"ĠÐ¿Ð¾ÑĤÐµÑĢÑıÐ»":7156,"ĠÐ´ÐµÑĪ":7157,"ĠÐĽÐ¸Ð½":7158,"ĠÐ¾ÑĤÐ½Ð¾ÑĪÐµÐ½Ð¸Ð¹":7159,"ĠÐ´ÐµÑģÑıÑĤÐ¸":7160,"ÑıÐµÐ¼":7161,"ĠÐ¿Ð¾Ð²Ð¾Ð´":7162,"ĠÑħÐ¸Ð¼":7163,"ĠÐ¿ÑĢÐ¸ÐµÑħÐ°Ð»":7164,"ĠÐºÐ¾Ð»ÐµÐ±":7165,"ĠÐ¿ÑĮÑı":7166,"ÐµÐ´ÑĢ":7167,"ĠÑĢÑĥÑģÑģÐºÐ¸Ðµ":7168,"ĠÑģÐ²Ð¸Ð½":7169,"Ð°Ð½ÑĥÐ½Ðµ":7170,"Ð°ÐµÑĤÐµÑģÑĮ":7171,"ĠÐ³ÑĥÐ±ÐµÑĢÐ½Ð°":7172,"ĠÐ·Ð½Ð°ÑĩÐµÐ½Ð¸Ñı":7173,"Ð½Ð¸Ñİ":7174,"ĠÐ¾Ð±ÑīÐµÐ³Ð¾":7175,"ĠÐķÐ²ÑĢÐ¾Ð¿Ðµ":7176,"ĠÑĤÐ²Ð°ÑĢ":7177,"ĠÑĤÑĢÐ°Ð´Ð¸ÑĨÐ¸Ð¾Ð½":7178,"Ð³ÐµÐ»":7179,"ĠÐ²ÐºÐ»ÑİÑĩÐ°Ñı":7180,"Ð½Ð°Ð¿":7181,"ÑĪÐºÐ°":7182,"ÐļÐĲ":7183,"ĠÐ½Ð°ÑģÐ»Ð°Ð¶Ð´":7184,"ĠÐ²Ð¿ÑĢÐ°Ð²":7185,"ĠÐ¿ÑĥÑģÑĤÑĭ":7186,"ĠÐ½ÐµÐ¼Ð°Ð»Ð¾":7187,"ĠÐ¿Ð¾ÑĢÑĤÑĢ":7188,"ĠÐŁÑĢÐµÐ·":7189,"ĠÐ´Ð¾Ð¼Ð¾Ð²":7190,"ÐµÑĢÐ²Ð°":7191,"],":7192,"Ð»Ð¸Ð½Ð°":7193,"ĠÐ´Ð¾ÐºÑĥÐ¼ÐµÐ½ÑĤÑĭ":7194,"ĠÐŁÐ¾Ð·":7195,"ĠÐ¿Ð¾Ð»Ð¸ÑĤÐ¸ÐºÐ¸":7196,"ĠÐµÐ´Ð¸Ð½ÑģÑĤÐ²ÐµÐ½Ð½ÑĭÐ¹":7197,"ĠÐ¿Ð¾Ð»ÐºÐ¾Ð²Ð½Ð¸Ðº":7198,"ĠÐ¡ÑĢÐµÐ´Ð¸":7199,"ĠÐ´Ð°Ð»ÐµÐº":7200,"ĠÐŁÐ°Ð²ÐµÐ»":7201,"ĠÐ²ÑĭÐ»ÐµÑĤ":7202,"ĠÐ¿ÐµÑħ":7203,"ĠÐķÐ²Ð³":7204,"Ð¾Ð²Ð°Ð»Ð¾ÑģÑĮ":7205,"ĠÐ¼Ð°Ð»ÐµÐ¹":7206,"Ð½Ð°Ñħ":7207,"ĠÑĢÐµÑģÑĥÑĢ":7208,"Ð¸Ð²ÑĪÐµÐ³Ð¾":7209,"ĠÐ´ÐµÐ¼Ð¾ÐºÑĢÐ°ÑĤ":7210,"ĠÐ¿ÑĢÐ¾ÑĤÐ¸Ð²Ð¾ÑĢÐµÑĩ":7211,"ÑĢÐ¾Ð³":7212,"ĠÐĳÐµÐ½":7213,"ĠÑĤÐº":7214,"ĠÐ·Ð°Ð±ÑĭÑĤÑĮ":7215,"ĠÑģÐµÑģÑĤÑĢÐ°":7216,"ĠÐ³Ð¾ÑģÑĤÐ¸":7217,"Ð½Ð°Ð¶":7218,"Ð´ÑĮ":7219,"ĠÐĵÐ¾ÑģÑĥÐ´Ð°ÑĢ":7220,"ĠÐ¿ÑĢÐ¸ÑĪÐ»Ð¾":7221,"ĠÐ°ÑĤÐ¼Ð¾Ñģ":7222,"ĠÐ¿Ð¾ÑĩÑĤ":7223,"ÐµÐ½ÑĮÐºÐ¸Ð¹":7224,"ĠÐĿÐµÐ´":7225,"ĠÐµÑħÐ°ÑĤÑĮ":7226,"âĢ¢":7227,"ĠÐ¿Ð¾Ð»ÑĥÑĩÐ°ÐµÑĤÑģÑı":7228,"ĠÑģÐµÑĢÐµÐ´Ð¸Ð½Ðµ":7229,"ĠÐ°Ð½Ð°Ð»Ð¾Ð³":7230,"ĠÐºÐ¸Ð»Ð¾Ð¼ÐµÑĤÑĢÐ¾Ð²":7231,"ĠÐľÐ°ÑĢÐº":7232,"ĠÐ¢Ð¸Ñħ":7233,"ĠÐ¿Ð¾ÑģÐ»ÑĭÑĪ":7234,"ĠÐ¶Ð¸Ð²ÑĥÑĤ":7235,"ĠÐ¼Ð°Ð»ÑĭÑĪ":7236,"ĠÐ¿ÑĢÐ¾ÑģÑĤÑĢÐ°Ð½ÑģÑĤÐ²Ð¾":7237,"ĠÐ¸ÑĤÐ°Ð»ÑĮÑıÐ½":7238,"ĠÐ¾ÐºÐ°Ð·ÑĭÐ²Ð°ÐµÑĤÑģÑı":7239,"ĠÐĳÐ¾Ð»ÐµÐµ":7240,"ĠÑĢÐ¾Ð´Ð¸ÑĤÐµÐ»ÐµÐ¹":7241,"ĠÐ·Ð°ÑģÐ¼Ðµ":7242,"ÑĩÐµÐ½ÐºÐ¾":7243,"ĠÐºÐ¾Ð¼Ð¿Ð»ÐµÐºÑģ":7244,"ĠÑģÐ²ÐµÑĢÑħ":7245,"ĠÑĤÑĥÐ¼":7246,"Ð¸Ð²ÑĪÐ¸Ðµ":7247,"ÑĪÐ¸Ð¹ÑģÑı":7248,"Ð¼Ñģ":7249,"ĠÐłÐ°Ð´":7250,"ĠÐ¿Ð»Ñı":7251,"ÑĢÐ¾ÑģÐ¸Ð»":7252,"ĠÑĤÐ°ÑĢÐµÐ»":7253,"Ð¸ÑĨÐ¸Ð¹":7254,"Ð¸Ð½ÑĤ":7255,"Ð»Ð¸Ð²ÑĭÐ¹":7256,"ĠÐ¾ÑĤÐ»Ð¸ÑĩÐ½Ð¾":7257,"ĠÐ²ÑĭÑģÐ¾ÐºÐ¾":7258,"Ð»ÐµÑģÐº":7259,"ĠÑĤÐ°ÐºÑĤ":7260,"ĠÐ¾ÑģÐ»Ð°Ð±":7261,"ĠÐ²Ð°Ð³Ð¾":7262,"ĠÐ·Ð°Ð»Ðµ":7263,"ĠÐ¾Ð±ÑħÐ¾Ð´":7264,"ĠÐ³Ð¾ÑģÑĥÐ´Ð°ÑĢÑģÑĤÐ²Ð¾":7265,"ĠÐ¡Ð¿Ð°ÑģÐ¸Ð±Ð¾":7266,"ĠÐ¿Ð¾ÑĤÐµÐ½ÑĨÐ¸":7267,"ĠÐ»Ð°Ð´Ð¾Ð½Ð¸":7268,"ĠÑģÐ¼Ðµ":7269,"ĠÐ²ÐµÑĢÐ¸ÑĤÑĮ":7270,"ĠÐ¿ÑĢÐ¾Ð²Ð°Ð»":7271,"Ð°ÑĢÐ¼":7272,"ĠÑĤÑĢÐµÐ½Ð¸ÑĢÐ¾Ð²":7273,"ĠÐºÐ¾ÑĢÐ¸Ð´Ð¾ÑĢ":7274,"Ð·Ð°Ð´Ð¸":7275,"ÐºÐ¾Ð³":7276,"ĠÐ¡ÑĤÐ°Ð»Ð¸Ð½":7277,"!!!":7278,"ĠÐ·Ð°Ð²Ð¸ÑģÐ¸ÑĤ":7279,"ĠÐ¿ÐµÑĢÐµÑħ":7280,"Ð¾ÑıÐ²":7281,"ĠÐ¸Ð´ÑĥÑĤ":7282,"ÐµÑħÐ°Ð»Ð°":7283,"Ð¸Ð¹ÑģÐºÐ¸Ñħ":7284,"ĠÐ·Ð°Ð¼ÐµÑĤÐ½Ð¾":7285,"ĠÑĨÐµÐ½ÑĤÑĢÐ°":7286,"ĠÐŁÑĥÑĤÐ¸Ð½":7287,"Ð³Ð°Ð»":7288,"ĠÑĤÐ²Ð¾ÐµÐ³Ð¾":7289,"ĠÑģÑĥÐ´Ñı":7290,"ÑĤÐµÑĦ":7291,"ĠÐºÑĢÐ°ÑģÐ°Ð²":7292,"ĠÐ·Ð°Ð´ÑĥÐ¼ÑĩÐ¸Ð²Ð¾":7293,"ĠÑĦÐ»Ð¾ÑĤ":7294,"ĠÐ¿Ð¾Ð´Ð¾ÑĪÐ»Ð°":7295,"ĠÐºÑĥÐ¿Ð¸ÑĤÑĮ":7296,"ĠÐ¿ÑĢÐµÐºÑĢÐ°Ñī":7297,"ĠÐ²Ð½ÑĥÑĪ":7298,"Ð¾ÑģÐºÐ¾ÑĪ":7299,"ĠÐ·Ð°Ð¼Ð¾Ðº":7300,"ĠÐ²ÐµÑīÐµÐ¹":7301,"Ð°ÑīÐ¸Ñħ":7302,"Ð°ÑİÑīÐ¸ÑħÑģÑı":7303,"ÐŁÐµÑĢÐ²":7304,"ĠÑĢÐ¾Ð´Ð¸ÑĤÐµÐ»Ð¸":7305,"ÑĥÐ´Ð¸ÑĤÑĮ":7306,"ĠÐ¿ÑĢÐ¸Ð¼ÐµÑĢÑĥ":7307,"ÑĤÑı":7308,"ĠÐ¿ÑĢÐ¾ÑĩÑĮ":7309,"ĠÐ½ÐµÐ¿Ð¾Ð´Ð²Ð¸Ð¶":7310,"ÐĶÐ»Ñı":7311,"ĠÐľÐ°Ð½":7312,"ÑĤÐ¸Ñİ":7313,"ĠÑĢÑĥÑģÑģÐºÐ¸Ð¹":7314,"ĠÐ¿ÑĢÐ¾Ð¸Ð·Ð²Ð¾Ð´ÑģÑĤÐ²Ð°":7315,"ĠÐ¾ÐºÐ°Ð·Ð°ÑĤÑĮÑģÑı":7316,"ĠÐ¼ÐµÑĤÐ°Ð»Ð»Ð¸ÑĩÐµÑģÐº":7317,"ĠÐ±ÑĥÐ´ÑĥÑīÐµÐ¼":7318,"ĠÐ¸Ð½Ð¾Ð¹":7319,"Ð½Ð¾Ð²ÐµÐ½Ð¸Ñı":7320,"ĠÑĩÑĥÐ²ÑģÑĤÐ²Ð¾Ð²Ð°Ð»Ð°":7321,"ĠÐ½Ð¸ÑĩÐµÐ¼":7322,"ĠÐ»Ð°Ð³ÐµÑĢ":7323,"Ð°ÑĢÐ´Ð°":7324,"ÑĥÑīÐ¸Ð¹":7325,"ĠÑĤÐµÐ°ÑĤÑĢ":7326,"ĠÐ¿Ð¾Ð»Ð½ÑĭÐ¹":7327,"ĠÐ¢ÑĢÐ¸":7328,"ÑĥÐ»Ñĭ":7329,"ĠÐĹÐ°Ð¼":7330,"ĠÑģÐºÑĢÑĭ":7331,"ĠÐ¡ÑĢÐµÐ´":7332,"ĠÐ²Ð¾ÑģÑĤÐ¾ÑĢ":7333,"ĠÐ¸Ð¼ÐµÐ»Ð°":7334,"ĠÐ¼Ð¾Ð·Ð³":7335,"ĠÐ¿ÑĢÐµÐ´Ð¿ÑĢÐ¸Ð½Ð¸Ð¼":7336,"ĠÐ¿Ð¾ÑģÐ»ÐµÐ´Ð½ÐµÐ¹":7337,"ĠÐ²Ð°ÑĪÐ¸Ñħ":7338,"ĠÑģÐ¿Ð¸ÑģÐ¾Ðº":7339,"ĠÐ·Ð°Ð¼ÐµÐ½":7340,"Ð°Ð»Ð¸ÑĤ":7341,"ĠÑĤÑĢÐ¾Ð½":7342,"Ð»ÐµÐ½Ð½Ð¾Ðµ":7343,"ĠÑģÐºÐ¾ÑĢÐ¾ÑģÑĤÑĮ":7344,"Ð°Ð¶Ð¸ÑĤÐµ":7345,"Ð¾Ð¼Ð°ÑĤ":7346,"ĠÐĿÐ¾Ð²Ð¾ÑģÑĤÐ¸":7347,"ĠÐ·ÑĢÑı":7348,"ĠÐ½ÐµÐ¾Ð´":7349,"ÐľÐ½Ðµ":7350,"ĠÑģÑĩÐ°ÑģÑĤÑĮÐµ":7351,"Ð¸ÑĢÑĭ":7352,"Ð¾Ð´Ð¸":7353,"ĠÐ±Ð¾Ð»ÑĮÑĪÐµÐ¹":7354,"ĠÐ´ÑĢÐ°Ð³Ð¾":7355,"ĠÐ¿Ð¾ÑĨÐµÐ»":7356,"ĠÐ°Ð½Ð°Ð»Ð¸Ð·":7357,"ĠÐ½Ð°ÑģÑĤÐ°":7358,"ĠÑİÐ½Ð¾ÑĪ":7359,"ĠÐ¿ÑĢÐ¸Ð²ÐµÑģÑĤÐ¸":7360,"ĠÐ¿Ð¾Ð´Ð·ÐµÐ¼":7361,"45":7362,"ĠÐ¿ÑĢÐ¾Ð´Ð¾Ð»Ð¶Ð°Ð»Ð°":7363,"Ð½Ð¾Ð´ÑĥÑĪ":7364,"ĠÑĢÐµÐ³ÑĥÐ»ÑıÑĢ":7365,"Ð±ÑĥÑĢ":7366,"ĠÑĪÐ°Ð³Ð¾Ð²":7367,"ĠÐºÐ¾Ð»ÐµÑģ":7368,"ĠÑĢÐ²Ð°Ð½":7369,"ĠÐ¡ÑĤÑĢÐ°Ð½":7370,"ĠÐŁÑĢÐµÐ´ÑģÑĤÐ°Ð²":7371,"ĠÐ¿Ð¾ÐµÐ´":7372,"ĠÐ²ÑĭÐ²":7373,"ĠÐºÐ°Ð¶Ð´ÑĭÐ¼":7374,"ĠÐ±Ð¾Ð»ÑĮÑĪÐ¾Ð³Ð¾":7375,"ĠÐ£ÐºÑĢÐ°Ð¸Ð½Ð°":7376,"ÐķÐł":7377,"Ð¾Ð·Ð³":7378,"ÂłÐ½Ðµ":7379,"ĠÐ¾Ð±Ð¾ÑĢÐ¾Ð½":7380,"ĠÑģÑĤÐµÐ½Ñĥ":7381,"ĠÐºÑĥÑģÐº":7382,"ÑĤÐ¸Ð½Ñĭ":7383,"ÐµÐ²Ð¸ÑĩÐ°":7384,"ÐµÐ²ÑĭÐµ":7385,"ĠÐ¿ÑĥÑĪ":7386,"ĠÐ¾Ð³Ð½":7387,"ÐĵÐ°Ð·":7388,"ÐĿÐł":7389,"ĠÐ½Ð°Ð´ÐµÑı":7390,"ĠÑģÐ¾Ð¶":7391,"ĠÐ¿Ð¾Ð¶Ð°ÑĢ":7392,"ĠÐ¯Ð¿":7393,"ĠÐºÐ°ÑĪ":7394,"ĠÑħÑĥÐ´Ð¾Ð¶Ðµ":7395,"Ð½Ð°Ð´ÑĨÐ°ÑĤ":7396,"ĠÐ³Ð°Ð·ÐµÑĤ":7397,"Ð°Ð±Ð¾Ñĩ":7398,"ÐµÑĢÑĤÐ°":7399,"ĠÑģÐ¿Ð¾ÑģÐ¾Ð±ÐµÐ½":7400,"ĠÑģÐ¾Ð¾ÑĤÐ²ÐµÑĤÑģÑĤÐ²Ð¸Ð¸":7401,"ÐµÐ½ÑĤÐ¾Ð¼":7402,"Ð¾Ð¿ÑĢÐµÐ´":7403,"ÑıÐ¿":7404,"ĠÑģÑĤÑĭÐ´":7405,"ĠÐĿÐµÐ±":7406,"ĠÑģÐ¿ÑĢÐ¾ÑģÐ¸ÑĤÑĮ":7407,"Ð¸Ð¼ÑĭÐµ":7408,"ĠÑĥÐ»ÑĥÑĩÑĪ":7409,"ĠÐ·Ð°ÐºÐ»Ð¸Ð½":7410,"ĠÑĩÐµÑĢÐµÐ¿":7411,"ĠÑĥÐ´Ð¾Ð²Ð¾Ð»ÑĮÑģÑĤÐ²Ð¸ÐµÐ¼":7412,"ĠÐ¿Ð¾ÑģÑĢÐµÐ´":7413,"ĠÐĴÐ°Ð½":7414,"ĠÐ´ÐµÑĢÐµÐ²ÑĮÐµÐ²":7415,"ĠÐ¾Ð±ÑĢÐ°Ð·Ð¾Ð²Ð°Ð½Ð¸Ñı":7416,"Ð¸Ð²ÑĪÐ¸ÐµÑģÑı":7417,"ĠÐ¿Ð¾ÑĢÑıÐ´ÐºÐ°":7418,"ĠÐŁÐµÑĢÐ²ÑĭÐ¹":7419,"ÐµÑĤÐ¾Ð²":7420,"ĠÐºÐ¾ÑĢÐ¿ÑĥÑģ":7421,"ĠÐºÐ²Ð°ÑĢÑĤÐ¸ÑĢÑĥ":7422,"ĠÐ¸Ð½Ð´Ð¸Ð²Ð¸Ð´Ñĥ":7423,"ĠÐºÐ¾Ð¼Ð°Ð½Ð´Ð°":7424,"ÂłÐļÑĤÐ¾":7425,"ÂłÐļÐ¾Ð½ÐµÑĩÐ½Ð¾":7426,"ĠÐ¾Ð±Ð½Ð°ÑĢÑĥÐ¶Ð¸Ð»":7427,"Ð»Ð¸ÑĤ":7428,"ĠÐºÐ½Ð¸Ð³Ðµ":7429,"ĠÐ²Ð¾ÐµÐ½Ð½Ð¾Ð¹":7430,"Ð¾Ð²Ð°Ð½Ð½ÑĭÑħ":7431,"ÐĿÐŀ":7432,"ÐĽÐĲ":7433,"ĠÐ±ÑĥÐ¼Ð°Ð¶":7434,"ĠÑģÐ»Ð¾":7435,"ÑģÑĤÐµÑĢ":7436,"ĠÐ²Ð·Ð±":7437,"ĠÐºÐ¾Ð´":7438,"ĠÑĦÐ¸Ð»ÑĮÐ¼":7439,"ĠÐ¾Ð´ÐµÐ¶Ð´Ñĥ":7440,"Ð¸ÑĢÐ¾Ð²Ð°Ð½Ñĭ":7441,"ĠÐ±Ñĥ":7442,"ĠÑĦÐ¾Ð½Ðµ":7443,"ĠÑĥÑģÐ»ÑĥÐ³":7444,"ĠÐ¿Ð¾Ð²ÑĤÐ¾ÑĢÐ¸Ð»":7445,"ÑģÑĤÐ²ÐµÐ½Ð½Ð¾Ð¼":7446,"ĠÐ´Ð½ÐµÐ²":7447,"ĠÐ±ÑĭÐ²ÑĪÐ¸Ð¹":7448,"ĠÐ¾ÑĤÐ²ÐµÑĩÐ°Ð»":7449,"ĠÐ¾Ð³Ð»Ñı":7450,"ĠÐ¿Ð¾Ð½Ð¸Ð¼Ð°ÑĤÑĮ":7451,"ÑģÐ¸Ñı":7452,"ĠÑģÐ¸Ð´Ð¸ÑĤ":7453,"ĠÐ½Ð°Ð¼Ð½Ð¾Ð³Ð¾":7454,"ĠÐ¡Ð¾Ð³Ð»Ð°ÑģÐ½Ð¾":7455,"ĠÑįÐºÑģÐ¿ÐµÐ´":7456,"ĠÐºÑĢÐµÑģÐ»Ð¾":7457,"ÑĭÐ²Ð°Ð½Ð¸Ñı":7458,"ĠÐ¤ÐµÐ´ÐµÑĢÐ°ÑĨÐ¸Ð¸":7459,"ĠÐ¸Ð½Ð¶ÐµÐ½ÐµÑĢ":7460,"ĠÐ²Ð½Ð¸Ð·Ñĥ":7461,"ĠÐĿÐ°Ð²":7462,"ĠÐĶÐ¾Ð¼":7463,"35":7464,"ĠÑģÐ¸Ð»Ð°Ñħ":7465,"ĠÐŁÐ°ÑĢÐ¸Ð¶":7466,"Ð³Ð¾Ð»":7467,"ĠÐ¡ÐµÐ²":7468,"ĠÑīÐµÐ»":7469,"ÑħÐ¸":7470,"ĠÐ¸Ð·Ð¼ÐµÐ½ÐµÐ½Ð¸Ñı":7471,"ĠÐ·Ð°Ð²Ð¾ÐµÐ²":7472,"ÐµÑĤÐµÑģÑĮ":7473,"ĠÑĤÐµÐ»ÐµÐ³":7474,"ĠÐ¿Ð°Ð¿Ð°":7475,"ĠÐºÐ½Ð¾Ð¿":7476,"ĠÐ²ÐµÐ»Ð¸ÑĩÐµ":7477,"ĠÐĿÐµÐºÐ¾ÑĤÐ¾ÑĢÑĭÐµ":7478,"ĠÐ±ÐµÐ¶Ð°ÑĤÑĮ":7479,"ĠÐ´Ð²Ð¾Ð¹":7480,"________":7481,"ĠÑĢÐ°ÑģÑģÐ»Ð°Ð±":7482,"ĠÐ²Ð¿Ð»Ð¾ÑĤ":7483,"ĠÐ¿ÑĢÐ¸Ð½Ð¾Ñģ":7484,"Ð½ÐµÐ½Ð¸Ñı":7485,"ĠÐĲÐ½Ð³Ð»Ð¸Ð¸":7486,"ĠÑįÐ»ÑĮÑĦ":7487,"ĠÑĪÐºÐ¾Ð»Ñĥ":7488,"ĠÐºÑĢÐ¾Ð²ÑĮÑİ":7489,"ĠÐľÑĥÑĢ":7490,"ĠÐĺÐ¾":7491,"ĠÐ¿Ð¾Ð»ÐºÐ°":7492,"ĠÐºÐ°ÑĤÐ°ÑģÑĤÑĢÐ¾ÑĦ":7493,"ĠÐ²ÑģÑıÐºÐ¾Ð³Ð¾":7494,"ĠÐ¶ÐµÐ½Ð¾Ð¹":7495,"ĠÐ»Ð°Ð¼Ð¿":7496,"ÑĮÑıÐ²":7497,"ĠÑĢÐ°Ð·Ð²Ð¸ÑĤÐ¸Ðµ":7498,"ĠÐ¾ÑĤÐºÑĢÑĭÑĤÑĮ":7499,"ĠÐ²ÑĢÐ°Ð³Ð°":7500,"ĠÐ´Ð¾Ð¶":7501,"ĠÐ¿ÑĢÐ¸ÑĩÐ¸Ð½Ðµ":7502,"ĠÐ¿Ð¾Ð¼Ð¾Ð¶ÐµÑĤ":7503,"ĠÐ¿ÑĢÐ¸Ð´ÐµÑĤ":7504,"ĠÐ¾Ð±ÑĢÐ°Ð´":7505,"Ð¾Ð²Ð°Ð½Ð½ÑĭÐµ":7506,"ĠÑģÐ±Ð¾ÑĢÐ½Ð¾Ð¹":7507,"ĠÐ²ÐµÐ´ÐµÑĤ":7508,"Ð¸Ð½Ð°Ñħ":7509,"ĠÑģÐ¼Ð¸ÑĢ":7510,"Ð±Ð¾Ð»ÑĮ":7511,"ÂłÐŁÐ¾":7512,"ĠÑģÐ¿Ð°ÑģÐ¸Ð±Ð¾":7513,"ĠÐ²Ð·Ð´ÑĢÐ¾Ð³":7514,"ĠÐ¿ÑĢÐ¾ÑĨÐµÐ½ÑĤÐ¾Ð²":7515,"ĠÐ¡Ð¸Ð´":7516,"ÑİÐ½":7517,"Ð¸ÑģÐ»Ð°Ð²":7518,"ĠÑĢÐ¾ÑģÐºÐ¾ÑĪ":7519,"ÑĢÐ¸Ñħ":7520,"Ð¸Ð»Ð¾Ð²":7521,"Ð¾Ð²Ð°Ð½Ð¾":7522,"ĠÑģÐ½ÑıÐ»":7523,"ĠÐ¿Ð»Ð°Ð½Ñĭ":7524,"ĠÐ¿ÑĢÐ¾ÑĦÐµÑģÑģÐ¾ÑĢ":7525,"ÑıÑİÑī":7526,"ĠÐ¾ÑĤÐºÐ°Ð·Ð°Ð»ÑģÑı":7527,"Ð»Ð¾Ð³Ð¾":7528,"ĠÐ²Ð·ÑıÐ»Ð¸":7529,"ĠÐ¡Ð°Ð²":7530,"ĠÑģÐ¿Ð¾ÑĢÑĤÐ¸Ð²":7531,"Ð¸Ð»Ñĭ":7532,"ÑĤÐµÑĢÐ°":7533,"ĠÐ²ÑĭÑħÐ¾Ð´Ð°":7534,"ĠÐ¿ÑĢÐ¾ÑĪÑĥ":7535,"ĠÐ¾Ð±ÑĬÑıÑģÐ½Ð¸Ð»":7536,"Ð°ÑĤÐ¾Ð¹":7537,"ĠÐ¿Ð¾Ð¸Ð½ÑĤÐµÑĢÐµÑģÐ¾Ð²Ð°Ð»ÑģÑı":7538,"Ð¢ÐµÐ¿ÐµÑĢÑĮ":7539,"ĠÑģÑĤÐ°ÐºÐ°Ð½":7540,"ĠÑĢÐ°ÑģÑģÐµ":7541,"ĠÐ·ÐµÐ»":7542,"ĠÑĤÑĢÐµÐ½ÐµÑĢ":7543,"ĠÐ·Ð°ÑīÐ¸ÑĤÑĭ":7544,"ĠÑĦÐ¾ÑĤÐ¾":7545,"ÐµÑģÐ¿Ð¾Ð½Ð´":7546,"ĠÐŀÑģÐ½Ð¾Ð²":7547,"ÑĢÐ¸Ð²":7548,"Ð°Ð»ÑĮÐ½Ð¾Ð¼Ñĥ":7549,"80":7550,"Ð¾ÑĩÐºÐ¾Ð¹":7551,"Ð¸Ð¼Ð¾Ð¼Ñĥ":7552,"ĠÐĲÐ½Ð½Ð°":7553,"ĠÑģÑĥÐ¼ÐµÐ»":7554,"Ð¾Ð±ÐµÐ´":7555,"ĠÐ¸ÑĤÐ¾Ð³":7556,"ÑĢÐ°Ð±Ð¾ÑĤ":7557,"Ð»Ð¸Ð¿":7558,"ÑģÐºÑĥ":7559,"ĠÐ¢ÐĲ":7560,"ÑĩÑĥ":7561,"ĠÑĢÐ¾ÑģÑĤÐ°":7562,"ĠÑĢÐ°Ð±Ð¾ÑĩÐ¸Ñħ":7563,"ÑĨÐ¸Ð¾Ð½Ð½ÑĭÑħ":7564,"ĠÐ¾Ð±ÑĭÐº":7565,"ĠÑģÐ¾Ð¾Ð±ÑĢÐ°Ð·":7566,"ÑĨÐ¸Ð¾Ð½Ð½Ð¾Ð³Ð¾":7567,"ĠÐĴÑģÑĳ":7568,"ĠÑıÑĢÐºÐ¾":7569,"ĠÐ¿Ð¾Ð¾Ð±ÐµÑī":7570,"Ð½Ð°Ð²":7571,"ĠÐŁÐ°":7572,"ĠÐ¸Ð½ÑĤÐµÑĢÐ²ÑĮÑİ":7573,"ĠÐ·Ð°Ð»Ð¾Ð¶":7574,"ĠÐµÐ²ÑĢÐµ":7575,"Ð¾ÑĩÐ¸":7576,"ĠÐ´Ð¾Ð±ÑĢÐ¾Ð²":7577,"Ð»Ð°Ñı":7578,"ĠÐ³ÑĢÐ°Ð´":7579,"ĠÐ¾Ð¿ÐµÑĢÐ°ÑĤÐ¸Ð²":7580,"ĠÐ¾ÑĤÑģÑĥÑĤÑģÑĤÐ²Ð¸Ðµ":7581,"ĠÐłÐ¾Ð·":7582,"ĠÐ¤Ð¸Ð½":7583,"ĠÐ¿ÑĢÐ¾Ð»ÐµÑĤ":7584,"ĠÐ³Ð¸Ð³Ð°Ð½ÑĤ":7585,"ĠÐºÐ¾Ð¼Ð°Ð½Ð´Ñĥ":7586,"ĠÐ½Ð°Ð½ÐµÑģ":7587,"Ð°ÐµÐ¼ÑĭÐµ":7588,"ĠÑģÐ¾ÐºÑĢÐ°Ñī":7589,"ĠÐĲÑĤ":7590,"ĠÐ¿Ð¾ÑģÑĤÐ°Ð²Ð¸ÑĤÑĮ":7591,"ĠÑįÑĦÑĦÐµÐºÑĤ":7592,"Ð°ÑĤÑĮÑı":7593,"ĠÐĶÐ°Ð²Ð°Ð¹":7594,"Ð¸Ð½ÑĥÐ»Ð°ÑģÑĮ":7595,"ÐµÑģÑĤÐ°":7596,"ĠÐŀÑĤÐº":7597,"ĠÐ½Ð°Ð·ÑĭÐ²Ð°ÑİÑĤ":7598,"ĠÐ¼ÑıÐ³ÐºÐ¾":7599,"ĠÐ¿ÑĢÐ¾ÐµÐºÑĤÐ°":7600,"ĠÐĿÐµÑģÐºÐ¾Ð»ÑĮÐºÐ¾":7601,"Ð¾Ð»Ð·":7602,"Ð°Ð²ÐºÐ°Ð·":7603,"ĠÐ½Ð°ÑģÑĤÐ°Ð²":7604,"ĠÐ¡Ð¾Ð²ÐµÑĤÐ°":7605,"ĠÑģÑĤÐ°ÑĢÐ°Ð»ÑģÑı":7606,"ĠÑĥÑĪÐ¸":7607,"ĠÐ´ÐµÐ¶ÑĥÑĢ":7608,"ĠÑĢÐ°ÑģÑģÐºÐ°Ð·ÑĭÐ²Ð°Ð»":7609,"ÐµÑģÑĤÐ½Ð¾":7610,"ĠÐ¾Ð´ÐµÑĤ":7611,"ÐļÐ¾Ð½":7612,"Ð¾Ð´Ð¾Ð±":7613,"ĠÐļÑĥÐ·":7614,"ĠÐľÐµÑĢ":7615,"Ð¸Ð¼ÑĭÑħ":7616,"ĠÑĢÑĥÑħ":7617,"ĠÐĹÐ°Ð±":7618,"ĠÐ½ÐµÐ²Ñĭ":7619,"ĠÐ³ÑĢÐ¾Ð±":7620,"ĠÑģÐ°Ð¼ÑĥÑİ":7621,"ĠÐ½Ð¾Ð²Ð°Ñı":7622,"ĠÑģÐ¿Ð¸ÑģÐº":7623,"ĠÐ´ÐµÑĢÐ¶Ð°Ð»":7624,"Ð²ÑıÑĤ":7625,"Ð²ÑıÐ·":7626,"ĠÐ¿Ð¾Ð´Ð¾Ð±Ð½ÑĭÑħ":7627,"ĠÐ¿Ð°Ð»ÑĥÐ±":7628,"ĠÑģÐºÐ°Ð¼":7629,"ĠÐ¼ÑĭÑģÐ»Ñı":7630,"ĠÐ³Ð³":7631,"ĠÐĺÐ²Ð°Ð½Ð¾Ð²Ð¸Ñĩ":7632,"Ð¸Ð½Ð°Ð¼Ð¸":7633,"ÑģÑĤÐ²Ð¸Ð¹":7634,"Ð¡Ð°Ð¼":7635,"ÐºÐµÑĢ":7636,"ĠÐ¸ÑģÐºÑĥÑģÑģÑĤÐ²Ð°":7637,"ĠÐ²Ð¾ÑĪÐ»Ð¸":7638,"ĠÐ¾ÑĢÐ¸":7639,"ĠÑĢÐµÐ²Ð¾Ð»ÑİÑĨÐ¸Ð¸":7640,"ĠÐ¼Ð¸Ð½Ð¸ÑģÑĤÑĢ":7641,"ĠÐ±ÑĢÑİ":7642,"Ð½ÑĥÐ»Ð¾ÑģÑĮ":7643,"ĠÐºÐ¸ÑĢ":7644,"ÐµÐ¶Ð´Ðµ":7645,"Ð½ÐµÑĪÑĮ":7646,"ĠÐľÐ¾ÑģÐºÐ²Ð°":7647,"ĠÑģÐ¾Ð·Ð´Ð°Ð½Ð¸Ñı":7648,"ĠÐ¼Ð¸ÑĤ":7649,"ĠÑĥÐ±Ð¸Ð»":7650,"ĠÐ¾ÑģÑĤÐ°Ð²Ð°ÑĤÑĮÑģÑı":7651,"Ð»Ð¸Ð»":7652,"ĠÐ¼Ð°ÑģÑĪÑĤÐ°Ð±":7653,"ĠÐºÐ²Ð°ÑĢÑĤÐ¸ÑĢÐµ":7654,"ĠÐ¿ÑĢÐ¸Ð·Ð½Ð°":7655,"ĠÐ²ÑĭÑģÐºÐ°Ð·ÑĭÐ²":7656,"Ñŀ":7657,"ĠÐ¿ÑĢÐ¸Ð¹":7658,"ĠÐ¾Ð±ÑĬÑıÑĤ":7659,"ĠÑģÑĤÐ¾ÑıÐ²":7660,"ĠÐ²Ð¾Ð»Ð½Ñĥ":7661,"ĠÐ¸Ð¼Ð¿ÐµÑĢÐ¸Ð¸":7662,"Ð°Ð²ÑĪÐ¸Ð¼":7663,"ĠÐºÑĢÐ°Ñİ":7664,"ĠÐ¿ÑĢÐ¸Ð²Ð¾Ð´Ð¸ÑĤ":7665,"ĠÐ¾ÑĤÑĬ":7666,"ĠÐ§ÐµÐ³Ð¾":7667,"ĠÐ²Ð·Ð´":7668,"ĠÐ¾ÑĤÐ½Ð¾ÑĪÐµÐ½Ð¸Ñİ":7669,"ĠÐ¿ÑĢÐµÐ·ÑĢ":7670,"Ð¸ÑģÑĤÐ°Ð½":7671,"ÑĦÑĢ":7672,"ĠÐ²Ð±":7673,"Ð¸ÑĢÐ¾Ð²Ð°Ð½Ð½ÑĭÑħ":7674,"ĠÐ¾Ð±ÑīÐµÐ¹":7675,"ĠÑģÐ¼ÐµÐ»":7676,"ÑĦÐ¸ÑĨÐ¸":7677,"ĠÐ»ÐµÐºÐ°ÑĢ":7678,"Ð²ÑĤÐ¾ÑĢÑĭÑħ":7679,"Ð¸ÑĤÐ»":7680,"ĠÐ¿ÑĢÐ¸ÑĢÐ¾Ð´":7681,"ĠÑĤÐ¾Ð½Ð¾Ð¼":7682,"Ð´Ð²Ð°":7683,"ĠÐ¶ÐµÐ½Ñĥ":7684,"ĠÐºÑĢÐ¾Ð²Ð°ÑĤÑĮ":7685,"Ġ2010":7686,"ÐµÑĢÐ½":7687,"ĠÑĤÐ¾Ð½Ð½":7688,"Ð°Ð¸":7689,"ĠÐŀÑģÐ¾Ð±ÐµÐ½Ð½Ð¾":7690,"Ð²Ð¾ÑĤ":7691,"ĠÑĩÐ¸ÑģÐ»Ð°":7692,"Ð´Ñı":7693,"ĠÐºÐ¾Ð½ÑĤÐ°ÐºÑĤ":7694,"ÐµÐ´ÐµÐ»ÑĮ":7695,"ÐµÐºÑĢÐµÑĤ":7696,"ĠÐ©":7697,"ĠÐ·Ð°Ð¿Ð»Ð°ÑĤ":7698,"ĠÐ¶Ð°Ð»ÑĮ":7699,"ĠÐĹÐ°ÑĤÐ¾":7700,"ÐºÐ¾ÑģÑĤÐ¸":7701,"ĠÑĢÑĭÐ¶":7702,"ĠÐ¸Ð¼Ð¿ÐµÑĢÐ°ÑĤÐ¾ÑĢ":7703,"ĠÐĿÐ°Ð¿Ð¾Ð¼Ð½Ð¸Ð¼":7704,"ĠÑģÑĢÐ°Ð²Ð½ÐµÐ½Ð¸Ñİ":7705,"ĠÐ¾Ð³Ð»ÑıÐ´ÐµÐ»":7706,"ĠÐ½ÐµÐ´ÐµÐ»ÑĮ":7707,"ĠÑģÐ¼ÑĭÑģÐ»Ð°":7708,"ĠÐ¿Ð¾Ð»Ð¾Ð¶ÐµÐ½Ð¸Ð¸":7709,"ĠÑĢÐ°ÐºÐµÑĤ":7710,"ĠÐ½ÐµÐ½Ð°Ð²Ð¸Ð´":7711,"ĠÐ¿Ð¾Ð³Ð¾":7712,"ĠÐĿÑĥÐ¶Ð½Ð¾":7713,"ĠÐ²ÑĭÑħÐ¾Ð´Ð¸ÑĤ":7714,"ĠÐ·Ð°ÐºÐ¾Ð½Ð°":7715,"ĠÑīÐµÐº":7716,"ĠÐ¾Ð±ÑĭÐºÐ½Ð¾Ð²":7717,"ĠÐŁÐ¾ÑħÐ¾Ð¶Ðµ":7718,"Ġ2012":7719,"ĠÑĢÐ°Ð´Ð¾ÑģÑĤÐ¸":7720,"ĠÑħÑĢÐ¸Ð¿":7721,"ĠÐ±Ð¾ÑĢÑĮÐ±Ðµ":7722,"ĠÐ¿Ð¾Ð´Ð¾Ð¶Ð´":7723,"ÑĢÑĥÐ½":7724,"ĠÑģÑĥÐ´ÑĮÐ±Ð°":7725,"ĠÐ¼ÐµÑģÑĤÐ½ÑĭÑħ":7726,"ĠÐ´ÐµÐ¼Ð¾Ð½ÑģÑĤÑĢ":7727,"ĠÐºÐ½ÑıÐ·Ñı":7728,"ĠÐ£Ð±":7729,"ĠÐļÐ°ÐºÐ¾Ð¹":7730,"ĠÐļÑĥÐ´Ð°":7731,"ĠÐłÐ¸Ñĩ":7732,"ĠÐºÐ¾Ð·":7733,"ĠÐ¿ÑĢÐµÑģÑĤÑĥÐ¿Ð»ÐµÐ½Ð¸Ñı":7734,"ĠÑģÐ²Ð¾Ð±Ð¾Ð´Ñĭ":7735,"ĠÐ¿ÑĢÐ¾ÑĤÑıÐ¶ÐµÐ½Ð¸Ð¸":7736,"ĠÑĢÐ¾Ð´Ð¸Ð»ÑģÑı":7737,"ĠÐĽÐ¾ÑĢ":7738,"Ð¸ÑĢÐ°ÐµÑĤ":7739,"Ð½ÑıÐµÑĤÑģÑı":7740,"ĠÑĦÐµÐ´ÐµÑĢ":7741,"ĠÐ²Ð»Ð¸ÑıÐ½Ð¸Ðµ":7742,"ĠÐ¿ÑĢÐ°Ð²Ð¸Ð»Ð°":7743,"ĠÐ´ÑĥÐ¼Ð°ÐµÑĤ":7744,"ÂłÐ¢Ð¾Ð³Ð´Ð°":7745,"ĠÐ³Ð»Ð°Ð²Ð½Ð¾Ð³Ð¾":7746,"ĠÐ¾Ð¶Ð¸Ð²":7747,"ĠÐ²Ð¾Ð·ÑĢÐ°ÑģÑĤÐµ":7748,"ĠÐ¿Ð°ÑĢÐ°":7749,"ĠÑĢÐ°Ð·Ð¼ÐµÑī":7750,"ĠÐ±Ð¾Ð»ÐµÐ·Ð½Ð¸":7751,"Ð³Ð¾ÑĤ":7752,"Ð°ÑĤÐµÐ»ÑĮÐ½Ð¾Ðµ":7753,"ĠÐ¿ÑĭÑĤÐ°Ð»Ð¸ÑģÑĮ":7754,"ÐµÑģÑĤÑĢ":7755,"ÐµÐ¹ÑĤ":7756,"Ð°Ð´Ð¸Ð¼":7757,"ÐĿÐĲ":7758,"ĠÑģÑĥÐ´ÐµÐ±":7759,"ĠÐ¿Ð¾Ð´Ð¾Ð±Ð½ÑĭÐµ":7760,"ĠÐ»Ð°Ð±Ð¾ÑĢÐ°ÑĤÐ¾ÑĢ":7761,"ĠÑĢÐ°ÑģÑĤÐ²":7762,"Ð¸Ð½Ð³Ð°":7763,"ĠÑģÑħÐ²Ð°ÑĤÐ¸Ð»":7764,"ĠÐ²ÐµÑĢÐ½ÑĥÑĤÑĮ":7765,"ĠÐ·Ð°ÑıÐ²Ð¸Ð»Ð°":7766,"ÑĤÐµÑĢÐ½":7767,"ĠÐ¿ÑĢÐµÐ´ÑĥÐ¿ÑĢÐµÐ¶Ð´":7768,"ĠÐµÐ´Ð¸":7769,"Ð°ÑİÑīÐ¸ÐµÑģÑı":7770,"ĠÐ¿Ð¾Ð¼ÐµÑģÑĤ":7771,"Ð¸Ð»ÐµÐ¹":7772,"ĠÑĤÑĢÐµÐ¿":7773,"ĠÐ¿Ð¾Ð¹Ð´ÐµÑĤ":7774,"ĠÑĤÐ°Ð¸Ð½":7775,"ĠÑģÑĤÐ¾Ð»Ñĥ":7776,"ĠÐ¸Ð·Ð¾Ð±ÑĢ":7777,"ĠÐ²ÑĭÐ´Ð¾Ñħ":7778,"Ð¾ÑĢÐ°Ð´":7779,"ĠÑĤÐ¾ÑĤÑĩÐ°Ñģ":7780,"ĠÐĶÐ¶Ð¾ÑĢÐ´Ð¶":7781,"ĠÑĥÐ¿Ð¾Ð¼":7782,"Ð°Ð´ÑĢÐ°ÑĤ":7783,"ĠÐ±ÐµÑģÐ¿ÑĢ":7784,"ĠÐ¿ÑĢÐ¾Ð·Ð²ÑĥÑĩ":7785,"ĠÐ¿Ð¾Ð´ÑģÐº":7786,"ĠÐ¿Ð¾ÑıÑģÐ½Ð¸Ð»":7787,"ĠÐ¿Ð¾ÐºÑĢÑĭÐ²":7788,"ÐµÐ²ÑĭÐ¼":7789,"ĠÐŀÑĤÐµÑĨ":7790,"ÐµÐ½Ð´Ð°":7791,"ĠÐ½Ð¸ÐºÑĥÐ´Ð°":7792,"ĠÐ²Ð¾Ð·Ð²ÑĭÑĪ":7793,"ĠÑĤÐ²Ð¾Ðµ":7794,"ĠÐ¿ÑĢÐ¸ÑĢÐ¾Ð´Ñĭ":7795,"ĠÑĤÐ°Ð»Ð°Ð½ÑĤ":7796,"ĠÐĳÐ¾Ð³Ñĥ":7797,"Ġ31":7798,"ĠÑĥÑģÐ¿ÐµÐ»Ð¸":7799,"ĠÑģÐ²ÐµÐ´ÐµÐ½Ð¸Ñı":7800,"ĠÐ·Ð°ÐºÐ°Ð½ÑĩÐ¸Ð²":7801,"ĠÐ²ÐµÐ·":7802,"ĠÑıÐ¹":7803,"ĠÐ¡ÐµÑĢÐ³Ðµ":7804,"Ð°ÑģÐ¾Ð²":7805,"ĠÐ¿ÑĢÐ¸Ð»Ð¾Ð¶":7806,"ĠÑĤÑĢÐµÐ²Ð¾Ð¶":7807,"ĠÐ¿Ð¾Ð´Ð¾Ð±Ð½Ð¾Ð³Ð¾":7808,"ĠÐ¡ÐµÐ½":7809,"Ð¾ÑĪÐµÐ»":7810,"ĠÐºÑĥÑĢÑĤ":7811,"ĠÐĶÐµÐ¼":7812,"ĠÐ²ÑĭÐ³Ð»ÑıÐ´Ð¸ÑĤ":7813,"ĠÐ¾Ð±Ð¸Ð¶":7814,"ĠÐ½ÐµÐ·Ð°Ð¼ÐµÑĤ":7815,"ĠÑĩÐµÑĢÐ½ÑĭÐµ":7816,"ĠÑģÐ¾Ð²ÐµÑĢÑĪÐµÐ½":7817,"ĠÐ½ÐµÐ²Ð¾Ð»ÑĮÐ½Ð¾":7818,"ĠÑĥÑĪÐ»Ð°":7819,"ĠÑģÐ¿Ð¸Ð½Ðµ":7820,"ĠÐ±ÐµÑĢÐµÐ³Ð°":7821,"ĠÑģÐ¾Ð¾Ð±ÑĢÐ°Ð¶":7822,"ĠÐ¿Ð¾Ð»ÑĥÑĩÐ¸ÑĤÑģÑı":7823,"Ð°ÑħÐ°":7824,"ĠÐ¼ÐµÑĢÐ·":7825,"Ð¾Ð¼Ð½ÐµÐ½Ð½Ð¾":7826,"Ð¸ÑĩÑĮ":7827,"ĠÑĥÑĩÐ¸ÑĤÐµÐ»ÑĮ":7828,"ÐµÑĪÐµÐ½":7829,"ĠÐ´Ð¸Ñģ":7830,"ÑĮÑİÑĤ":7831,"Ð¾Ð²ÑĭÐ¼Ð¸":7832,"ĠÐ¼Ð¸ÑĢÑĥ":7833,"ÑĥÑİÑīÐµÐ³Ð¾":7834,"ĠÐ³ÑĢÐ°Ð½Ð¸ÑĨÑĭ":7835,"ĠÐ¿ÐµÑĢÐµÐ´Ð°ÑĤÑĮ":7836,"Ġ<":7837,"Ð¸Ð²Ð°Ð»Ð¾":7838,"ĠÐ¿Ð¾Ð´Ð½ÑıÐ»Ð°":7839,"ĠÐ»ÐµÐ¹ÑĤÐµÐ½Ð°Ð½ÑĤ":7840,"ĠÑĥÐ²ÐµÑĢÐµÐ½Ð°":7841,"ĠÐ¼Ð¾Ð»Ð¾Ð´ÑĭÑħ":7842,"ĠÐ¡Ð°ÑĢ":7843,"ĠÐ³Ð²Ð°ÑĢÐ´":7844,"Ð½ÐµÐ¹ÑĪÐ¸Ñħ":7845,"ĠÐ´ÐµÐ²ÑıÑĤÑĮ":7846,"ÑĥÐ³Ð¾Ð»ÑĮ":7847,"ĠÑĤÑĢÐ¾Ð³":7848,"ĠÑĢÐ¸Ð¼":7849,"ĠÐ¸Ð·Ð³Ð¾ÑĤÐ¾Ð²":7850,"ĠÐ¾Ð±Ð½Ð°Ð¶":7851,"ĠÐ¿Ð¾Ð´Ð±Ð¾ÑĢÐ¾Ð´":7852,"ĠÑģÑĤÐ°ÑĤÐ¸ÑģÑĤ":7853,"ĠÑģÐ°ÑĢ":7854,"Ġ70":7855,"ĠÑįÐ»ÐµÐºÑĤÑĢÐ¾Ð½":7856,"ÑĳÐ½Ð½ÑĭÑħ":7857,"ĠÐ²Ð½ÐµÑģ":7858,"ĠÑģÐ»ÑĥÐ¶Ð±Ñĥ":7859,"âĢĿ,":7860,"ĠÐĴÐ°Ð»ÐµÐ½ÑĤ":7861,"ĠÑģÑĤÑĢÐ¾Ð³":7862,"ÑģÐ»Ð°Ð²":7863,"ĠÐ°ÑĢÑħÐ¸ÑĤ":7864,"ĠÐ¿Ð¾Ð²ÑĢÐµÐ¶Ð´":7865,"ĠÐ¶Ð¸ÑĤÐµÐ»Ð¸":7866,"ĠÐ½ÐµÐ¸Ð·Ð²ÐµÑģÑĤÐ½Ð¾":7867,"ĠÑĤÑĥÐ¼Ð°Ð½":7868,"ÐµÐ»Ð»ÐµÐº":7869,"ĠÐ´Ð¾ÑĢÐ¾Ð³Ð°":7870,"ĠÐ¾Ð±ÐµÑĢÐ½ÑĥÐ»ÑģÑı":7871,"ĠÐ¸Ð½ÑĦÐ¾ÑĢÐ¼Ð°ÑĨÐ¸Ñı":7872,"ĠÑĤÑĢÐµÐ±Ð¾Ð²Ð°Ð½Ð¸Ñı":7873,"ĠÑĥÐ²Ð»ÐµÐº":7874,"ĠÑİÐ±":7875,"Ð¾Ð¿ÑĢÐ¾":7876,"ĠÑģÐ²Ð°Ð´ÑĮ":7877,"ĠÐ³Ð°Ð·ÐµÑĤÑĭ":7878,"ĠÐ²ÐºÐ»Ð°Ð´":7879,"ĠÐ¿ÑĭÑĤÐ°Ð»Ð°ÑģÑĮ":7880,"ĠÐ¿Ð»Ð¾Ð´":7881,"ÑĤÐ¾ÑĢÐ¾Ð¿":7882,"ĠÐ½ÐµÐ³Ð¾Ð´":7883,"ĠÐ²ÐµÐ·Ð´Ðµ":7884,"ĠÐ¿ÑĢÐ¸Ð¹ÑĤÐ¸":7885,"Ð¿Ð°Ð½Ð¸Ð¸":7886,"ĠÑĥÐ²Ð¸Ð´ÐµÐ²":7887,"ĠÐ´ÐµÑĢÐµÐ²ÑĮÑı":7888,"ĠÐĺÐ·ÑĢÐ°":7889,"ĠÑģÐ»ÑĭÑĪÐ°Ð»Ð°":7890,"ĠÐ¸Ð´ÐµÐ¸":7891,"ÐłÐ¾ÑģÑģ":7892,"ĠÐ¾Ð¿ÑĥÐ±Ð»Ð¸Ðº":7893,"ĠÑĥÐ´Ð°ÑĢÐ°":7894,"ĠÐ²ÑģÐ¿Ð¾Ð¼Ð½Ð¸ÑĤÑĮ":7895,"ĠÐºÑĢÐ¾ÑĪ":7896,"Ġ&":7897,"ĠÐ¾Ð´ÐµÑı":7898,"ĠÑģÐ»Ð¸Ð²":7899,"ĠÑģÑĥÑĤÐ¸":7900,"ĠÐŁÑĥÑĪ":7901,"ĠÑģÑĤÑĢÐµÐ»Ñı":7902,"ĠÑģÑĤÑĢÐ°Ð½Ñĥ":7903,"ĠÐ¸ÑģÑĤÐ¾ÑĩÐ½Ð¸Ðº":7904,"ÐŁÑĢÐ°Ð²":7905,"Ð½ÐµÐ»":7906,"ĠÐŁÐµÑĤÐµÑĢÐ±ÑĥÑĢ":7907,"ĠÐĽÐ°ÑĢ":7908,"ĠÑģÐ¾ÑĤÑĢÑĥÐ´Ð½Ð¸ÑĩÐµ":7909,"ÑģÐ¸Ð½":7910,"Ð¾Ð¼Ð¾Ñī":7911,"ĠÐĴÑģÐµÐ³Ð¾":7912,"ĠÑĥÐ´Ð°ÑĢÐ¸Ð»":7913,"ĠÐ¿ÑĢÐ¾ÑĪÐµÐ¿ÑĤÐ°Ð»":7914,"ĠÑĢÐ°Ð´Ð¾ÑģÑĤÑĮ":7915,"Ð°Ð¶ÐµÑĤ":7916,"ĠÑģÐ¾ÑĤÑĢÑĥÐ´Ð½Ð¸ÐºÐ¾Ð²":7917,"ĠÑĤÑĢÐµÐ±ÑĥÐµÑĤ":7918,"ĠâĢ¦":7919,"ĠÐĲÐ²ÑģÑĤÑĢ":7920,"ĠÐ½Ð°ÑģÐ¼ÐµÑĪ":7921,"ĠÐ²Ð»Ð°Ð´ÐµÐ»ÑĮ":7922,"ĠÐ¸Ð·Ð±Ð¸ÑĢ":7923,"ĠÐ¶Ð¸Ð²ÑĭÑħ":7924,"ÑıÑīÐ°Ñı":7925,"ĠÐ²ÑģÑĤÑĢÐµÑĩÐµ":7926,"ĠÑģÐ¾Ð±Ð¸ÑĢÐ°ÐµÑĤÑģÑı":7927,"Ð¸ÑĩÐ½Ð¾Ð¹":7928,"ĠÐ¿Ð°ÑĢÐ½Ñı":7929,"ĠÑıÐºÐ¾Ð±Ñĭ":7930,"ÑĦÐµÐ»ÑĮ":7931,"ĠÐ½Ð¾Ð²Ð¾ÑģÑĤÐ¸":7932,"ĠÑĢÐµÐ¶Ð¸ÑģÑģ":7933,"ĠÑģÐ°Ð¹ÑĤÐµ":7934,"ĠÐľÐ¸ÑħÐ°Ð¹Ð»Ð¾Ð²":7935,"ĠÐ´Ð¸Ð²Ð¸Ð·Ð¸Ð¸":7936,"ĠÑģÐºÑĢÑĭÑĤ":7937,"ĠÑģÐ»ÐµÐ´Ñĭ":7938,"ĠÑĢÐ°Ð·Ð½Ð¾Ð¾Ð±ÑĢÐ°Ð·":7939,"ĠÐ³Ð¾ÑĢÑĮ":7940,"ĠÐºÐ¾ÑĢÐ°Ð±Ð»ÐµÐ¹":7941,"ĠÐĿÐ°Ð·":7942,"ĠÑĩÐµÐ¼Ð¿Ð¸Ð¾Ð½Ð°ÑĤÐ°":7943,"ÐµÐ²Ð°Ñı":7944,"ĠÐ²ÑĤÐ¾ÑĢÐ¾Ð¼":7945,"ÑĢÐ¾Ð²Ð°":7946,"ĠÐ´ÐµÐ»Ð°Ð»Ð¸":7947,"ĠÑģÐ°Ð½":7948,"ĠÐ·Ð´Ð°Ð½Ð¸Ðµ":7949,"ĠÐ´Ð¾Ð½ÐµÑģ":7950,"ĠÑģÐ¸Ð³Ð½":7951,"ÐµÐ½ÑĨÐµÐ²":7952,"Ð°ÑĤÑģÑı":7953,"ĠÐ³ÑĥÐ»Ñı":7954,"ĠÐ½Ð¾Ð²ÑĭÐ¼":7955,"ĠÐ¾ÑĤÐ½Ð¾ÑģÐ¸ÑĤÑģÑı":7956,"ĠÑģÐµÑĤÐ¸":7957,"âĢĿ.":7958,"ĠÐ¿Ð°ÑģÑĤ":7959,"ĠÐ¿ÑĢÐ¾Ð²ÐµÑĢÐ¸ÑĤÑĮ":7960,"ÂłÂ«":7961,"ĠÐ¿ÑıÑĤÑĮÐ´ÐµÑģÑıÑĤ":7962,"ÐµÐ½ÑĮÑı":7963,"ĠÐ°ÑĢÐ¼Ð¸Ñı":7964,"ĠÑĢÐ°ÑģÑģÑĤÐ°Ð²":7965,"Ð°ÑĩÐµ":7966,"Ð¡Ðº":7967,"ĠÑĢÐ°Ð´Ð¸Ð¾":7968,"ĠÐºÐ¾ÑĢÐ°Ð±Ð»Ð¸":7969,"ĠÐ¿Ð¾Ð´Ð°Ð»ÑĮÑĪÐµ":7970,"ĠÐ¸Ð½Ð¾ÑģÑĤÑĢÐ°Ð½Ð½ÑĭÑħ":7971,"Ð¾Ð±Ð¾ÑĢ":7972,"ĠÐ¿ÑĢÐ¸Ð±Ð¾ÑĢ":7973,"ĠÐ·Ð°Ð³Ð¾Ð²Ð¾ÑĢÐ¸Ð»":7974,"ĠÐ»Ð¸ÑĩÐ½Ð¾ÑģÑĤÐ¸":7975,"ĠÑĢÐµÐ·ÑĥÐ»ÑĮÑĤÐ°ÑĤÑĭ":7976,"ĠÐ¸Ð³ÑĢÑĥ":7977,"ĠÑģÐ°Ð¼Ð¸Ð¼":7978,"ÐµÐºÐ°Ð½":7979,"ĠÑģÐ¾Ð±Ð°Ðº":7980,"Ð½ÐµÑĨ":7981,"ĠÐ²ÑĭÐ¼":7982,"ĠÐ²Ð¾Ð»Ð¸":7983,"ĠÑıÐ´ÐµÑĢ":7984,"ĠÐ²Ð¾Ð²ÑĢÐµÐ¼Ñı":7985,"ĠÑĩÐ¸ÑģÑĤÐ¾":7986,"ĠÑħÐ¾Ð·ÑıÐ¸Ð½Ð°":7987,"ĠÐ¿ÑĢÐ¾Ð³ÑĢÐ°Ð¼Ð¼":7988,"ĠÐ¿ÑĢÐ¸Ð½ÑıÐ»Ð¸":7989,"ĠÐ¿ÑĢÐ¸Ð½Ð°Ð´Ð»ÐµÐ¶Ð¸ÑĤ":7990,"ÑĩÐ°ÑģÐ°":7991,"ĠÐ¾Ð´Ð¸Ð½Ð¾ÑĩÐµ":7992,"ĠÑģÐ¾Ð²ÐµÑĤÐ°":7993,"ĠÐ³Ð»ÑĥÐ±Ð¸Ð½Ðµ":7994,"ÑĢÐ°ÑģÐ½Ð¾":7995,"ÑĥÐ±Ð¸Ð¹":7996,"ĠÐ¿Ð¾Ð¹Ð´":7997,"ĠÐĸÐµÐ»":7998,"ÑĭÐ²Ð°ÑİÑĤÑģÑı":7999,"ĠÐ¼Ð°ÑĤÐµÐ¼Ð°ÑĤ":8000,"Ġ--":8001,"Ð°ÑĤÐ¾Ðº":8002,"ÐķÐ³Ð¾":8003,"ĠÐ°Ð´Ð¼Ð¸Ð½Ð¸ÑģÑĤÑĢÐ°ÑĤÐ¸Ð²":8004,"ĠÑĢÐ°Ð·Ð¾ÑĩÐ°ÑĢ":8005,"ĠÐĴÐ¸ÑĤ":8006,"ĠÐ¾Ð¿Ð¿Ð¾Ð·":8007,"ĠÐ¾ÑĤÑĭÑģÐº":8008,"ÑģÑıÑĤÑģÑı":8009,"ĠÑĢÐ²":8010,"ÑĢÐ°Ð½Ð°":8011,"ĠÐ¡Ð°Ð»":8012,"ĠÐ³Ð¸Ð¼":8013,"ĠÑĥÑĤÐµÑĪ":8014,"ÑģÑĤÐ²Ð¾Ð²Ð°Ð»Ð¾":8015,"ĠÐ¿Ð¾ÑģÐ»ÐµÐ´ÑģÑĤÐ²Ð¸Ñı":8016,"ĠÑĤÐ²Ð¾Ñİ":8017,"Ð¸ÑĢÐ°Ð»":8018,"ĠÐ¸Ð½Ð¸ÑĨÐ¸Ð°ÑĤÐ¸Ð²":8019,"ĠÑģÑĤÑĢÐµÐ»ÑĮ":8020,"ÑĭÐ³ÑĢ":8021,"ĠÑĤÐ¸ÑĪÐ¸Ð½Ð°":8022,"ĠÐ½Ð°ÑĪÐ»Ð°":8023,"ĠÐ¿ÑĢÐ¾ÑīÐµ":8024,"ÐµÐ²ÑģÐºÐ¸Ð¹":8025,"ĠÐ±Ð¾ÐµÐ²ÑĭÑħ":8026,"ĠÐ¿ÑĢÐµÐ¼ÑĮÐµÑĢ":8027,"ĠÑģÐ¿Ð°ÑģÑĤÐ¸":8028,"ĠÑĨÐµÑĢÐºÐ¾Ð²ÑĮ":8029,"ĠÑĪÐ»ÑıÐ¿":8030,"ĠÑĩÐ¸ÑĤÐ°Ð»":8031,"ĠÑģÑĤÑĥÐ»":8032,"ĠÑģÐ¾Ð¾Ð±ÑīÐ¸Ð»Ð°":8033,"ĠÑģÑĤÐ¾ÑĢÐ¾Ð½Ð°Ð¼":8034,"ĠÐ¼Ð¸Ð½Ð¸Ð¼ÑĥÐ¼":8035,"ĠÐ¿ÑĥÐ»ÑĮ":8036,"ĠÐ¿Ð¾Ð»Ð¾Ð¶ÐµÐ½Ð¸Ñı":8037,"ĠÐ½Ð¾ÑĢÐ¼Ð°Ð»ÑĮÐ½Ð¾":8038,"Ð°Ð²ÑĪÐ¸ÑħÑģÑı":8039,"ĠÑģÑĩÐ°ÑģÑĤÑĮÑİ":8040,"ĠÐ½Ð°Ð·Ð²Ð°Ð½Ð¸ÐµÐ¼":8041,"ĠÐ¿ÑĥÐ»ÐµÐ¼":8042,"Ð¾Ð·ÑıÐ¹":8043,"Åĥ":8044,"Ð¸ÑĢÑĥÐµÐ¼":8045,"ÑĭÐºÐ°":8046,"ĠÐ¾ÑĤÐ¼ÐµÐ½":8047,"Ð°Ð¶Ð½Ð¾":8048,"ĠÐ±Ð¾Ð´":8049,"ĠÐºÐ»Ð°ÑģÑģÐ°":8050,"ĠÐ¾ÐºÑĢÐµÑģÑĤ":8051,"ĠÐ´Ð¾Ð½Ð¾Ñģ":8052,"ĠÐ´ÐµÐ¹ÑģÑĤÐ²Ð¸Ðµ":8053,"ĠÐ¸Ð·Ð¾":8054,"ĠÐ¾Ð±ÑĬÑıÐ²Ð¸Ð»":8055,"ÑĥÐ´Ñĥ":8056,"ĠÐ·Ð°ÑģÑĤÐ°Ð²Ð¸ÑĤÑĮ":8057,"ĠÐľÐ½Ð¾Ð³Ð¸Ðµ":8058,"ĠÐ´ÐµÑģ":8059,"ĠÑĦÐ»Ð°Ð³":8060,"ÐµÐ½Ð¾Ð²":8061,"ĠÐ³Ð¾Ð²Ð¾ÑĢÐ¸ÑĪÑĮ":8062,"ÑĭÐ·":8063,"ĠÐ²ÑĭÑģÐ¾ÐºÐ¸Ð¹":8064,"ĠÐĴÑģÐºÐ¾ÑĢÐµ":8065,"ĠÐ¿Ð¾Ð²ÐµÐ·Ð»Ð¾":8066,"Ð¸ÑĩÐ½ÑĭÐµ":8067,"Ð¸Ð´Ñĭ":8068,"ĠÑĢÐ°Ð·ÑĢÑĭÐ²":8069,"ĠÐ·Ð¼Ðµ":8070,"ĠÐ²ÑĢÑĥÑĩ":8071,"ĠÐ²Ð¾ÐµÐ½Ð½Ð¾Ð³Ð¾":8072,"Ð¸Ð½ÑĥÐ»Ð¸ÑģÑĮ":8073,"ĠÑģÑĨ":8074,"ĠÐ°Ð³ÑĢÐµÑģÑģ":8075,"Ġ189":8076,"ĠÐ´ÐµÐ½ÐµÐ¶":8077,"Ð³Ð¾Ð²Ð¾ÑĢ":8078,"ĠÐŁÐ¾Ð¶Ð°Ð»ÑĥÐ¹":8079,"Ð¾Ð½ÑıÑĤÐ½Ð¾":8080,"Ð¸ÑĢÐ¾Ð²Ð°ÑĤÑĮÑģÑı":8081,"ĠÐ¾Ð¿ÑĥÑģÐº":8082,"ĠÐ¿Ð¾Ð¿ÑĭÑĤÐºÐ¸":8083,"ĠÐ²ÑĭÑıÐ²":8084,"ÑĨÐ¸Ðº":8085,"ĠÐ¾ÑĤÐºÑĢÑĭÐ»Ð°":8086,"ĠÐ¿Ð¾ÑħÐ¾ÑĢÐ¾Ð½":8087,"Ð¿Ð¾Ð»ÐµÐ·":8088,"ĠÐĳÐ¾Ð»ÑĮÑĪÐµ":8089,"ĠÐ¾Ð³ÑĢÐ¾Ð¼Ð½ÑĭÐ¹":8090,"Ð¾ÑĤÑı":8091,"ĠÑħÐ°Ð»":8092,"ĠÐ¾ÑĤÐ¾Ð·Ð²Ð°Ð»ÑģÑı":8093,"Ð°Ð½Ð¾Ð²Ð°":8094,"ĠÑĩÑĳÐ¼":8095,"ĠÐ¿ÑĢÐµÐ´ÑģÑĤÐ°Ð²Ð¸ÑĤÐµÐ»Ð¸":8096,"ĠÐŁÐ¾Ð»ÑĥÑĩ":8097,"ĠÑģÐ·Ð°Ð´Ð¸":8098,"Ð¾Ð»ÑĮÑĦ":8099,"ĠÐłÐ°Ð±Ð¾ÑĤ":8100,"ĠÑģÐ»Ð¾Ð¶Ð½Ð¾":8101,"ĠÑģÑĤÐ°ÑĢÑĪÐ¸Ð¹":8102,"ĠÐ¿Ð»Ð°Ð½ÐµÑĤÑĭ":8103,"ĠÐ»ÐµÐ¶Ð°Ð»Ð°":8104,"Ð°Ð¿Ð°":8105,"ĠÐ¡Ð²Ð¾":8106,"Ð¿ÑĢÐ¾Ð¼":8107,"ĠÑĢÐ°Ð²Ð½Ð¾Ð´ÑĥÑĪ":8108,"ĠÐ§ÐµÐ»Ð¾Ð²ÐµÐº":8109,"ÑĭÐ»Ð¾":8110,"ĠÐ¿Ð°ÑĢÑĤÐ½":8111,"ĠÐ¼ÑıÑĩ":8112,"ĠÐ¿ÑĢÐ¾ÑħÐ¾Ð´Ð¸ÑĤ":8113,"ĠÐ¢Ð°Ð¹":8114,"ĠÑĤÐµÐ»Ð¾Ð¼":8115,"ĠÐ¿Ð¾Ð±ÐµÐ´Ñĥ":8116,"Ð¸Ð½Ð¾Ðº":8117,"Ð§ÐµÑĢÐµÐ·":8118,"ĠÐ¼Ð¸ÑĦ":8119,"ĠÐ¿ÑĢÐ¾ÑģÑĤÐ¾Ð¹":8120,"ĠÐ¾ÑģÑĤÑĢÐ¾Ð²Ð°":8121,"ÐµÑĢÐµÐ¼":8122,"ĠÑĢÐ¾ÑģÑģÐ¸Ñı":8123,"Ð¸ÑĨÐ¾":8124,"Ð°Ð²Ð°Ð»Ð¾ÑģÑĮ":8125,"ĠÑĢÐ°ÑģÑĩÐµÑĤ":8126,"ĠÐŀÑģÑĤÐ°Ð²":8127,"ĠÐ·Ð²ÐµÐ·Ð´Ñĭ":8128,"ĠÑĥÐ´Ð¾Ð²Ð¾Ð»ÑĮÑģÑĤÐ²Ð¸Ðµ":8129,"ĠÑģÐ¾Ð±ÑģÑĤÐ²ÐµÐ½Ð½Ð¾Ð³Ð¾":8130,"ĠÐ´Ð²ÐµÑĢÑĮÑİ":8131,"ĠÐĶÐ¾Ð±":8132,"ĠÐ´Ð°Ð½Ð½Ð¾Ð¼":8133,"ĠÐ»Ð¸Ð¼":8134,"Ð¸Ð²ÑĪÐµÐ³Ð¾ÑģÑı":8135,"ĠÑģÑĤÐ°ÑĢÐ¾Ð³Ð¾":8136,"ĠÑĢÐ°Ð·Ð³Ð¾Ð²Ð¾ÑĢÐ°":8137,"ĠÐ±Ð°Ð³":8138,"ĠÐ·Ð°Ð²Ð¸ÑģÐ¸Ð¼Ð¾ÑģÑĤÐ¸":8139,"ĠÐºÑĥÑģÐ¾Ðº":8140,"ĠÑĢÐ¾ÑģÑģÐ¸Ð¹ÑģÐºÐ¾Ð³Ð¾":8141,"ĠÑĦÐµÑĢ":8142,"ĠÐ¿ÑĭÑĤÐ°ÐµÑĤÑģÑı":8143,"ĠÐ¿Ð»Ð°Ñĩ":8144,"ĠÐ½ÐµÐ¿Ð»Ð¾ÑħÐ¾":8145,"ĠÑģÐ¾Ð¾Ð±ÑīÐµÐ½Ð¸Ðµ":8146,"Ġ2011":8147,"ĠÐ¿ÑĢÐ¸Ð¼ÐµÐ½Ñı":8148,"ĠÐŁÑĢÐ¾Ð²":8149,"ĠÐ»Ð°Ð·":8150,"ĠÑģÐ¸Ð»Ð°Ð¼Ð¸":8151,"ĠÐ²ÑĭÑģÐ¾ÐºÐ¾Ð¹":8152,"ÑĳÐ´":8153,"ĠÑĥÑĩÐ°ÑģÑĤÐ½Ð¸ÐºÐ¾Ð²":8154,"ĠÐŁÐ°Ð»":8155,"ĠÐ¾ÑĦÐ¾ÑĢÐ¼":8156,"ĠÐ±Ð¾ÑĤ":8157,"Ð¸Ð¼ÐµÑĤ":8158,"Ð½Ð¾ÑĤ":8159,"Ð±ÑĥÑĢÐ³":8160,"ĠÐĶÐ¾Ð½ÐµÑĨ":8161,"Ð¡ÑĤÐ°ÑĢ":8162,"ĠÐºÐ¾ÑģÑĤÑİ":8163,"ÑĭÑī":8164,"ĠÐ¾Ð±ÑīÐµÑģÑĤÐ²Ð¾":8165,"ĠÐ¿ÐµÐ´":8166,"ĠÐ¡Ð°Ð½ÐºÑĤ":8167,"ĠÐ¾ÑĨÐµÐ½Ð¸Ð²":8168,"ĠÐ²Ð¸ÑĤ":8169,"ĠÐļÐ°":8170,"ĠÐ·Ð°Ð·":8171,"ĠÐ²ÑĭÑģÐ»ÑĥÑĪ":8172,"Ð°Ð¶ÐµÐ¹":8173,"ĠÐ²ÑģÑıÐºÐ¸Ñħ":8174,"ĠÐ²Ð¸Ð´Ð¸ÑĪÑĮ":8175,"ĠÑģÐ½Ðµ":8176,"Ð»Ð¸ÑĨ":8177,"ĠÐ·Ð°Ð´Ð°ÑĩÐ°":8178,"%.":8179,"ĠÐ¿ÑĢÐµÐ´Ð¿Ð¾ÑĩÐ¸ÑĤ":8180,"ĠÐ¿Ð¾Ð³ÑĢÑĥÐ·":8181,"ĠÐ´ÐµÑĢÐµÐ²Ð°":8182,"ĠÐ¾ÑĤÑĨÐ¾Ð¼":8183,"Â»:":8184,"ĠÐ±ÑĢÐ¾ÑģÐ¸Ð»ÑģÑı":8185,"ĠÐ¿Ð¾Ð´Ð¾Ð±Ð½Ð¾":8186,"ĠÐ±ÐµÐ·Ð·":8187,"ÐµÐ»ÑĮÑı":8188,"ĠÐĵÐ°Ð±":8189,"ĠÐ±ÑĥÑħ":8190,"ĠÐ¿Ð¾Ð²ÐµÑģ":8191,"ĠÐ²Ð¾Ð·Ð²ÑĢÐ°ÑĤ":8192,"ĠÐ¿ÐµÑģÐ½Ð¸":8193,"ĠÐļÐ°ÑĢÐ»":8194,"ĠÐ½ÐµÐ¸Ð·Ð±ÐµÐ¶":8195,"Ð°Ð½ÐµÑĤ":8196,"ĠÐºÐ°ÑĢÑĤÐ¾":8197,"ĠÑģÑĥÐ±ÑĬ":8198,"ĠÐºÐ¾Ð½ÑĤÑĢÐ°ÐºÑĤ":8199,"ĠÑģÐµÐºÑģÑĥ":8200,"Ð°ÑĪÐºÐ°":8201,"ĠÐ¿Ð¾Ð½Ð¸Ð¼Ð°ÐµÑĤ":8202,"ĠÐºÐ»ÑĥÐ±Ð°":8203,"ĠÐĿÐ°ÑĪ":8204,"ĠÐ½Ð°ÑĩÐ°Ð»ÑĮÐ½Ð¸ÐºÐ°":8205,"ĠÐ½ÐµÐ²Ð¾Ð·Ð¼Ð¾Ð¶":8206,"ÐµÑģÑĤÐµ":8207,"ĠÐ½ÐµÑĢÐ°Ð·":8208,"ĠÑĥÐ¶Ð°ÑģÐ½Ð¾":8209,"ÐºÐ°ÑĢ":8210,"ĠÑģÑĤÐ¾ÑıÑĤÑĮ":8211,"ĠÐ¿Ð°ÑĢÑĤÐ¸Ð¹":8212,"Ð¾ÑħÐ¾Ð´":8213,"70":8214,"ĠÐĴÐ¿ÐµÑĢ":8215,"Ð´Ð°Ð»":8216,"Ð¸ÑĤÑĭÐ¹":8217,"ĠÑģÐºÐ°Ð·Ð°Ð½Ð¾":8218,"ĠÑģÐ¸ÑģÑĤÐµÐ¼Ðµ":8219,"Ð»Ð¸ÐºÑĤ":8220,"Ġ90":8221,"ĠÑģÐ²ÐµÑĢÐº":8222,"Ð¸ÑģÐºÑĥ":8223,"ĠÐ¿ÑĢÐ¾Ð·ÑĢÐ°Ñĩ":8224,"ÑĢÐ¸Ð³Ð¸Ð½":8225,"ĠÐ·Ð½Ð°Ð½Ð¸Ñı":8226,"ĠÐ½Ð°ÑĢÐºÐ¾ÑĤ":8227,"34":8228,"ÑıÑĤÐµÐ¶":8229,"ĠÐºÐ²Ð°Ð´ÑĢÐ°ÑĤ":8230,"ĠÑģÑĤÑĢÐ°Ð½Ð°Ñħ":8231,"ĠÐ³ÐµÑĢÐ¼Ð°Ð½":8232,"ĠÐľÐµÐ»":8233,"ĠÐ¿Ð¾ÑĤÐ¾Ðº":8234,"ĠÑĦÑĢÐ¾Ð½ÑĤÐ°":8235,"ĠÐ¿ÑĢÐ¸ÑģÐ»":8236,"ĠÐ·Ð²ÑĥÐºÐ¸":8237,"Ġ()":8238,"ĠÐ¿Ð¾Ð½ÑıÐ»Ð¸":8239,"Ð°ÑĤÑĥÑĢÑĥ":8240,"ĠÐ±ÑĥÐ´ÑĥÑĩÐ¸":8241,"ĠÐ²ÐµÑĢÑĪ":8242,"ĠÐ¾Ð±ÑĢÑĥÑĪ":8243,"ĠÐ¿ÐµÑĢÐµÑĢ":8244,"ĠÐºÐ°ÑĢÑĤÐ¸Ð½Ñĭ":8245,"ĠÐ·Ð°Ð¼ÐµÑĤÐ¸ÑĤÑĮ":8246,"ÄĲÅ":8247,"ÂłÐłÐ°Ð·":8248,"ĠÐ½Ð¾ÑģÐ¾Ð¼":8249,"ĠÐ¸Ð½ÑģÐ¿":8250,"ĠÐ¿ÑĢÐ°Ð²Ð¾ÑģÐ»Ð°Ð²":8251,"ĠÐĸÐµÐ½Ñī":8252,"ÐļÐ°ÑĢ":8253,"ĠÐ°ÑĤÐ¾Ð¼":8254,"ĠÐĶÐ²Ð°":8255,"ĠÐ´Ð¾Ð¿ÑĥÑģÐº":8256,"ĠÑĢÐ°ÑģÑĤÐµÑĢÑıÐ½":8257,"ĠÑĥÐ±ÐµÐ¶":8258,"ĠÑģÐ¾ÑħÑĢÐ°Ð½Ð¸ÑĤÑĮ":8259,"ĠÐ¿ÑĢÐ¸Ð·ÑĭÐ²":8260,"ÑĢÐ¾ÑĤ":8261,"ĠÐ¿ÑĢÐ¸ÑĩÐ¸Ð½Ñĭ":8262,"ÑıÐ´Ð¾Ð¼":8263,"ĠÐ·Ð°Ð¿Ð¾Ð¼Ð½":8264,"ĠÑģÐ»ÑĥÑĪÐ°ÑĤÑĮ":8265,"ĠÐ²Ð·Ð³Ð»ÑıÐ´Ð°":8266,"ĠÐºÐ°Ð¶Ð´ÑĥÑİ":8267,"ĠÐ»ÐµÐ´Ñı":8268,"ĠÑĢÑĥÐ³":8269,"Ð²ÑĭÑĢ":8270,"ĠÐ¿Ð¾Ð²ÐµÑĢÐ¸ÑĤÑĮ":8271,"ÑģÐºÐ¾Ð»ÑĮÐ·":8272,"ĠÐ¡ÑĤÐ°Ð»":8273,"ĠÐĹÐ²":8274,"Ð¸ÑĦÐ¸ÐºÐ°":8275,"Ð¸Ð»Ñĥ":8276,"ĠÐºÐ¾Ð½ÑĨÑĥ":8277,"Ð¸ÑĢÑĥÑı":8278,"ĠÐŁÑĢÐ¸ÑĩÐµÐ¼":8279,"Ð¿ÑĢÑĭÐ³":8280,"Ð²ÐµÑĢÑĤ":8281,"ĠÑģÑĥÐ±Ð±":8282,"ĠÐ¼Ð°Ð´":8283,"ĠÐ¾Ð±Ð»Ð°ÑģÑĤÑĮ":8284,"Ð°ÑĤÑĭÐµ":8285,"ĠÐłÐ¾ÑģÑĤ":8286,"ÐĶÐµÐ²":8287,"ĠÐ½ÐµÐ¾ÑĤ":8288,"ĠÐ¡Ð°":8289,"ĠÐ¿ÑĢÐ¾Ð½Ð·":8290,"ÑĥÐ¹ÑĤÐµ":8291,"ĠÐ°ÑĤÐ¼Ð¾ÑģÑĦ":8292,"ĠÐŃÐ»ÑĮ":8293,"ĠÐ¿ÑĢÐµÐ´ÑģÑĤÐ°Ð²Ð¸ÑĤÐµÐ»ÐµÐ¹":8294,"Ð²ÐµÐ´Ð¾Ð¼":8295,"ÑĭÐ²Ð°Ð»Ð°ÑģÑĮ":8296,"Ġ'":8297,"ĠÐ³ÑĢÐ¸":8298,"ĠÑĥÐ²Ð¸Ð´ÐµÐ»Ð¸":8299,"ĠÑģÑĥÐ¼Ð°Ñģ":8300,"ÐµÑĩÐºÐ°":8301,"ĠÐ¼Ð¸Ð½Ð¸ÑģÑĤÐµÑĢ":8302,"Ð¸ÑĩÐ½ÐµÐ²":8303,"ĠÐľÐ¾Ð»Ð¾Ð´":8304,"ĠÐ¿ÑĢÐ¾Ð¹Ð´ÐµÑĤ":8305,"Ð²Ð¾Ð»ÑĮ":8306,"ĠÐ²ÐµÐ»ÐµÐ»":8307,"Ð¾Ð²ÐµÑĢÑĪ":8308,"Ð°Ð´Ð°Ñĩ":8309,"ĠÐ¾Ð¶Ð¸Ð´Ð°Ð»":8310,"ĠÑĢÐ¾ÑģÑģÐ¸Ð¹ÑģÐºÐ¾Ð¹":8311,"ĠÑĩÐµÑĢÐ½ÑĭÐ¹":8312,"ĠÐ¿ÑĢÐ¸ÐºÐ»ÑİÑĩ":8313,"ĠÐ½Ð°ÑĩÐ°Ð»Ð°ÑģÑĮ":8314,"ĠÐ¶Ð¸Ð²Ð¾Ð¹":8315,"ÂłÐľÐ¾Ð¶ÐµÑĤ":8316,"ĠÐ²ÐµÑīÑĮ":8317,"ÑĨÐ¸Ð¾Ð½Ð¸":8318,"ĠÑģÐ¸Ð¼Ð¿Ð°ÑĤ":8319,"Ð½ÐµÐ½Ð¸Ðµ":8320,"ĠÐ¸Ð·Ð¼ÐµÐ½Ð¸ÑĤÑĮ":8321,"ÐµÐ½Ð½Ð¸":8322,"ĠÐ¿Ð¾Ð´Ð¾Ð±Ð½Ð¾Ðµ":8323,"ĠÐ¶ÐµÑĢÑĤ":8324,"ĠÐ²ÑĭÐ½ÑĥÐ¶Ð´ÐµÐ½":8325,"ĠÑĤÐµÑħÐ½Ð¸ÐºÐ¸":8326,"ĠÐ¿Ð¾Ð½ÑıÑĤÐ¸Ñı":8327,"ĠÐ²ÐµÑĢÐµÐ²":8328,"ĠÐ»ÑĥÐº":8329,"Ð¸Ð½ÑĮ":8330,"ÑĢÐ¾Ð²Ð°ÑĤÑĮ":8331,"ĠÑħÐ¸ÑĤÑĢ":8332,"ĠÐ¿Ð°ÑĢÐ°Ð´":8333,"ĠÐ¿Ð¾Ð²ÐµÐ´ÐµÐ½Ð¸Ðµ":8334,"ĠÐ¾Ð¿Ð°ÑģÐ½Ð¾ÑģÑĤÑĮ":8335,"ÂłÑģÑĤ":8336,"ĠÑĢÐµÐ»Ð¸Ð³":8337,"ĠÑģÑĤÐ¾ÑıÑĤ":8338,"ĠÐ½Ð°Ð´ÐµÐ»":8339,"ĠÐ²Ð·Ð²":8340,"ĠÐľÐ°ÑĢÐ¸":8341,"ĠÐ½ÐµÐ»ÐµÐ³":8342,"ĠÐ¿ÐµÑĢÐµÑħÐ²Ð°ÑĤ":8343,"ĠÐ¼ÑĥÐ¶Ðµ":8344,"ĠÑĥÐºÐ°Ð·Ð°Ð»":8345,"ĠÐĹÐµÐ¼Ð»Ð¸":8346,"ĠÐ³ÑĢÑĥÐ·Ð¾Ð²":8347,"ĠÐļÐ¸":8348,"ÐµÐ½ÑĨÐ¸Ð¸":8349,"ĠÑĢÐ¸ÑģÑĥÐ½":8350,"Ð½ÐµÑģÑĤÐ¸":8351,"ĠÑĤÐµÐ½ÑĮ":8352,"Ð³Ð¾Ð½":8353,"ĠÑĤÐ¾Ð»Ðº":8354,"ĠÐ´ÑıÐ´Ñı":8355,"ĠÐ¾ÑĢÐ³Ð°Ð½Ð¾Ð²":8356,"Ð¾ÑĩÐµÑĪÑĮ":8357,"ĠÐ¿Ð¾Ð³Ð¸Ð±Ð»Ð¸":8358,"Ð°Ð²ÑĪÐ¸ÐµÑģÑı":8359,"ĠÐ¿Ð¾ÑĢÐ¾Ð¹":8360,"ĠÑĤÐ²Ð¾ÑĢÑĩÐµ":8361,"ÐļÐŀ":8362,"ĠÐĺÑĤÐ°Ðº":8363,"ĠÑĤÑĢÐ°ÑĤ":8364,"ĠÐ¸Ð¼ÐµÐ½ÐµÐ¼":8365,"ĠÐ¿ÑĮ":8366,"ÑĦÐ¸Ð½":8367,"ĠÑĥÑģÐºÐ¾ÑĢ":8368,"ĠÑģÐ¾Ð¾Ð±ÑīÐ°Ð»Ð¾ÑģÑĮ":8369,"ĠÐ¿ÑĢÐµÐ¿ÑıÑĤ":8370,"Ð²ÐµÑĢÑĮ":8371,"ÐĴÐŀ":8372,"ĠÐ¿ÑĢÐµÐ´ÑĥÑģÐ¼Ð¾ÑĤÑĢ":8373,"ÑĪÐ¸Ð²":8374,"ÑĭÐ²Ð°Ð»Ð¾":8375,"Ð½Ð°ÑģÑĤÐ¾ÑıÑī":8376,"ĠÑįÑĦ":8377,"Ð¾ÑģÑĤÐ¾Ñı":8378,"ĠÐ¾Ð¿ÑĢÐµÐ´ÐµÐ»Ð¸ÑĤÑĮ":8379,"ĠÑĢÐ°ÑģÑģÐ²ÐµÑĤ":8380,"ĠÐ¿Ð¾Ð´ÑģÑĤÐ°Ð²":8381,"Ð¸Ð¼Ð¸ÑģÑı":8382,"Ð»ÑıÑıÑģÑĮ":8383,"ĠÐµÐ²ÑĢÐµÐ¹":8384,"ĠÐ³Ð¾ÑĢÐ»Ð¾":8385,"Ð°Ð»Ð¸Ð·Ð¼Ð°":8386,"ĠÑħÐ¾Ð»Ð¾Ð´Ð½Ð¾":8387,"ĠÐ¶Ð¸Ð»ÑĮ":8388,"ĠÐļÐ°Ð¶ÐµÑĤÑģÑı":8389,"!\"":8390,"ĠÑħÐ¸Ñī":8391,"ĠÐ¡Ð¾ÑİÐ·Ð°":8392,"ĠÑĩÑĥÐ²ÑģÑĤÐ²ÑĥÑİ":8393,"ÐºÐ°Ñĩ":8394,"ĠÑħÐ²Ð°ÑĤÐ¸Ð»Ð¾":8395,"ĠÐ²Ð¾ÐµÐ½Ð½ÑĭÐµ":8396,"ĠÐ²ÐµÑĤÑĢÐ°":8397,"ĠÐºÐ²Ð°ÑĢÑĤÐ¸ÑĢÑĭ":8398,"Ġ+":8399,"Ð°ÑĤÐµÐ»Ñİ":8400,"ÑĳÐ½Ð½ÑĭÐ¹":8401,"ĠÐ»Ð°Ð´Ð¾Ð½ÑĮ":8402,"ÑĥÑģÑĤÐ¸Ð»Ð¸":8403,"ĠÐ³Ð½":8404,"ĠÐ°Ð²ÑĤÐ¾Ð±ÑĥÑģ":8405,"Ð»ÑıÐ»Ð°ÑģÑĮ":8406,"ĠÐ½ÑĭÐ½Ðµ":8407,"ĠÐ´Ð¾Ð±Ñĭ":8408,"ĠÐµÐ¿":8409,"ĠÐľÐ°Ð»ÑĮ":8410,"ĠÐ»ÑİÐ±ÐµÐ·":8411,"ĠÑģÐ»ÐµÐ´Ð¾Ð¼":8412,"Ð¸ÑģÑĤÐ¾":8413,"ĠÑģÑĤÑĥÐº":8414,"ĠÐ²ÑģÑĤÐ°Ð»Ð°":8415,"ĠÐ¼Ð¾Ð»Ð¾Ð´Ð¾Ð³Ð¾":8416,"ĠÐ²Ð¾ÑģÐ¿Ð¾Ð¼Ð¸Ð½Ð°Ð½Ð¸Ñı":8417,"ĠÑįÐ½ÐµÑĢÐ³ÐµÑĤ":8418,"ĠÐ½ÐµÐ²ÐµÑĢÐ¾ÑıÑĤ":8419,"ĠÑĪÑĤÑĢÐ°ÑĦ":8420,"Ð½ÐµÐ¶":8421,"ĠÐºÐ¾Ð½ÑĦÐ»Ð¸Ðº":8422,"ĠÑĦÐ°ÑĢ":8423,"ÂłÐ±Ñĭ":8424,"ĠÑĤÐ²ÐµÑĢÐ´Ð¾":8425,"ĠÐ¿Ð¾ÑĤÐµÑĢÐ¿":8426,"ĠÐºÐ¾Ð¼Ð½Ð°ÑĤ":8427,"ĠÐ±Ð°Ð½ÐºÐ¾Ð²":8428,"ĠÐĴÑģÑı":8429,"ĠÐłÐµÑĪ":8430,"ĠÐĶÐµÐ½Ð¸":8431,"ĠÐ°Ð²Ð¸Ð°":8432,"ÑĩÑĥÐ²":8433,"Ð²Ð°Ð»Ð°":8434,"ÑİÑīÐµÐ¹":8435,"Ð°Ð½Ð½":8436,"Ð»Ð¸ÑĤÑĮ":8437,"ĠÑģÐºÐ°Ð¶ÐµÑĤ":8438,"ĠÐ´Ð¾Ð»Ð¶Ð½Ð¾ÑģÑĤÑĮ":8439,"ĠÑĤÐ°Ñī":8440,"ÐŀÑģ":8441,"Ġ80":8442,"ĠÑģÐµÑĢÐ¶":8443,"ĠÑģÐ¾ÑĩÑĥÐ²":8444,"ĠÑĢÐ°ÑģÑģÐºÐ°Ð·ÑĭÐ²Ð°ÑĤÑĮ":8445,"ĠÐ±ÑĥÐ´ÑĥÑīÐµÐ³Ð¾":8446,"Ð¸ÑĤÐµÐ»Ñİ":8447,"Ð»Ð¸Ñģ":8448,"ĠÐ¿ÑĢÐ¸ÑħÐ¾Ð´Ð¸ÑĤ":8449,"ĠÐ¿Ð»Ð¾ÑīÐ°Ð´ÑĮ":8450,"ĠÐ»Ð¾ÑĪÐ°Ð´ÑĮ":8451,"ĠÑģÑģÑĭÐ»ÐºÐ¾Ð¹":8452,"33":8453,"ĠÐ¿ÑĢÐ¾ÑĪÐµÐ¿ÑĤÐ°Ð»Ð°":8454,"ÑĨÐ¸Ð¾Ð½Ð½ÑĭÐµ":8455,"ĠÐ¢Ð¾Ð»ÑģÑĤ":8456,"ĠÐ¼Ð°ÑĤÑĩÐµ":8457,"ĠÐµÐ»Ðµ":8458,"ĠÐ¿Ð¾Ð»ÑİÐ±":8459,"ĠÐ¿Ð¾Ð»ÑĩÐ°ÑģÐ°":8460,"ĠÑĤÐµÑĢÐ¼Ð¸Ð½":8461,"ĠÑİÐ³Ð¾":8462,"ĠÐ¿Ð¾Ð³Ð»ÑıÐ´":8463,"ĠÐ¾ÑĢÑĥÐ¶Ð¸ÐµÐ¼":8464,"ĠÐ½ÐµÐ¿ÑĢÐµÐ¼ÐµÐ½Ð½Ð¾":8465,"ĠÑĪÐºÐ°ÑĦ":8466,"ĠÐĽÐ°":8467,"ĠÐ²Ð¾ÑĪÐ»Ð°":8468,"ÐºÐ¾Ð²Ð¾Ð¹":8469,"ĠÐ¿ÑĢÐ¾Ð²Ð¾Ð´Ð¸ÑĤÑĮ":8470,"ĠÐ¿ÐµÑĢÐµÐ¹":8471,"Ð²Ð¸ÑģÑĤ":8472,"ĠÐķÐ¡":8473,"ĠÑģÐ¼Ð¾Ð³ÑĥÑĤ":8474,"Ð¾Ð½Ð¸Ñı":8475,"ĠÐļÐ°Ð·Ð°Ð»Ð¾ÑģÑĮ":8476,"ĠÐ°Ð½Ð³Ð»Ð¸Ñĩ":8477,"Ð¸ÑĩÐ½ÑĭÐ¼":8478,"ĠÐ²Ð¾Ð»Ð½Ð¾Ð²":8479,"ĠÐ·Ð°ÑģÑĤÐ°Ð²Ð¸Ð»":8480,"ĠÑĥÐ»Ð¾Ð²":8481,"ĠÐ²ÐµÑĩÐ½Ð¾":8482,"Ð°Ð½Ð°Ð²Ð»Ð¸Ð²":8483,"ĠÐ´ÑĢÐ°Ð¼":8484,"ĠÑģÐ¿Ð¸ÑĢ":8485,"ĠÐºÐ°Ð¿Ð¸ÑĤÐ°Ð½Ð°":8486,"ĠÐ»ÐµÑĤÐ¾Ð¼":8487,"Ð¸Ð½Ð³ÑĢÐ°Ð´":8488,"ÐµÑĢÐ°Ð¼Ð¸":8489,"Ð¸ÑĤÐµÐ»ÑĮÐ½ÑĭÐ¼Ð¸":8490,"Ð½Ð¾Ð²Ð¸Ð´":8491,"ĠÐ¿Ð¾ÑģÑĤÐµÐ»ÑĮ":8492,"ĠÐ¿ÐµÑģÐº":8493,"ÑĨÐ¸Ð¾Ð½Ð½ÑĭÐ¹":8494,"Ð¼ÑĥÐ½":8495,"ĠÐ´Ð¾Ð±Ð¸ÑĤÑĮÑģÑı":8496,"ĠÐ´Ð²Ð°Ð¶Ð´Ñĭ":8497,"Ð»ÐµÐ½Ð½ÑĭÐ¼Ð¸":8498,"Ð¿Ð¾Ð¼":8499,"ĠÑĢÑĭÐ½ÐºÐµ":8500,"ĠÑĥÑĩÐ¸Ð»Ð¸":8501,"Ð»Ð¾Ð¶Ð¸Ð»":8502,"ÑĥÑīÐ¸Ñħ":8503,"ĠÐ¿ÑĥÐ±Ð»Ð¸ÐºÐ°":8504,"ĠÐ»ÑĥÑĩÑĪÐ¸Ñħ":8505,"ĠÑģÑĭÐ½Ð¾Ð²":8506,"ĠÐ½Ð°Ð»Ð¾Ð³":8507,"Ð°ÑĢÐ¾Ð´":8508,"Ð´Ð°ÐµÐ¼":8509,"ÑĩÐ°Ð½":8510,"ĠÑĥÐ»ÑĭÐ±ÐºÐ°":8511,"ĠÑģÑİÐ¶":8512,"ĠÐ²ÑĢÐ°Ð¶":8513,"ĠÐ¶Ð¸Ð»Ð°":8514,"Ð°ÑĢÐ¾Ð¼":8515,"ĠÐļÑĢÐµÐ¼":8516,"ÑıÑĤÐ°":8517,"ĠÐ±Ð¾ÑİÑģÑĮ":8518,"ĠÐ´Ð¾Ð¶Ð´ÑĮ":8519,"ĠÐ¾Ð±ÑīÐµÑģÑĤÐ²Ðµ":8520,"ĠÐ¿ÐµÑĪ":8521,"ĠÐ£ÑĢ":8522,"ĠÐ²ÐµÑĢÐ½ÑĥÐ»Ð¸ÑģÑĮ":8523,"ÑĢÐ°Ð¼Ð¸":8524,"ÑĢÐµÑĨ":8525,"ĠÐ½Ð°Ð¿Ð¸ÑģÐ°Ð½Ð¾":8526,"Ð¾ÑĤÑĮ":8527,"ÑĪÐºÐ¸":8528,"ĠÐ·Ð°Ð±ÑĭÐ²":8529,"Ð¾Ð¾Ð±ÑĢÐ°Ð·":8530,"Â»[":8531,"ĠÐ¶ÐµÐ»Ð°Ñı":8532,"ÑĤÐ°Ð½":8533,"Ð»ÐµÐ½Ð½ÑĥÑİ":8534,"Ð°ÑİÑīÐ¸Ð¹ÑģÑı":8535,"ĠÑĢÑĥÐºÐ°Ð²":8536,"Ð¾Ð²Ð°Ð½Ð½Ð¾Ð¹":8537,"ĠÑĨÐ°ÑĢÑı":8538,"ĠÐ±Ð»Ð°Ð³Ð¾Ð¿Ð¾Ð»ÑĥÑĩ":8539,"ĠÐ²ÑĭÐ½ÐµÑģ":8540,"ĠÐ¿ÑĢÐ¸Ð·Ð½Ð°ÑĤÑĮ":8541,"Ð°Ð»ÐµÑĤ":8542,"ĠÐ¸Ð½ÑĤÐµÐ»Ð»ÐµÐº":8543,"Ð¼Ð¾Ð·":8544,"Ð¸Ð½ÑĥÑĤ":8545,"ÑĩÐ¸ÐºÐ¾Ð¼":8546,"ĠÐ¾ÑĤÐ´Ð¾Ñħ":8547,"ĠÐ²Ð°ÑĪÑĥ":8548,"ĠÐ½Ð°ÑĥÐºÐ¸":8549,"ĠÐ¿Ð¾Ð´ÑĤÐ²ÐµÑĢÐ¶Ð´":8550,"ĠÐ»ÐµÐ¿":8551,"Ð¸ÑĢÐ¾Ð²Ð°Ð½Ð½ÑĭÐ¹":8552,"Â»).":8553,"ĠÐºÑĢÐµÐ´Ð¸ÑĤ":8554,"ĠÐºÐ½Ð¸Ð³Ð°":8555,"Ð»ÑıÐ²":8556,"ÐµÐ´Ð½ÐµÐ²":8557,"ĠÐĳÑĭÐ»":8558,"ĠÐºÐ°Ð¶Ð´Ð¾Ðµ":8559,"ĠÑģÑĥÐ¼Ð¼Ñĥ":8560,"ĠÐ¿ÑĢÐµÐ´ÑģÑĤÐ°Ð²Ð»ÐµÐ½Ð¸Ñı":8561,"ĠÐ¿ÑĢÐ¾Ð´Ð°Ð²":8562,"Ð°ÑĤÐµÐ»ÑĮÐ½Ð°Ñı":8563,"ĠÐ½Ð°Ð´ÐµÑİÑģÑĮ":8564,"ĠÐ¿Ð¾Ð½Ð¸Ð¼Ð°Ð»Ð°":8565,"ÑĥÑİÑīÐ¸Ð¼":8566,"ĠÑĢÐ°ÑģÑħ":8567,"ĠÑģÑĤÐ°ÑĢÐ¸Ð½":8568,"ĠÑģÑĤÐ°Ð±":8569,"ĠÐ·Ð°ÐºÑĢÑĭÐ»":8570,"ĠÐĵÐ¾ÑģÐ¿Ð¾Ð´Ð¸":8571,"ĠÐ»Ð¾ÑĪÐ°Ð´Ð¸":8572,"ĠÐĳÐ°Ð±":8573,"ĠÐ¿Ð¾ÑĢÑĭÐ²":8574,"ĠÐ¿ÑĢÐ¾Ð¸ÑģÑĪÐµ":8575,"ĠÑĪÐµÑģÑĤÐ¸":8576,"ĠÐ½ÐµÐ»Ð¾Ð²":8577,"Ð¾Ð²Ð°ÑĤÐ¾":8578,"ĠÐ¢ÐĲÐ¡Ð¡":8579,"Ð¿Ð¾Ñģ":8580,"ĠÐ¾ÑĤÐ·":8581,"ÂłÐĿÐ¸ÑĩÐµÐ³Ð¾":8582,"Ð¸Ð»Ð»Ð°":8583,"ĠÐĺÐ¸ÑģÑĥÑģ":8584,"ĠÐĽÐ¸":8585,"ĠÐ´ÐµÐ±":8586,"ĠÑĢÐ¾Ð¼Ð°Ð½":8587,"ĠÐ¿ÑıÑĤÐ½Ð°Ð´ÑĨÐ°ÑĤÑĮ":8588,"ĠÑģÑĤÐ°Ð½Ð´Ð°ÑĢÑĤ":8589,"ĠÑģÐºÑĢÑĭÑĤÑĮ":8590,"Ð»Ð¾Ð½Ð¸Ð²":8591,"Ð´Ð°ÑİÑĤÑģÑı":8592,"ÐµÐ»ÑıÑħ":8593,"ĠÐŀÐ´Ð½Ð°":8594,"Ð»Ð¾ÑĪ":8595,"ĠÐ´ÐµÑĢÐµÐ²Ð½Ð¸":8596,"ĠÐ´Ñĭ":8597,"ĠÐ±ÑĢÐ¾":8598,"ĠÐ¼Ð¾Ð±Ð¸Ð»ÑĮ":8599,"Ġ35":8600,"ĠÐ¾Ð´ÐµÐ¶Ð´Ñĭ":8601,"==":8602,"Ð·Ð¾ÑĢ":8603,"ĠÐ½Ð¾Ð³Ð°Ñħ":8604,"ÑĳÐ³":8605,"Ð²Ð¸Ð´Ð¸Ð¼Ð¾Ð¼Ñĥ":8606,"ĠÐ½Ð°ÑĢÑĥÐ¶Ñĥ":8607,"ĠÐ°ÑģÑĤÑĢ":8608,"Ð¸ÑĤÐ¾Ð¹":8609,"ĠÐ¯Ð½":8610,"ĠÐ¡Ð¾Ð»":8611,"ĠÐļÐŁ":8612,"ĠÐ´ÑĥÑĪÐµÐ²":8613,"ÐºÐ¾Ð»":8614,"Ð°Ð·Ð°":8615,"ÑģÑİÐ´Ñĥ":8616,"ĠÑĤÐ¸ÑĤ":8617,"ĠÐ¸Ð·Ð±ÐµÐ¶Ð°ÑĤÑĮ":8618,"ĠÑĪÐµÑĢ":8619,"ĠÐ³ÐµÑĢÑĨÐ¾Ð³":8620,"ĠÐĶÐµÐ»":8621,"ĠÐĽÑĮ":8622,"ĠÐ¿ÑĢÐ¾ÑĩÐ¸Ð¼":8623,"ĠÑģÑĭÑĢ":8624,"ĠÐ¿Ð¾Ð´Ð»Ð¸Ð½":8625,"ĠÑģÐ¾Ð²ÐµÑī":8626,"ĠÐ¾ÑģÑĤÐ°Ð½Ð¾Ð²Ð¸ÑĤÑĮ":8627,"ĠÐ±Ð¾Ð»ÐµÐ·Ð½":8628,"ĠÐ¿ÑĢÐµÐ´Ð¼":8629,"Ð°Ð´Ð¾Ð»Ð³Ð¾":8630,"ĠÐ²ÑĢÐ°Ð³Ð¾Ð²":8631,"Ð»ÑİÑģÑĮ":8632,"ĠÐ¼Ð½Ð¾Ñİ":8633,"ĠÐ±ÑĥÐ»ÑĮ":8634,"ĠÑģÐ¾ÑĩÐµÑĤ":8635,"ÑħÐ¾Ð·":8636,"ĠÐŁÐ¾Ð»ÑĮ":8637,"ĠÐ·Ð°Ð¿Ð¾Ð»Ð½":8638,"ĠÐ¡Ð¸ÑĢÐ¸Ð¸":8639,"ĠÐ¿ÑĢÑıÑĤ":8640,"ĠÐ¿ÑĢÐ¾Ð¿ÑĥÑģÐº":8641,"ĠÑĥÐ¶Ð¸Ð½":8642,"ĠÑĢÐ°Ð·Ð»Ð¸ÑĩÐ½ÑĭÐµ":8643,"Ð¾Ð¹Ð´ÐµÐ¼":8644,"ÐµÑĢÐ°ÑĤÐ¾ÑĢ":8645,"ĠÐ¿ÐµÑĢÐµÑģÐµÐº":8646,"Ġ000":8647,"ĠÐ»Ð¾ÑĪÐ°Ð´ÐµÐ¹":8648,"ĠÐĽÐ¸ÑĤ":8649,"ĠÐŁÐµÑĤÑĢÐ°":8650,"ĠÐ±ÐµÐ»ÑĭÐµ":8651,"ĠÐ²Ð¾Ð¿ÑĢÐ¾ÑģÐ°":8652,"ĠÐ¼Ð°Ð»ÑĮÑĩÐ¸ÐºÐ°":8653,"ĠÐ½Ð°Ð¼ÐµÐº":8654,"ĠÐ³ÑĢÑĥÐ¿Ð¿Ñĥ":8655,"ĠÐ¿Ð¾Ð´Ð½ÑıÐ»Ð°ÑģÑĮ":8656,"ĠÐ¿ÑĢÐ¸ÐºÑĢÑĭÐ²":8657,"ĠÐ´ÑĢÑĥÐ³Ð¾Ð¼Ñĥ":8658,"ĠÐ¿Ð°Ð»ÑĮÑĨÐµÐ²":8659,"Ð¸Ð¼Ð¾Ð³Ð¾":8660,"ĠÑģÐ¿Ð°Ð»":8661,"ĠÐ¿ÑĢÐµÐ´ÑĬÑıÐ²":8662,"ĠÐ¥Ð¾ÑĢ":8663,"ĠÑģÑĥÑĤÐºÐ¸":8664,"ĠÐ¿Ð°Ð»ÐµÑĨ":8665,"ĠÐ¿Ð¾Ð»Ð°":8666,"ĠÐ´ÐµÑĢÐµÐ²Ð½Ðµ":8667,"Ð¾ÑĪÐ»Ð¸":8668,"ÑıÐ±ÑĢÑĮ":8669,"ÐµÐ½ÐºÐ°":8670,"ĠÐ¿ÐµÑĢÐµÐ³Ð¾Ð²Ð¾ÑĢÑĭ":8671,"ĠÐŁÑĢÐ¾Ð´":8672,"ĠÑģÑĥÑīÐµÑģÑĤÐ²Ð¾":8673,"ĠÐ²Ð¾Ð·ÑĢÐ°Ð·Ð¸Ð»":8674,"ĠÐ°ÐºÐºÑĥÑĢÐ°ÑĤÐ½Ð¾":8675,"ĠÐ¼Ð¾Ð½Ð°Ñħ":8676,"ĠÑģÐ¿ÐµÐºÑĤ":8677,"ĠÐĽÑĥÑĩÑĪÐµ":8678,"ĠÐ³Ð¾Ð²Ð¾ÑĢÐ¸ÑĤÐµ":8679,"ĠÐ¾ÑĤÐ´ÐµÐ»Ð°":8680,"ĠÐľÐ°ÑĪ":8681,"ĠÐ²Ð¾ÑģÑģÑĤ":8682,"ÑĤÐ¾ÑĩÐºÐ¸":8683,"Ġ2008":8684,"ĠÐ¾ÑĤÐ²ÐµÑĤÑģÑĤÐ²ÐµÐ½Ð½Ð¾ÑģÑĤÑĮ":8685,"ĠÐ¥ÑĢÐ¸ÑģÑĤÐ°":8686,"ĠÑģÐ»ÐµÐ´ÑĥÑİÑīÐµÐµ":8687,"ĠÐłÐµÐ±":8688,"ĠÐ¿Ð¾Ð±ÐµÐ´Ñĭ":8689,"ĠÐ³ÑĢÐµÑĩÐµÑģÐº":8690,"ÐµÐ½ÑģÐ°":8691,"ÐµÐ²ÑĪÐ¸Ðµ":8692,"ĠÑĦÐ»Ð¾ÑĤÐ°":8693,"ĠÐ»Ð¾ÑĢÐ´":8694,"ÑĥÐ»Ð¾Ð²":8695,"ĠÐ´ÐµÐ¹ÑģÑĤÐ²Ð¸ÑĤÐµÐ»ÑĮÐ½Ð¾ÑģÑĤÐ¸":8696,"ĠÐ¼Ð°Ð»ÐµÐ½ÑĮÐºÐ¾Ð¹":8697,"36":8698,"ĠÐºÐ°Ð¼Ð½Ñı":8699,"ÑĢÑĥÐµÑĤ":8700,"ĠÑģÐ²Ð¾Ð±Ð¾Ð´Ñĥ":8701,"ĠÐ¾ÑĤÐºÐ»ÑİÑĩ":8702,"Ð¾ÑĢÐ¸Ñı":8703,"ĠÐ±ÑĢÐ¾Ð²Ð¸":8704,"ĠÐ´Ð°Ð»Ð°":8705,"ĠÑģÐ¾ÑģÑĤÐ¾ÑıÐ½Ð¸Ñı":8706,"Ð¿ÑĢÐ¸":8707,"Ð¸ÑģÐµ":8708,"ĠÐ¾ÑĤÑĩÐµÐ³Ð¾":8709,"ĠÐ½ÐµÐ±Ðµ":8710,"Ð°ÑĤÐµÐ»ÑĮÑģÑĤÐ²":8711,"ĠÐ¾ÑģÑĤÐ°Ð½Ð¾Ð²Ð¸Ð»Ð°ÑģÑĮ":8712,"ĠÐ¿ÑĢÐ¾Ð²Ð¾ÑĢ":8713,"ĠÑģÑĤÑĢÐ°Ð½Ð°":8714,"ĠÑĢÐ°Ð±Ð¾ÑĤÐ°ÑİÑĤ":8715,"ĠÐ½Ð°ÑĩÐ¸Ð½Ð°ÐµÑĤÑģÑı":8716,"ĠÐ²ÑģÐ»ÑĥÑħ":8717,"Ð±ÐµÐ»":8718,"ÐµÐ½Ð¾Ðº":8719,"ĠÐ°ÐºÑĤÐµÑĢ":8720,"ĠÑįÐºÑģ":8721,"ĠÐ¼Ð¾Ð»Ð¾Ð´ÐµÐ¶":8722,"Ð°ÑĢÑĥ":8723,"ĠÑģÑĤÐ°ÑĤÑĮÐ¸":8724,"ĠÐºÐ¾Ð¼Ð¿Ð¾Ð·":8725,"ÐµÐ½ÑĮÐºÐ°Ñı":8726,"ĠÐĴÐ¸Ð½":8727,"Ð½Ð¸ÑĤÑĮ":8728,"ÐłÐĺ":8729,"ĠÑģÐ²Ð¸ÑģÑĤ":8730,"Ð¾ÑĤÐ½Ð¾ÑĪ":8731,"ĠÐ¾ÑĤÐ´Ð°ÑĤÑĮ":8732,"Ð°Ð¹Ð»":8733,"ĠÐ²Ð·Ð»ÐµÑĤ":8734,"ĠÐ¿Ð¾Ð±ÐµÑĢÐµÐ¶":8735,"ĠÐ¿ÑĢÐ¾Ð¸ÑģÑħÐ¾Ð´Ð¸Ð»Ð¾":8736,"ĠÐ¾ÑĤÐ²ÐµÑĩÐ°ÐµÑĤ":8737,"ĠÑĢÐ¾Ð²Ð½Ð¾":8738,"ĠÐ³ÑĢÐ°Ð±":8739,"ÑĤÑĥÑĢ":8740,"ÑĩÐ¸Ð½Ð°":8741,"ÑıÑİÑĤÑģÑı":8742,"ĠÐ¾Ð´ÐµÑĢÐ¶":8743,"ĠÐµÐ²ÑĢÐ¾":8744,"37":8745,"Ð¸Ð½ÑĥÐ»Ð¸":8746,"ĠÑĥÐ²ÐµÑĢÐµÐ½Ð½Ð¾":8747,"ĠÐ±ÑĭÐ²ÑĪÐµÐ³Ð¾":8748,"ĠÐĴÐµÑĤ":8749,"ĠÐłÐ°Ð½":8750,"ĠÐ¿ÑĢÐ¸Ð´ÐµÑĢÐ¶":8751,"ĠÑģÑĩÐ°ÑģÑĤÑĮÑı":8752,"ĠÐĲÐ»ÐµÐºÑģÐ°Ð½Ð´ÑĢÐ¾Ð²":8753,"ĠÐ¿ÑĢÐµÐ»":8754,"ĠÐ²Ð²Ð¾Ð´":8755,"ĠÑħÐ¼Ñĭ":8756,"ÑģÑıÑī":8757,"Ð°Ð±Ð¶":8758,"ĠÐ¾ÑģÑĤÐ°Ð²Ð¸Ð²":8759,"ĠÑģÑĩÐ¸ÑĤÐ°Ñİ":8760,"ĠÐ½Ð°ÑħÐ¾Ð´Ð¸Ð»Ð°ÑģÑĮ":8761,"ÑĢÐ°ÑĤÐ¸ÑĤÑĮ":8762,"ĠÐ¿Ð¾ÑģÐ¾Ð²ÐµÑĤ":8763,"ĠÑĢÐµÑĪÐ¸ÑĤÑĮ":8764,"ĠÐĳÑĥÑĢ":8765,"ĠÐ¼Ð°Ð»ÐµÐ½ÑĮÐºÐ°Ñı":8766,"ÑĢÐ¾Ð·":8767,"Ð¾Ð¿ÑĢÐ¾Ð²":8768,"ÑĦÐ¾Ð½":8769,"ĠÐ¿Ð¸ÑģÐ°ÑĤÐµÐ»ÑĮ":8770,"ÐµÐ²Ñĥ":8771,"ÑĪÑĥ":8772,"ĠÑĨÐµÐ½Ñĭ":8773,"ĠÐºÐ¾Ð¼Ð¸ÑĤÐµÑĤÐ°":8774,"Ð»ÑıÐ»Ð¾":8775,"ĠÐ¾ÑģÑĥÐ¶Ð´":8776,"ĠÐ°Ð»ÐºÐ¾Ð³":8777,"ÑĦÑĥ":8778,"ĠÑįÐ»ÐµÐ¼ÐµÐ½ÑĤ":8779,"Ð¾Ð»Ð¾ÑĤÐ¾":8780,"ĠÐ¿Ð¾Ð½Ð¸Ð¼Ð°ÐµÑĤÐµ":8781,"ĠÐ¾ÑĤÑĢÐ°Ð²":8782,"ĠÐ¿Ð¾Ð´ÑĤÐ²ÐµÑĢÐ´Ð¸Ð»":8783,"ÑĩÐµÑģÑĤ":8784,"ĠÐ¦Ð°ÑĢ":8785,"ĠÑĢÐµÑĦÐ¾ÑĢÐ¼":8786,"ĠÐ½Ð°ÑĥÐº":8787,"ĠÐĽÐ¸Ð´":8788,"ÐµÐ½ÑıÑħ":8789,"ÑĤÐ¾ÑĢÐµ":8790,"ĠÐºÐ¾Ð»Ð»ÐµÐºÑĤÐ¸Ð²":8791,"ĠÐ½Ð°ÑĢÐ¾Ð´Ñĥ":8792,"ĠÑģÑĤÐ°ÑĢÐ¾Ð¹":8793,"Ġ2009":8794,"ĠÐ¿ÑĢÐµÐ¾Ð´Ð¾Ð»":8795,"ĠÐ´ÑĥÐ¼Ð°ÐµÑĤÐµ":8796,"ÑģÐ»Ð°Ð¼":8797,"ĠÐ¾ÑĤÐ²Ð»ÐµÐº":8798,"ĠÑĤÑĢÐ°Ð½Ñģ":8799,"Ð°ÐºÑĤÐ¸Ð²":8800,"ĠÑĪÐ°Ð¿":8801,"Ð½Ð¾Ð´Ð¾ÑĢÐ¾Ð¶":8802,"ÑįÐ´":8803,"ĠÐ¿Ð°ÑĢÐ»Ð°Ð¼ÐµÐ½ÑĤ":8804,"ĠÑİÑĢÐ¸Ð´":8805,"ĠÐ±Ð¾ÐµÐ²Ð¾Ð¹":8806,"ĠÐ²ÐµÑĢÑģÐ¸Ð¸":8807,"ÑĳÑĢÑĤ":8808,"ĠÑģÑĤÐ°ÑĢÑĭÐµ":8809,"ĠÐ±ÐµÐ»ÑĭÐ¹":8810,"Ð¾Ð²ÑģÐºÐ¸Ð¹":8811,"ĠÐ²Ð¿Ð¾ÑģÐ»ÐµÐ´ÑģÑĤÐ²Ð¸Ð¸":8812,"ĠÑģÐ¾Ð²Ð¿Ð°Ð´":8813,"ĠÐ¿ÐµÑĢÐµÐ½Ð¾Ñģ":8814,"Ð½Ð¸ÑĨÐ¸Ð¿":8815,"ĠÐŀÑĤÐºÑĥÐ´Ð°":8816,"ĠÐºÐ¾Ð½ÑĦÐ»Ð¸ÐºÑĤ":8817,"ĠÐ¿Ð¾Ð²ÐµÑĢÐ½ÑĥÐ»Ð°ÑģÑĮ":8818,"Ð¾ÑĨ":8819,"ĠÑĤÐµÐ¾ÑĢÐ¸Ð¸":8820,"ĠÐ¿Ð¾Ð´Ð´ÐµÑĢÐ¶ÐºÑĥ":8821,"ĠÑģÐ»ÑĭÑĪÐ½Ð¾":8822,"ĠÐ¿ÑĢÐ¾Ð²ÐµÐ´ÐµÐ½Ð¸Ñı":8823,"ÑİÑīÐ¸Ð¼":8824,"ĠÑĢÐ¾Ðº":8825,"ĠÑĤÐµÐ»Ðµ":8826,"ĠÑįÑģÐºÐ°Ð´":8827,"Ð¾Ð¼Ð°Ð½Ð´":8828,"ĠÑĢÐ°ÑģÑģÑĥÐ¶Ð´":8829,"ĠÑģÐ¾Ð»Ð´Ð°ÑĤÑĭ":8830,"Ð¾ÑģÐ¿Ð¾Ð´":8831,"ĠÐºÑĥÑħÐ½Ñİ":8832,"Ð¾ÑİÐ·":8833,"ĠÐºÐ¾Ð¼Ð¼ÑĥÐ½Ð¸ÑģÑĤ":8834,"Ð¾ÑĩÑĥ":8835,"ĠÐ²Ð¾Ð¶Ð´":8836,"ĠÐĿÐ°Ð´ÐµÑİÑģÑĮ":8837,"Ð°ÑīÐ¸Ðµ":8838,"ĠÐ¿ÑĢÐ¾Ð´Ð¾Ð»Ð¶Ð°ÑĤÑĮ":8839,"ĠÑĢÑĥÐ¶":8840,"ĠÐ·Ð°ÑıÐ²Ð»ÐµÐ½Ð¸Ðµ":8841,"ĠÑĨÐ¸Ðº":8842,"Ð±Ð¸ÑĤ":8843,"ĠÐ¾Ð±ÑĢÑĭÐ²":8844,"ĠÐĶÐµÐ¹ÑģÑĤÐ²":8845,"ĠÑģÑĤÐ¾Ð»ÐµÑĤ":8846,"ĠÐ¾Ð±ÑģÐ»ÑĥÐ¶":8847,"ĠÑĤÐµÐ¼Ð¸":8848,"Ð»ÑĥÐ¿":8849,"ÑĤÐ¸ÐµÐ¼":8850,"ĠÑģÐºÐ°Ð¶Ð¸":8851,"ĠÐ¾ÑĢÐ¸Ð³Ð¸Ð½":8852,"ĠÑģÑĤÐ°ÑĤÑĥÑģ":8853,"ĠÐ½Ð¸ÑĩÑĤÐ¾":8854,"ĠÐ±Ð¾ÑıÐ»ÑģÑı":8855,"ĠÐ¿Ð¾Ð´Ð¾Ð±ÑĢ":8856,"ÐµÑĤÑĮÐ¼Ð¸":8857,"Ð·Ð°Ðº":8858,"ĠÐ¾ÑĤÑħÐ¾Ð´":8859,"Ð¾ÑĩÐ½Ð¸Ðº":8860,"ĠÑĨÐ°ÑĢÑĮ":8861,"ĠÑĢÐµÐ°Ð»Ð¸Ð·":8862,"ĠÐĺÐ½ÑĤÐµÑĢÐµÑģÐ½Ð¾":8863,"ĠÑĥÑħÐ¾":8864,"Ð¸Ð²ÑĪÐµÐ¹ÑģÑı":8865,"ĠÐ´Ð²Ð°Ð´ÑĨÐ°ÑĤÐ¸":8866,"ĠÑĥÑģÐ»ÑĭÑĪÐ°Ð»Ð°":8867,"ĠÐ´Ð°ÑĤ":8868,"ÐµÐ²Ð½Ð¾Ð²":8869,"ĠÑĥÐ½Ð¸Ð²ÐµÑĢÑģÐ¸ÑĤÐµÑĤÐ°":8870,"ĠÐŀÐ»ÑĮÐ³Ð°":8871,"ĠÐ¼ÑĭÑģÐ»ÐµÐ½Ð½Ð¾":8872,"ĠÐ½ÐµÐ±Ð°":8873,"ÐľÐŀ":8874,"ĠÐĺÐ»":8875,"ĠÐ¿Ð¾Ð·Ð´Ð½ÐµÐµ":8876,"ĠÑģÐ¸Ð³Ð½Ð°Ð»":8877,"Ð¸ÑĢÐ°ÑĤÑĮÑģÑı":8878,"ĠÐ²ÑĤÐ¾ÑĢÐ°Ñı":8879,"ĠÐ´Ð¾Ð¿ÑĢÐ¾Ñģ":8880,"ĠÐ¾ÑĤÑĨÑĥ":8881,"ĠÐ¾Ð³Ð½ÐµÐ¼":8882,"ĠÐ²ÐµÑĢÑİ":8883,"ĠÐ´Ð¾Ð±ÑĢÐ°ÑĤÑĮÑģÑı":8884,"ĠÐķÐ³Ð¸Ð¿":8885,"ĠÐ½Ð°ÑĩÐ°Ð»Ð¾ÑģÑĮ":8886,"ĠÑģÐ½ÑıÑĤÑĮ":8887,"ĠÐĵÐ¾ÑģÐ¿Ð¾Ð´ÑĮ":8888,"ĠÐ¿ÑĢÐ¾ÑģÐ¸Ð»":8889,"ĠÑĥÐ¿ÑĢÑıÐ¼":8890,"ÂłÐŀÐ½Ð°":8891,"ĠÐ¿Ð¾Ð²Ð¾ÑĢÐ°Ñĩ":8892,"ĠÐ²Ð»Ð°Ð¶":8893,"ÑĥÑħÐ¸":8894,"Ð°Ð»ÐµÐºÑĥ":8895,"ĠÑģÐ¾ÐºÑĢÐ¾Ð²":8896,"ĠÑĥÑĪÐ»Ð¸":8897,"ĠÐľÐ°Ð´":8898,"ĠÑĢÐ°Ð´Ð¾ÑģÑĤÐ½Ð¾":8899,"ÂłÐ¡Ð¿Ð°ÑģÐ¸Ð±Ð¾":8900,"ĠÐ¿Ð¾Ð´Ð¼":8901,"ĠÐĵÐµÑĢÐ¼Ð°Ð½":8902,"Ð°Ð½ÑģÐºÐ¸Ð¹":8903,"Ð¿Ð¸ÑģÑĮ":8904,"ĠÐłÐµÐ·":8905,"ĠÐĴÐĴ":8906,"ĠÐĴÐ¸Ð»ÑĮ":8907,"ĠÐĶÐ¾Ð»":8908,"ÂłÐĹÐ½Ð°ÑĩÐ¸ÑĤ":8909,"ĠÐ¿Ð¾Ð½Ð¸Ð¼Ð°Ñı":8910,"ĠÑĤÐµÑģÑĤ":8911,"ÑĤÑĢÐ¾":8912,"ĠÐ¸ÑģÐºÑĢÐµÐ½Ð½Ðµ":8913,"Ð°ÑĤÐµÐ»ÑıÐ¼Ð¸":8914,"ĠÑĢÐµÑģÐ¿ÑĥÐ±Ð»Ð¸ÐºÐ¸":8915,"ĠÐ½Ð°ÑģÑĤÐ¾ÑĢÐ¾Ð¶":8916,"ĠÑĢÐ°ÑģÑģÐºÐ°Ð·Ð°Ð»Ð°":8917,"ĠÐĶÐµÐ²ÑĥÑĪÐºÐ°":8918,"ĠÐ±Ð¾ÑĢÑĤÑĥ":8919,"Ð¾ÐºÐ¾Ð½":8920,"ĠÐ²ÑģÐ°Ð´":8921,"ĠÐ¾ÑģÑĤÐ°Ð²Ð°Ð»ÑģÑı":8922,"Ð¾ÑĩÐ¸Ð»Ð°":8923,"Ð½ÑİÐ´ÑĮ":8924,"ÑĢÐ°Ð¹":8925,"Ð¾Ð¶Ð´Ðµ":8926,"ĠÑĪÐ°Ð³Ð¸":8927,"ĠÐ±ÐµÑģÐ¿Ð¾Ð»ÐµÐ·":8928,"ĠÐ´ÑĮÑıÐ²":8929,"ĠÐ´ÐµÐ½ÑĮÐ³":8930,"ĠÐ³Ð°ÑĢÐ°Ð½ÑĤ":8931,"ĠÐļÐ¾Ð½ÑģÑĤÐ°Ð½ÑĤÐ¸Ð½":8932,"Ð¸ÑĢÐ¾Ð²Ð°Ð½Ð½ÑĭÐµ":8933,"Ð°Ð²Ð°Ð¹":8934,"ĠÐ¶Ð´Ð°Ð»Ð¸":8935,"Ð¾Ð»ÐºÐ¾Ð²":8936,"ĠÐ¥Ð°":8937,"Ð¸ÑĤÐ°Ð½Ð¸Ð¸":8938,"ĠÐĴÑģÐµÐ¼":8939,"ĠÐ¾Ð³Ð¾ÑĢ":8940,"ĠÐ¿ÑĢÐ¸ÑĨ":8941,"ĠÐĳÐ¾Ð±":8942,"ĠÑĩÑĢÐµÐ·Ð²ÑĭÑĩÐ°Ð¹Ð½Ð¾":8943,"ÂłÐĽÐ°Ð´Ð½Ð¾":8944,"ĠÑĢÐ°ÑģÑģÑĤÐ¾ÑıÐ½Ð¸Ð¸":8945,"ĠÐ²ÑģÑĤÑĢÐµÑĩÐ°":8946,",-":8947,"ĠÐºÐ°ÐºÐ¸Ð¼Ð¸":8948,"ĠÑĥÐ±Ð¸Ð¹ÑģÑĤÐ²Ð°":8949,"ĠÐļÐ°ÐºÐ°Ñı":8950,"ĠÑĥÑģÐ¿ÐµÑĪ":8951,"ÑĥÑģÐ¿":8952,"Ð¾Ð³Ð¾Ð²Ð¾ÑĢ":8953,"ÐµÐ¹Ð·":8954,"ĠÐ½Ð°Ð´ÐµÐ¶Ð´Ñĭ":8955,"ĠÐ±ÑĢÐ¾ÑĪ":8956,"ĠÐºÐ»Ð°Ð²":8957,"Ð°ÑĤÐ¾Ð»":8958,"ĠÐºÑĢÑĥÐ¿Ð½ÑĭÑħ":8959,"ĠÐ¿Ð¾ÐºÑĢÐ¾Ð²":8960,"ĠÑĥÐ·Ð½Ð°Ð»Ð°":8961,"ĠÑĢÐ¾Ð¶Ð´":8962,"ÑĪÐ¸Ð½Ñĭ":8963,"ĠÐºÐ¾ÑĢÐ¿ÑĥÑģÐ°":8964,"Ð¸Ð²Ñĭ":8965,"Ð´ÐµÐ½Ð°":8966,"ĠÑįÑĤÐ°Ð¶":8967,"ĠÐ»Ð¸ÑĦ":8968,"ĠÑĢÐ°Ð·Ð´ÑĥÐ¼":8969,"Ð¾ÑĢÐ¾ÑĪÐµÐ½ÐºÐ¾":8970,"Ð¼ÐµÐ¹":8971,"ĠÐºÐ¾Ð¶Ð¸":8972,"ĠÐ¿Ð¾ÑĤÐµÑĢÐ¸":8973,"ĠÑģÑĤÑĢÐ°Ð½Ð¸ÑĨÐµ":8974,"ĠÑįÐºÐ¾Ð½Ð¾Ð¼Ð¸ÐºÐ¸":8975,"ĠÐ´Ð¾Ð·":8976,"ĠÐĴÐµÐ»Ð¸ÐºÐ¾Ð±ÑĢ":8977,"Ð¶ÐµÐ»":8978,"ĠÑĪÐ»Ñİ":8979,"ĠÑģÐ¾Ð±Ð»Ð°Ð·":8980,"Ð³ÑĥÐ¼":8981,"ĠÑĦÐ¾ÑĤÐ¾Ð³ÑĢÐ°ÑĦÐ¸Ð¸":8982,"ĠÑģÐ¿Ð¾ÑģÐ¾Ð±Ð½Ð¾ÑģÑĤÐ¸":8983,"ĠÐ²ÑĭÑĪÐ»Ð¾":8984,"ĠÐ¾ÑĢÐ´ÐµÐ½":8985,"ĠÑĥÐ¿Ð°Ð»Ð°":8986,"ĠÐ½Ð°Ð¿ÑĢÑıÐ³":8987,"ĠÑģÐºÐ¾ÑĢÐ¾ÑģÑĤÐ¸":8988,"ĠÐľÐ¾Ñı":8989,"ĠÐ¿ÑĢÐ¾ÑĩÐ¸ÑĤ":8990,"ĠÐľÐ¸ÑĤ":8991,"))":8992,"ĠÑĥÐ±Ð¸Ð¹ÑģÑĤÐ²Ð¾":8993,"ĠÐ¢ÑĢÐ¾":8994,"ĠÐ¿Ð¾Ð¹Ð´Ñĥ":8995,"ĠÐ°Ñģ":8996,"ĠÐ²Ð¾Ð·ÑĮÐ¼Ð¸":8997,"ĠÐ¤Ð¸Ð»":8998,"ÐºÐµÑĤ":8999,"ĠÑģÐ¾Ð±Ð»ÑİÐ´":9000,"ĠÐĴÐ¼ÐµÑģÑĤÐµ":9001,"ĠÐ´Ð»Ð¸Ð½Ð½ÑĭÐµ":9002,"ĠÑģÐ¾Ð±ÑģÑĤÐ²ÐµÐ½Ð½ÑĭÑħ":9003,"ĠÑĩÑĥÐ´Ð¾Ð²Ð¸Ñī":9004,"ĠÐ¿ÑĢÐ°Ð²Ð¾Ð¹":9005,"ĠÐ¼ÐµÑģÑĤÑĥ":9006,"ĠÐ»ÐµÐ¶Ð°Ð»Ð¸":9007,"ĠÐ²ÑħÐ¾Ð´Ð¸ÑĤ":9008,"ĠÐĶÐ°Ð»":9009,"ĠÐ¿ÑĢÐ¾Ð´Ð¾Ð»Ð¶Ð°ÐµÑĤ":9010,"ĠÐ³Ð¾ÑĢÐ¾Ð´Ð¾Ð²":9011,"ĠÐ¸Ð·Ð¾Ð±ÑĢÐµÑĤ":9012,"ĠÑģÐ¾Ð·Ð´Ð°Ð½Ð¸Ðµ":9013,"ĠÐ²Ð»Ð¸":9014,"ÂłÐ½Ð°":9015,"ĠÐ¡ÐºÐ¾ÑĢÐµÐµ":9016,"ÐķÑīÐµ":9017,"Ð°ÑĤÐµÐ»ÑıÐ¼":9018,"ĠÐ¿Ð¾Ð·Ð²Ð¾Ð»Ð¸ÑĤÑĮ":9019,"ĠÐ°ÐºÑĤÐ¸Ð²Ð½Ð¾":9020,"ĠÐ½Ð°Ð¿ÑĢÐ°Ð²Ð»ÐµÐ½Ð¸Ñı":9021,"ĠÑĢÐµÐºÐµ":9022,"ÑĢÑİ":9023,"ĠÑģÑĥÑĤÑĮ":9024,"ĠÐļÑģ":9025,"ĠÐºÐ°Ð¼Ð½Ð¸":9026,"Ð²ÐµÐ¹ÑĨÐ°ÑĢ":9027,"ĠÑĢÐµÐ·ÐµÑĢÐ²":9028,"ĠÑĥÑģÐ¿ÐµÑĪÐ½Ð¾":9029,"ÐµÑĢÐµÐº":9030,"Ð¸Ð¼ÐµÐ½":9031,"ĠÐ¿Ð»Ð°Ñī":9032,"ĠÐ·Ð°Ð½Ð¸Ð¼Ð°Ð»ÑģÑı":9033,"Ð°Ð´ÑĥÑĤ":9034,"ĠÐ¿Ð¾Ð´ÑĢÑıÐ´":9035,"ĠÐµÐ¿Ð¸ÑģÐºÐ¾Ð¿":9036,"ĠÑģÐ½Ð°ÑĢÑıÐ´":9037,"ĠÐ¿ÑĢÐ¸ÑĩÐ¸Ð½Ð¾Ð¹":9038,"ĠÐĵÐ¾ÑģÐ¿":9039,"ĠÐ¿Ð¾Ð»Ð¾Ð²Ð¸Ð½Ñĥ":9040,"ĠÐ¿Ð¾ÑģÑĢÐµÐ´Ð¸":9041,"ĠÑĦÐ°ÑĪ":9042,"ÐµÑĢÑĮÑĳÐ·":9043,"Ð¾Ð²Ð¾ÑĢÐ¸Ð»Ð°":9044,"ĠÐ¿ÑĢÐµÐ´ÑģÑĤÐ¾Ð¸ÑĤ":9045,"ĠÑģÐºÐ°Ð¶ÐµÐ¼":9046,"ÐµÐ½Ð´Ñĥ":9047,"Ð´Ð°Ñİ":9048,"ĠÑĢÐ°Ð·Ð¾ÑĢ":9049,"ÑĦÐ¸":9050,"ĠÑģÐµÐ²ÐµÑĢÐ¾":9051,"ĠÑĦÐ°Ð½ÑĤÐ°ÑģÑĤ":9052,"ÐºÐ¾ÑģÑĤÑĮÑİ":9053,"ĠÐ¾Ð±ÐµÑīÐ°Ð»":9054,"ĠÐ¿Ð¾Ð´ÑĢÐ¾ÑģÑĤ":9055,"ĠÐ½ÐµÑĥÐ´Ð°Ñĩ":9056,"ĠÐ´Ð°ÑģÑĤ":9057,"ĠÐºÐ¾Ð½Ñı":9058,"Ð¾ÑĤÐµÑĢ":9059,"ĠÑģÐ½Ð°":9060,"ĠÐ¼ÑĭÑģÐ»ÐµÐ¹":9061,"ĠÐ¸Ð³ÑĢÐ°Ð»":9062,"ĠÐ¼Ð°Ð¹Ð¾ÑĢ":9063,"ÑĢÐµÐ³":9064,"Ð¸Ð·Ð°ÑĨÐ¸Ñı":9065,"ĠÐ½Ð°Ð²ÐµÑĢÑħ":9066,"ĠÑģÐ²ÑıÐ·Ð°Ð½Ð¾":9067,"ĠÐĴÐ°ÑģÐ¸Ð»Ð¸Ð¹":9068,"ĠÐ³ÑĢÑĥÐ¿Ð¿Ðµ":9069,"ĠÐ½Ð°ÐºÐ¾Ð¿":9070,"ĠÐ²ÑĭÑıÑģÐ½Ð¸ÑĤÑĮ":9071,"ÑģÑĤÐ²ÐµÐ½Ð½Ð¾ÑģÑĤÐ¸":9072,"ĠÐ¼Ð¾Ð·Ð³Ð°":9073,"Ð¸Ð¹ÑģÐºÐ¸Ðµ":9074,"ĠÑĥÐ´Ð°Ñĩ":9075,"Ġ1941":9076,"ĠÐºÐ¾Ð¶Ð°Ð½":9077,"Ġ2000":9078,"ĠÐ¿ÑĢÐ¸Ð±ÑĭÐ»Ð¸":9079,"ĠÑģÐ¸Ð»ÑĮÐ½ÑĭÐ¹":9080,"):":9081,"ĠÐ¼Ð°Ð³Ð°Ð·Ð¸Ð½":9082,"ĠÐ¢Ð°Ð½":9083,"ĠÐ±Ð¾Ð³Ð¾":9084,"ĠÐ¿Ð¾Ð¿ÑĭÑĤÐ°Ð»Ð°ÑģÑĮ":9085,"ĠÐ²Ð¾Ð¸Ð½Ð¾Ð²":9086,"ĠÑĢÐ°ÑģÑĤÐ²Ð¾ÑĢ":9087,"ÐºÐ¾ÑĤÐ¾ÑĢ":9088,"ĠÑĥÐ½Ð¸Ð²ÐµÑĢÑģÐ¸ÑĤÐµÑĤ":9089,"ĠÑħÐ¼ÑĥÑĢ":9090,"ĠÐ½ÐµÐ·Ð°ÐºÐ¾Ð½":9091,"ĠÐ´Ð°ÑİÑĤ":9092,"ĠÐĶÐµÐ½ÑĮ":9093,"ÑĭÐ²Ð°ÐµÐ¼":9094,"ĠÐ¿ÑĢÐ¾ÑħÐ»Ð°Ð´":9095,"ĠÑĦÑĥÑĢ":9096,"ĠÑĥÑģÐ»ÑĭÑĪÐ°ÑĤÑĮ":9097,"ĠÐ²Ð¸Ð´Ð¸ÑĤÐµ":9098,"ÑģÑĤÐ²ÐµÐ½Ð½ÑĭÐ¼Ð¸":9099,"ĠÐ½Ð°ÐºÐ°Ð½ÑĥÐ½Ðµ":9100,"ĠÐ²Ð¾ÑģÐºÐ»Ð¸ÐºÐ½ÑĥÐ»Ð°":9101,"ĠÐĲÐ½ÑĤÐ¾Ð½":9102,"ĠÐ²ÑģÑĤÑĢÐµÑĤÐ¸ÑĤÑĮÑģÑı":9103,"Ð¸ÑĤÐµÐ»ÑĮÑģÑĤÐ²Ð¾":9104,"Ð»Ð¾Ðµ":9105,"ĠÐ¼Ð¾ÐºÑĢ":9106,"ĠÐ¾ÑĤÐºÐ°Ð·Ð°ÑĤÑĮÑģÑı":9107,"ĠÑĤÐ¾ÑĩÐºÑĥ":9108,"ĠÐ¾Ð²Ð»Ð°Ð´":9109,"ĠÐ¿ÑĢÐµÐ²ÑĭÑĪ":9110,"ĠÐ¸Ð³ÑĢÑĥÑĪ":9111,"ĠÐºÑĢÐµÑģÐ»Ð°":9112,"ĠÐ·Ð°ÐºÑĢÐµÐ¿":9113,"ÂłÐĺÐ·":9114,"ÑİÑīÐµÐ³Ð¾":9115,"ĠÐ¾ÑģÐ»ÐµÐ¿":9116,"Ð½Ð°ÑģÑĤÐ¾ÑıÑīÐµÐ¼Ñĥ":9117,"ĠÐĿÐ¸ÐºÐ¾Ð³Ð´Ð°":9118,"ĠÐ½Ð°ÑĢÐ¾Ð´Ð¾Ð²":9119,"ĠÑĥÐ´Ð¸Ð²Ð»ÐµÐ½Ð½Ð¾":9120,"ĠÐ½ÑĳÐ¼":9121,"ĠÐ½Ð¸Ð³":9122,"ĠÐ»Ð°ÑĤ":9123,"ĠÐĿÐ°ÑĨÐ¸Ð¾Ð½":9124,"ĠÑĥÑģÐ¿ÐµÐ²":9125,"ĠÐ²Ð°Ð¼Ð¿":9126,"ĠÐºÐ¾ÑĢÐ¾ÑĤÐºÐ¾":9127,"ĠÐºÑĢÐµÐ¹Ñģ":9128,"ĠÑħÐ¾ÑĢÐ¾ÑĪÐµÐ³Ð¾":9129,"ÑĤÑĢÐ¸":9130,"ĠÐ½Ð°ÑģÑĤÑĢÐ¾ÐµÐ½Ð¸Ðµ":9131,"Ð»Ð¸ÑģÑĤ":9132,"ĠÐ±ÐµÐ·Ð¼":9133,"ĠÐ´ÐµÐ»Ð°Ð¼":9134,"Ð¸ÑģÐ¸":9135,"ĠÐºÐ°Ð¶Ð´Ð¾Ð¼Ñĥ":9136,"ĠÐºÐ°ÑĢÑĤÐ¸Ð½Ñĥ":9137,"Ð°Ð½Ð½Ð¾ÑģÑĤÐ¸":9138,"ĠÐ½Ð°Ð¿Ð¸ÑĤ":9139,"ĠÐ·Ð´Ð¾ÑĢÐ¾Ð²Ð¾":9140,"ĠÐ¼ÑĥÑĤ":9141,"ĠÑĤÐµÑĢÑĢÐ¸ÑĤÐ¾ÑĢÐ¸Ñİ":9142,"ÐµÑĢÐµÐ³":9143,"ÑĤÐ¾ÑĩÐºÑĥ":9144,"ĠÑĥÐ´ÐµÐ»":9145,"Ð¾Ð¸":9146,"Ð»Ð¾Ðº":9147,"ĠÐĵÐµÐ½ÐµÑĢ":9148,"ĠÐĴÐ»Ð°Ð´Ð¸Ð¼Ð¸ÑĢÐ°":9149,"ĠÐ¿Ð¾Ð³ÑĢÑĥÐ¶":9150,"ÐµÐ½Ð½":9151,"ĠÐ¿ÑĢÐ¸ÑĩÐ¸Ð½Ð°":9152,"ĠÐºÐ°Ð±Ð¸Ð½ÐµÑĤÐµ":9153,"ĠÐĴÐ¾Ð¾Ð±ÑīÐµ":9154,"ĠÑģÐ»ÑĭÑĪÐ°ÑĤÑĮ":9155,"ĠÐŁÐ¾ÑģÐº":9156,"ĠÐ½Ð°Ð·ÑĭÐ²Ð°Ð»Ð¸":9157,"ĠÐºÐ¾Ð»Ð´Ñĥ":9158,"ÐµÐºÐ¾Ð²":9159,"ÑįÑĢÐ°":9160,"ĠÐ¿Ð¾Ð»Ð½Ð¾Ðµ":9161,"ĠÐ»ÐµÐ²Ð¾Ð¹":9162,"ĠÐ¾ÑĩÐµÑĢÐµÐ´Ð¸":9163,"ĠÐ³Ð¸Ð±ÐµÐ»Ð¸":9164,"ĠÐŁÐ¾Ð½":9165,"ĠÐ²ÑĭÑĤÐ°ÑīÐ¸Ð»":9166,"ĠÐľÐĴÐĶ":9167,"Ð¸ÑĢÐ¾Ð²Ð°Ð½Ð¾":9168,"ĠÐºÑĢÐµÑģÐ»Ðµ":9169,"ĠÑģÐ¾Ð±ÑĢÐ°ÑĤÑĮ":9170,"ĠÐ²Ð¸Ð½Ð¾Ð²Ð°ÑĤ":9171,"Ð²Ð¸ÑĤ":9172,"ĠÑĢÑıÐ´Ð°":9173,"Ð¾ÑĩÐ½Ð°Ñı":9174,"ĠÐľÐ¾Ð³":9175,"ĠÑĥÐ±Ð¸Ð»Ð¸":9176,"38":9177,"ĠÐ·ÐµÐ¼ÐµÐ»ÑĮ":9178,"ĠÐĲÑĢÑħ":9179,"ĠÐ±Ð¾Ñİ":9180,"ĠÐ¾Ð±Ð¼ÐµÐ½":9181,"ĠÐ³ÐµÐ½ÐµÑĢÐ°Ð»Ð°":9182,"Ð¸Ð·Ð½ÑĮ":9183,"ĠÐ²Ð·Ð¾ÑĢÐ²":9184,"Ð¾ÑĪÐµÐµ":9185,"ÐµÐ»Ð¸Ð²Ð¾":9186,"ĠÐ²ÑģÑĤÑĢÐµÑĤÐ¸Ð»":9187,"ĠÐ²ÑĭÐ¹Ð´ÐµÑĤ":9188,"ĠÐ·Ð°Ð´Ð°ÑĩÐ¸":9189,"ĠÐ²ÑģÑĤÑĢÐµÑĩÑĥ":9190,"ĠÐ´Ð¾Ð±ÑĢÐ¾Ð´":9191,"ĠÐ±Ð°ÑģÑģ":9192,"ĠÐ´Ð¾Ð»Ð¶Ð½Ð¾ÑģÑĤÐ¸":9193,"ĠÐ´ÐµÑĤÑĮÐ¼Ð¸":9194,"ÐĺÐ½ÑĤÐµÑĢ":9195,"ĠÐ´ÐµÑĢÐµÐ²Ð¾":9196,"ĠÐ¸Ð½ÑĤÐµÑĢÐ½ÐµÑĤ":9197,"Ð°ÑĢÐµÐ¹":9198,"ĠÐĽÑİÐ´":9199,"ĠÐĴÐ¸Ð´Ð¸Ð¼Ð¾":9200,"ĠÐ¿ÑĢÐ¾ÑĨÐµÑģÑģÐµ":9201,"ĠÐºÐ°Ð²Ð°Ð»":9202,"Ð¸ÑĤÑĢÐ¸":9203,"ÑĥÑīÐµÐ³Ð¾":9204,"ĠÐ¿ÑĢÐ¾Ð¿Ð°Ð³":9205,"ĠÐ½ÐµÐºÐ¾Ð³Ð´Ð°":9206,"ÑİÑħ":9207,"ĠÐĲÐ½ÑĤÐ¾":9208,"ĠÐĴÐµÐ»":9209,"ÑģÐ°Ð¼":9210,"ĠÐ²Ð°Ð»ÑİÑĤ":9211,"ĠÐ¿Ð¾ÑģÑĭÐ»":9212,"ĠÐ·Ð´Ð¾ÑĢÐ¾Ð²ÑĮÐµ":9213,"Ð»Ð¾Ð±":9214,"ĠÐ°Ð´Ð¼Ð¸Ð½Ð¸ÑģÑĤÑĢÐ°ÑĨÐ¸Ð¸":9215,"ĠÐ±ÑĢÐ°Ðº":9216,"ĠÑĪÐ°ÑĤ":9217,"ĠÐ¢Ð°ÐºÐ¾Ðµ":9218,"ĠÐ²ÐµÐ»Ð¸ÐºÐ¸Ð¹":9219,"ĠÐºÐ°ÑĢÑĤÑĭ":9220,"ĠÑģÐ¾Ð¾ÑĢÑĥÐ¶":9221,"ĠÐ·Ð°Ð¼ÐµÑĤÐ¸Ð»Ð¸":9222,"ÑģÐ¸Ð²":9223,"ĠÐ½ÐµÐ»ÐµÐ¿":9224,"ĠÑĥÑĩÐ°ÑģÑĤÐ¸Ñı":9225,"ĠÑģÐ¿ÑĢÐ°ÑĪÐ¸Ð²Ð°ÐµÑĤ":9226,"ĠÑģÐ°Ð¼Ð¾Ð»ÐµÑĤÐ°":9227,"ĠÐ¿ÑĢÐµÐ¿Ð¾Ð´Ð°Ð²":9228,"ĠÑģÐ»ÑĥÐ¶Ð¸ÑĤÑĮ":9229,"Ð°Ð³Ð¸":9230,"ÐļÑĤÐ¾":9231,"ĠÐ¸ÑģÐºÐ»ÑİÑĩÐµÐ½Ð¸ÐµÐ¼":9232,"ĠÐ¾ÑģÑĤÐ°Ð»ÑĮÐ½Ð¾Ðµ":9233,"ĠÑģÑĥÐ´ÑĮÐ±Ñĭ":9234,"ĠÐºÐ¾ÑģÑĤÐ¸":9235,"ĠÐ½ÐµÑģÐ¿":9236,"ĠÐºÐ¾Ð½ÑĨÐµÐ¿":9237,"90":9238,"ĠÐ²Ð¸Ð½ÑĤÐ¾Ð²":9239,".),":9240,"ĠÐ´ÐµÐ²Ð¾ÑĩÐºÐ¸":9241,"ĠÐ½ÐµÑĥÐ¼":9242,"ĠÐ¿Ð¾Ð¸ÑģÐºÐ°Ñħ":9243,"Ð¸Ð·Ð¼Ð¾Ð¼":9244,"ĠÐ²Ð·Ð³Ð»ÑıÐ´Ñĭ":9245,"ĠÐ¿Ð¾ÑıÐ²Ð¸Ð»Ð¾ÑģÑĮ":9246,"ĠÐ¡ÑĤÐ¸Ð²":9247,"ĠÐ¡Ð°Ð¹":9248,"ĠÑĦÐ°Ð½":9249,"ĠÑĩÐµÑĢÐ½Ð¾Ð¹":9250,"ĠÐŁÐ¾Ð½Ð¸Ð¼":9251,"ĠÑĢÑĥÐ±ÐµÐ¶":9252,"ĠÐ¿ÐµÑĢÐµÐ²ÐµÑĢ":9253,"ĠÐ¼ÐµÐ±":9254,"ĠÐ±ÑĭÑĤ":9255,"ĠÐ°ÑĥÐ´Ð¸":9256,"ĠÂ":9257,"ĠÐ¿Ð¾ÐºÑĢÐ°Ñģ":9258,"ĠÑĤÐµÐ»ÐµÑĦÐ¾Ð½Ñĥ":9259,"ĠÐ²ÑĢÐ°Ñī":9260,"ĠÐ¿Ð¸Ðº":9261,"Ð¸ÑĢÐ¾Ð²Ð°Ð½Ð½Ð¾Ð¹":9262,"ĠÐ¾ÑĤÑģÑĤÑĢÐ°Ð½":9263,"ĠÐ·Ð°ÐºÐ¾Ð½ÑĩÐ¸Ð»":9264,"ĠÑĪÑĤÐ°Ð±Ð°":9265,"ĠÐ²ÑħÐ¾Ð´Ð°":9266,"Ð°ÑīÐ¸ÑĤ":9267,"ÐµÐ»ÐµÐ½Ð½Ð¾Ð¹":9268,"ĠÐ¿ÑĢÐ¸Ð±ÑĭÐ»":9269,"ĠÐ³Ð½Ð¾Ð¼":9270,"ĠÑģÑĤÑĥÐ¿ÐµÐ½ÑĮ":9271,"Ð¸Ð´ÐµÑģÑıÑĤÐ¸":9272,"ĠÐ¿ÐµÑĢÐµÐ²Ð¾Ð·":9273,"ĠÑįÐ¿Ð¸Ð·":9274,"ĠÐ¸Ð·ÑĬ":9275,"ÐĽÐ¬":9276,"ĠÐ»Ñĥ":9277,"ĠÐ²Ð¾Ð·ÑĢÐ°ÑģÑĤÐ°":9278,"ÑĤÑĮÑģÑı":9279,"ĠÑģÐ»ÑĥÐ³":9280,"ĠÐ½ÐµÐ´Ð°Ð»ÐµÐºÐ¾":9281,"ĠÑĤÐ²Ð¾Ð¸Ñħ":9282,"ĠÐ¾ÐºÐ°Ð¶ÐµÑĤÑģÑı":9283,"ĠÑĥÐ¿ÑĢÐ°Ð²Ð»ÐµÐ½Ð¸Ðµ":9284,"Ð¾Ð¿Ð¾Ð»ÑĮ":9285,"Ġ(\"":9286,"ĠÐ·Ð°ÐºÑĢÐ¸ÑĩÐ°Ð»":9287,"ĠÐ²ÐºÑĥ":9288,"ĠÐµÐ¶ÐµÐ´Ð½ÐµÐ²":9289,"ĠÐ¾Ð³ÑĢÐ¾Ð¼Ð½ÑĭÐµ":9290,"Ð½Ð°ÑĩÐ°Ð»Ðµ":9291,"ĠÐ³ÐµÑĢÐ¾Ð¹":9292,"ĠÐ¾ÑĤÐµÑĩÐµ":9293,"ÐºÐ²":9294,"ĠÑĤÐ¾ÑĢÑĩ":9295,"ĠÐĽÐ¸ÑĪÑĮ":9296,"ĠÐ¿Ð¾Ð´Ð²Ð¸Ð³":9297,"ĠÐ¿ÐµÐ²":9298,"ĠÐ¸Ð·Ð¼ÐµÑĢ":9299,"ĠÐłÐ¾ÑģÑģÐ¸ÐµÐ¹":9300,"ĠÐ¶ÐµÐ½ÑīÐ¸Ð½Ð¾Ð¹":9301,"Ð½Ð°Ð´ÑĨÐ°ÑĤÐ¸":9302,"Ð¿Ð¾ÑģÑĤ":9303,"ĠÐ´Ð¸Ð¿Ð»Ð¾Ð¼Ð°ÑĤ":9304,"ÑĢÑĥÐ´Ð½Ð¾":9305,"ĠÐ´Ð°Ð¹":9306,"ĠÐºÐ¾ÑĢÑĢÐµÑģÐ¿Ð¾Ð½Ð´":9307,"Ð¸Ð²ÑĪÐµÐ¹":9308,"ĠÐ¾ÑĦÐ¸ÑĨÐµÑĢÐ¾Ð²":9309,"ĠÐ¼Ð¸Ð½Ð¸ÑģÑĤÑĢÐ°":9310,"ÐµÐ¹Ð½Ð°":9311,"ĠÐ¹":9312,"ĠÐĴÑĢÐµÐ¼Ñı":9313,"ĠÐĵÑĢÐ°Ð½":9314,"ĠÐ¸Ð¼ÐµÐµÑĤÑģÑı":9315,"Ð¸ÑĤÐµÐ»ÑĮÐ½Ð¾Ð¼":9316,"ĠÑģÐµÑģÑĤÑĢÑĭ":9317,"ÐµÐ²Ð¾Ð³Ð¾":9318,"ÐµÑĩÐµÐ½":9319,"ĠÑĪÐµÐµ":9320,"ĠÐ²Ð¾Ð»Ð½Ñĭ":9321,"ĠÑĥÑĢÐ¾Ð´":9322,"ĠÑģÐ¾Ð±ÑģÑĤÐ²ÐµÐ½Ð½ÑĭÐµ":9323,"ÑģÐ»ÑĭÑĪ":9324,"ĠÐ¢Ð°ÐºÐ¸Ðµ":9325,"ĠÐ°ÑģÐ¿":9326,"%,":9327,"ĠÑģÐ»Ð¾Ð²Ð°Ñħ":9328,"ĠÐ°Ð´Ð¼Ð¸ÑĢ":9329,"Â»),":9330,"ĠÐ±ÐµÑģÑģÐ¼ÑĭÑģÐ»":9331,"ĠÑģÑĤÐ°":9332,"ĠÐ¿Ð¾ÑģÐ»Ð°Ð»":9333,"ÑĩÐµÐ»":9334,"ĠÐ½ÐµÑħ":9335,"ĠÐºÐ°ÑĩÐµÑģÑĤÐ²Ð°":9336,"31":9337,"Ð»ÐµÑģ":9338,"ĠÐ¿ÑĢÐ¾Ð³ÑĥÐ»":9339,"ĠÐºÑĥÑħÐ½Ðµ":9340,"ĠÐ¿ÑĢÐ¾ÑģÐ¿":9341,"ĠÑģÐ¾ÑģÑĤÐ¾":9342,"ĠÑĦÐ¸Ð»ÑĮÐ¼Ð°":9343,"ĠÑĤÑĢÐµÐ±ÑĥÐµÑĤÑģÑı":9344,"ĠÑģÑĥÐ¼Ð°ÑģÑĪÐµÐ´":9345,"Ð»Ð¾Ð¶Ð¸ÑĤÑĮ":9346,"Ð¾ÑĢÐ¾ÑĤÑĮÑģÑı":9347,"ĠÑħÑĢÑĥÑģÑĤ":9348,"ÐŁÑĢÐµÐ´":9349,"ĠÐ²Ð·Ð³Ð»ÑıÐ½ÑĥÐ»Ð°":9350,"ĠÑĥÐµÐ·Ð¶":9351,"ĠÐ¿Ð¾ÑģÑĤÐ¾ÑĢÐ¾Ð½":9352,"ĠÐ±Ð¾ÑĢÐ¾Ð´":9353,"ĠÐ·Ð°ÑĢÐ¾Ñģ":9354,"ĠÑĩÐ»ÐµÐ½Ñĭ":9355,"ĠÐ°Ð½ÑĤÐ¸":9356,"ĠÐ¶Ð¸ÑĢ":9357,"ĠÑĢÐ°Ð±Ð¾ÑĤÐ°Ð»Ð¸":9358,"ĠÐŁÐµÑĤÑĢÐ¾Ð²Ð¸Ñĩ":9359,"ĠÐ³ÑĢÐµÐ±":9360,"ĠÐ¸Ð¼Ð¿ÐµÑĢÐ°ÑĤÐ¾ÑĢÐ°":9361,"Ð°ÑīÐ¸Ð¹":9362,"ÑĳÐ½Ð½ÑĭÐµ":9363,"ĠÐ¿ÐµÑĩÐ°ÑĤ":9364,"ĠÐ¿ÑĢÐ¾ÑĪÐµÐ´":9365,"ĠÑĨÐµÑĢÐµÐ¼":9366,"ĠÐ´Ð²Ð¾ÑĢÑıÐ½":9367,"ĠÐĴÐ´ÑĢÑĥÐ³":9368,"ĠÐ»ÑİÐ±Ð¸Ð»Ð°":9369,"ĠÑĪÐ¸Ð¿":9370,"ĠÐ±ÑĢÐµÐ´":9371,"ÐĺÐĶ":9372,"ĠÐ¿ÑĢÐµÐ´ÑģÐµÐ´Ð°ÑĤÐµÐ»ÑĮ":9373,"ĠÑĦÐ°ÐºÑĤÐ¸ÑĩÐµÑģÐºÐ¸":9374,"ĠÐ²Ð¸Ð½Ð¾":9375,"Ð°ÑģÑĤÐµÑĢ":9376,"ĠÐ¿ÑĢÐ¾Ð´ÐµÐ»":9377,"ĠÐºÐ°ÑĦÐµ":9378,"Ð°Ð¶ÐµÐ¼":9379,"ĠÐ¿Ð°ÐºÐµÑĤ":9380,"ĠÑĤÐ²Ð¾ÑĢÑĩÐµÑģÐº":9381,"ĠÐ²Ð¾Ð¹ÑĤÐ¸":9382,"ÑįÐºÐ¾Ð½Ð¾Ð¼":9383,"ÐµÐ¶Ð°Ð»Ð¸":9384,"Ð°Ð²ÑĢ":9385,"ĠÐ·Ð°Ð±Ð°Ð²":9386,"ĠÐ¿Ð°ÑĤÑĢ":9387,"ĠÐ¿Ð¾Ð²ÐµÐ´ÐµÐ½Ð¸Ñı":9388,"ĠÐ¿Ð¾Ð»ÑĮÐ·Ð¾Ð²":9389,"ĠÐ¿Ð»ÐµÐ¼ÑıÐ½":9390,"ĠÑıÐ·ÑĭÐºÐ¾Ð¼":9391,"ĠÐ±Ð»Ð°Ð³Ð¾ÑģÐ»Ð¾Ð²":9392,"ĠÐ¾Ð¿ÑĥÑģÑĤÐ¸Ð»":9393,"ĠÐ´ÐµÑĤÑģÑĤÐ²Ð°":9394,"?\"":9395,"Ð½Ð¾Ð²ÐµÐ½Ð¸Ðµ":9396,"ĠÐ°Ð·":9397,"ÑĦÐ¸ÐºÐ°":9398,"ÑīÑĥÑĢ":9399,"ĠÐºÑĢÐ¾Ð²Ð°Ð²":9400,"ĠÑĦÑĭÑĢ":9401,"ĠÐºÐ°ÑĢÐ¼Ð°Ð½Ð°":9402,"ĠÑĥÑģÑĤÐ°Ð½Ð°Ð²Ð»Ð¸Ð²":9403,"ĠÐĵÐ»Ð°Ð·Ð°":9404,"Ð¸ÑĩÐµÑģÐºÐ¾Ð¼Ñĥ":9405,"ĠÐŁÐ¾ÑĢÐ¾ÑĪÐµÐ½ÐºÐ¾":9406,"ĠÐ²Ð¸Ð´Ð¾Ð²":9407,"ĠÐºÐ¾Ð¼Ð¼ÐµÑĢ":9408,"ÑĥÑīÐ¸Ðµ":9409,"ĠÐ¾ÑģÐ½Ð¾Ð²Ð½Ð¾Ð¹":9410,"ĠÐ²ÐµÐ»Ð¸":9411,"ĠÐ½Ð°Ð¸Ð²":9412,"ĠÐ½ÐµÐ²Ð¸Ð½":9413,"Ð±ÑĭÑĩÐ½Ð¾":9414,"ĠÐ½Ð°ÑĤÑĥÑĢ":9415,"ĠÐ¸Ð½ÑģÑĤÑĢÑĥÐ¼ÐµÐ½ÑĤ":9416,"ĠÑĤÑĢÐ°ÐºÑĤ":9417,"ĠÑģÐ»ÑĥÐ¶Ð¸Ð»":9418,"ĠÐ¿ÑĢÐ¾ÑģÑĤÐ¾ÑĢ":9419,"ĠÑģÐ¾Ð»ÑĮ":9420,"ĠÐ¿Ð¾Ð»Ð·":9421,"ĠÑĥÐ¼ÐµÑĢÐµÑĤÑĮ":9422,"ĠÐ²Ð·Ð°Ð¸Ð¼Ð¾Ð´ÐµÐ¹ÑģÑĤÐ²":9423,"ĠÐŁÐ¾ÑģÐºÐ¾Ð»ÑĮÐºÑĥ":9424,"ÑģÐ¸Ñħ":9425,"Ð½ÑĭÐ½Ðµ":9426,"ĠÐ±Ð¾Ð»ÑĮÑĪÐµÐ²":9427,"ĠÐ¾ÑģÐ²Ð¾Ð±Ð¾Ð¶Ð´":9428,"ÑĥÐ´Ð¾Ð²":9429,"ĠÐĶÐ¾Ð»Ð¶":9430,"ĠÐĽÑĥÐº":9431,"ĠÑģÐ²ÐµÑĤÐ¾Ð¼":9432,"ĠÐ´Ð¸Ð½Ð°Ð¼":9433,"ĠÑĤÑĢÐµÑĤÑĮÐµÐ³Ð¾":9434,"Ð²Ð¾Ñı":9435,"ĠÐ²Ð¸Ð´ÐµÐ¾":9436,"ĠÑĥÑģÐ¸Ð»Ð¸Ñı":9437,"ĠÑĢÐµÐ°Ð³":9438,"ĠÐĹÐµÐ¼Ð»Ðµ":9439,"Ð¾Ð³ÑĢÐ°ÑĦÐ¸Ð¸":9440,"ĠÑĩÑĥÐ²ÑģÑĤÐ²ÑĥÑı":9441,"Ð°ÐºÐ°Ð¼Ð¸":9442,"ĠÐ¾ÑĤÐ½ÑİÐ´ÑĮ":9443,"ĠÐ²ÑģÐ¿Ð¾Ð¼":9444,"ĠÐ±ÑĭÐ²Ð°Ð»Ð¾":9445,"ĠÐ¼ÑĥÐ½Ð¸ÑĨÐ¸Ð¿":9446,"ĠÐ¢Ð°ÐºÐ¾Ð¹":9447,"ÐµÑĩÐ½Ð¾Ð¹":9448,"ĠÐ¾ÑģÐ²ÐµÐ´Ð¾Ð¼":9449,"ĠÐ³ÑĢÐ¾Ð¼Ð°Ð´":9450,"Ð½Ð°Ð»Ð¸":9451,"Ð¾Ð»Ð¾Ð³Ð¸Ñı":9452,"ÑıÐ½ÑĥÑĤÑĮ":9453,"ÐĽÐŀ":9454,"ĠÐ¼Ð¾Ð½Ð¸":9455,"ĠÐĴÐ¼ÐµÑģÑĤÐ¾":9456,"ĠÐ¸Ð½ÑģÑĤÑĢÑĥÐº":9457,"Ð¾Ð¼ÐµÑĢ":9458,"ÂłÐµ":9459,"ĠÐ¾ÑĤÐ½ÐµÑģ":9460,"ÑįÐ½Ð´":9461,"ĠÐ¿Ð¾Ð»Ð¾Ð²Ð¸Ð½Ðµ":9462,"ÂłÐ¡Ðº":9463,"ĠÐŁÑĢÐ¾ÑģÑĤ":9464,"ÐłÑ":9465,"Ġ:":9466,"Ð°Ð½Ð½Ð¾Ð¼":9467,"ÂłÐĸ":9468,"ĠÐ´Ð²Ð¸Ð³Ð°ÑĤÑĮÑģÑı":9469,"ĠÐ¿ÑĢÐµÐ´Ð¿ÑĢÐ¸Ð½":9470,"ĠÐ½ÐµÐ¿Ð¾ÑģÑĢÐµÐ´ÑģÑĤÐ²ÐµÐ½Ð½Ð¾":9471,"ĠÑĥÑħÐ¼Ñĭ":9472,"ĠÑĢÐ°Ð·Ð¾Ð±ÑĢÐ°ÑĤÑĮÑģÑı":9473,"ĠÐŁÐ°ÑĢÐ¸":9474,"ĠÐ±Ð»ÑİÐ´":9475,"ÑĢÑıÑħ":9476,"Ð°Ð²ÑĪÑĥÑİ":9477,"Ġ45":9478,"ĠÐ¿Ð¾Ð´ÑĩÐµÑĢÐºÐ½ÑĥÐ»":9479,"ĠÑĪÐµÑĦ":9480,"ĠÐ´Ð°Ð²Ð°ÑĤÑĮ":9481,"ĠÑĢÐ°ÑģÑģÐ¼ÐµÑıÐ»ÑģÑı":9482,"ĠÐ¸Ð¼ÐµÐ½Ð°":9483,"ĠÐ¾ÑģÐ½Ð¾Ð²Ð°Ð½Ð¸Ñı":9484,"ĠÐ¿Ð¾Ð²ÐµÑĢÑħÐ½Ð¾ÑģÑĤÑĮ":9485,"ÑĥÑģÐ»Ð¾Ð²Ð½Ð¾":9486,"Ð¸Ð¼Ñĭ":9487,"ĠÑĪÑĤÐ°ÑĤ":9488,"Ð¸ÐºÐ°Ð¼":9489,"Ð°ÐºÐ¾":9490,"ĠÐ³Ð¾ÑĢÐµ":9491,"ÐµÐ½ÑĤÑĥ":9492,"ĠÐ·Ð°Ð´ÑĥÐ¼Ð°Ð»ÑģÑı":9493,"Ð¸Ð°ÑĤ":9494,"ĠÐ¿ÑĭÐ»":9495,"ĠÑĢÑĭÐ½ÐºÐ°":9496,"ĠÐŀÑĤÐµÑĩÐµ":9497,"ĠÐ²Ð¸ÑĨÐµ":9498,"ÑĥÐ½Ð³":9499,"ĠÐ¼Ð¾Ð»ÑĩÐ°Ð½Ð¸Ðµ":9500,"ĠÑģÐ°Ð¼Ð¾ÑģÑĤÐ¾ÑıÑĤÐµÐ»ÑĮÐ½Ð¾":9501,"ÐµÐ´Ñĥ":9502,"ĠÐ²ÑĭÐ·ÑĭÐ²Ð°ÐµÑĤ":9503,"ĠÐ¿Ð¾Ð¶Ð¸Ð»":9504,"Ð²ÐµÑī":9505,"Ð¾ÐºÑĥÑĢ":9506,"ĠÐ°ÑĢÐ¼Ð¸Ñİ":9507,"ĠÑģÑĤÐ°Ð½ÑĥÑĤ":9508,"ĠÐ»ÑİÐ±Ð¾Ð²ÑĮÑİ":9509,"ĠÑĥÑģÐ¿Ð¾ÐºÐ°":9510,"Ð¿ÐµÑĤ":9511,"ĠÑģÐ¾Ð±Ð¸ÑĢÐ°ÑİÑģÑĮ":9512,"Ð¸ÑĢÐ¾Ð²Ð°Ð½Ð°":9513,"ĠÐ¼Ð°ÑĤÐµÑĢÐ¸Ð°Ð»Ñĭ":9514,"ÑĭÐºÐ¸":9515,"ĠÑģÐ¾ÑģÑĤÐ°Ð²Ð°":9516,"Ð¼Ð¸ÑĤÐµ":9517,"ĠÐ¼Ð°Ð»ÐµÐ½ÑĮÐºÐ¸Ðµ":9518,"ĠÐ¶Ð´Ð°Ð»Ð°":9519,"ĠÐ¿Ð¾Ð´Ð½ÑıÑĤÑĮ":9520,"ĠÐ¸Ð·Ð±Ð°Ð²Ð¸ÑĤÑĮÑģÑı":9521,"ÑĢÐ°ÑĩÐ½Ð¾":9522,"ĠÐ¶ÐµÐ»ÐµÐ·Ð½Ð¾Ð´Ð¾ÑĢÐ¾Ð¶":9523,"ĠÐ½ÐµÑģÐ¾Ð¼Ð½ÐµÐ½Ð½Ð¾":9524,"ĠÐºÐ¾Ðº":9525,"ĠÐ¿ÑĢÐ¸Ð³Ð¾Ð´":9526,"Ð»Ð¸Ð½Ñĭ":9527,"ĠÐ¡ÐºÐ°Ð·":9528,"ĠÐ¿Ð¾ÐºÐ¸Ð½ÑĥÑĤÑĮ":9529,"ĠÐ¶ÐµÐ»ÑĥÐ´":9530,"Ð¼ÐµÑĢÑĤÑĮ":9531,"ĠÐ¾ÑĢÐ¸ÐµÐ½ÑĤ":9532,"Ð¸ÑĩÐ½ÑĭÑħ":9533,"ĠÐłÐ°Ð¼":9534,"ĠÑĥÑĤÑĢÐµÐ½":9535,"ĠÐµÐ´Ñĥ":9536,"Ð¾ÑģÑĤÐ½Ð¾":9537,"Ð¸ÑĩÐ¸":9538,"Ð°Ð¹Ðº":9539,"ĠÐ²Ð¾ÐµÐ²":9540,"Ð¸ÑĢÐ°ÑıÑģÑĮ":9541,"ĠÑĤÐ°Ð½ÑĨÐµÐ²":9542,"ĠÐ²ÑĭÐºÐ»ÑİÑĩ":9543,"ÐµÐ²ÑģÐºÐ¾Ð³Ð¾":9544,"ĠÐºÐ¾Ð¼Ð¿Ð°Ð½Ð¸Ð¹":9545,"ĠÐĳÐ»Ð°Ð³Ð¾Ð´Ð°ÑĢ":9546,"ĠÐ°Ð²ÑĤÐ¾ÑĢÐ°":9547,"ĠÐľÐ½Ð¾Ð³Ð¾":9548,"ÐĽÐĺ":9549,"ĠÐ²ÑĭÐ»ÐµÐ·":9550,"ÑĢÐ¾ÑģÐ¸ÑĤÑĮ":9551,"ĠÐ²ÑĭÐ·Ð²Ð°Ð½":9552,"ĠÐ¿ÑĢÐ¸Ð±Ð°Ð²":9553,"ÑĩÐµÐ½ÑĮ":9554,"Ð²Ð¾Ð±Ð¾Ð´":9555,"Ð»ÑĭÑĪ":9556,"ĠÑįÐ²":9557,"ĠÐ·Ð°Ð²ÑıÐ·":9558,"ÑĩÐµÑĢÐ°ÑĪ":9559,"ĠÐ¼Ð¾Ð³ÑĥÑīÐµ":9560,"ĠÐ½Ð°Ð±Ð»ÑİÐ´Ð°Ð»":9561,"ĠÐ½ÐµÐ·Ð°Ð¼ÐµÑĤÐ½Ð¾":9562,"ĠÑĤÐ°ÑĤÐ°ÑĢ":9563,"Ð°Ð¼ÐµÑĢ":9564,"ĠÐ´Ð¾Ð±Ð°Ð²Ð¸Ð»Ð°":9565,"ĠÐ¤Ð¸Ð»Ð¸Ð¿Ð¿":9566,"ĠÐ»ÑĥÐ¶":9567,"ĠÑģÑĥÑīÐµÑģÑĤÐ²Ð°":9568,"ĠÐ®ÑĢÐ¸Ð¹":9569,"ĠÐ¾ÑĤÐ½Ð¾ÑĪÐµÐ½Ð¸ÑıÑħ":9570,"44":9571,"ĠÑħÐ¾Ð´Ð¸Ð»":9572,"ĠÐ¾ÑĤÐ²ÐµÑĩÐ°ÑĤÑĮ":9573,"Ð¼ÐµÐ½ÑĤÑĭ":9574,"ĠÐ¡ÐµÐ»":9575,"Ð³ÐµÐ»ÑĮ":9576,"ÑİÑīÐ°Ñı":9577,"ĠÑģÐ¾Ð³Ð»Ð°ÑģÐ¸Ð»Ð°ÑģÑĮ":9578,"Ð¾ÑģÑĤÑĢ":9579,"ĠÐ·Ð°ÑĤÑĭÐ»":9580,"ĠÐ¿Ð¾Ð½ÐµÐ´ÐµÐ»ÑĮ":9581,"ĠÐ±Ð¾Ð³Ð°":9582,"ĠÐ¿Ð¾Ð»Ð¸ÑĤÐ¸ÑĩÐµÑģÐºÐ¾Ð¹":9583,"ÐķÐĿ":9584,"ĠÑĪÐ»ÐµÐ¼":9585,"39":9586,"ĠÐ²ÐµÐ»Ð¸ÐºÐ¾Ð³Ð¾":9587,"ĠÐĶÐ¸Ðº":9588,"ĠÐĴÑģÐ¿":9589,"ĠÐ¾ÑģÐ¾Ð±ÐµÐ½Ð½Ð¾ÑģÑĤÐ¸":9590,"ĠÑģÑĥÑīÐµÑģÑĤÐ²Ð¾Ð²Ð°Ð½Ð¸Ðµ":9591,"ĠÑģÐ¾ÑĢÐ²":9592,"ĠÑĦÐ°Ð½ÑĤÐ°Ð·":9593,"ĠÐŀÐ±ÑĬ":9594,"ĠÑģÐ¿ÐµÐºÑĤÐ°Ðº":9595,"ĠÑĩÐµÑĢÑĤÐ¾Ð²":9596,"ĠÑĦÑĢÐ¾Ð½ÑĤ":9597,"ĠÐ¸Ð³ÑĢÐ°ÐµÑĤ":9598,"ĠÐ¾ÑĤÐ¾Ð´":9599,"ĠÐłÐ¾Ð±ÐµÑĢÑĤ":9600,"ĠÑĢÐµÑĨ":9601,"ĠÑĩÐµÐ¼Ð¾Ð´":9602,"ĠÑĢÐ°Ð·Ð¼Ð°Ñħ":9603,"ĠÐ¾ÑģÐ¾Ð±Ð¾Ð³Ð¾":9604,"ĠÐ³Ð¾ÑĢÐ¾Ð´Ñĥ":9605,"ĠÑģÑĤÐ°ÑĢÑĭÑħ":9606,"ĠÐ½Ð°ÑħÐ¾Ð´ÑıÑī":9607,"ĠÐ´Ð²Ð¸Ð¶ÐµÐ½Ð¸ÐµÐ¼":9608,"ĠÐ¾Ð±Ð½Ð°ÑĢÑĥÐ¶Ð¸Ð»Ð¸":9609,"ĠÐ²Ð¾Ð»Ñİ":9610,"ĠÐ´Ð²Ð¾ÑĢÐµÑĨ":9611,"ÐµÐ½Ð¸ÑĤ":9612,"ĠÐĴÐµÐ»Ð¸ÐºÐ¾Ð¹":9613,"ĠÐ¾Ð±Ð»Ð¾Ð¼":9614,"ĠÐ¸Ð½ÑģÑĤÐ¸Ð½":9615,"ÑĢÐ¸Ð·":9616,"ĠÐ·Ð°ÑħÐ»Ð¾Ð¿":9617,"ĠÐ¼Ð¾Ð´ÐµÐ»ÑĮ":9618,"ĠÑħÐ°ÑĢÐ°ÐºÑĤÐµÑĢÐ¸ÑģÑĤ":9619,"ĠÑģÑĤÑĢÐµÐ¼Ð¸ÑĤÐµÐ»ÑĮÐ½Ð¾":9620,"ĠÐ¾Ð³ÑĢÐ¾Ð¼Ð½Ð¾Ðµ":9621,"ĠÐ²Ð¾Ð»ÑĮ":9622,"ĠÑħÐ°":9623,"Ð½Ð°ÑĢÑĥÐ¶Ð¸":9624,"ĠÐ·Ð°Ð¼ÐºÐ°":9625,"Ð¾ÑģÑģÐµ":9626,"ĠÐ³Ð»Ð°Ð²Ð½Ð¾Ð¹":9627,"ÂłÑĩ":9628,"ĠÐ´Ð¾Ð²Ð¾Ð´":9629,"Ð¸Ð·Ð²Ð¾Ð´":9630,"ĠÐ²ÑģÐ¿Ð¾Ð¼Ð½Ð¸Ð»Ð°":9631,"ĠÐŁÐ°ÑĢÐ¸Ð¶Ðµ":9632,"ĠÑħÐ°ÑĢÐ°ÐºÑĤÐµÑĢÐ°":9633,"ĠÐ´Ð¾ÑĢÐ¾Ð³Ð°Ñı":9634,"ĠÑĪÐµÐ²":9635,"ĠÐ´Ð¾ÐºÑĤÐ¾ÑĢÐ°":9636,"ĠÐ¿Ð»Ð°Ð½Ðµ":9637,"ĠÐºÑĢÑĥ":9638,"ĠÐ´Ð¾ÐºÑĥÐ¼ÐµÐ½ÑĤÐ¾Ð²":9639,"ĠÐ»Ð¸ÑĤ":9640,"ĠÐ´Ð¾ÑĩÐµÑĢ":9641,"ĠÑĤÑĢÐ°Ð³ÐµÐ´":9642,"ĠÐ¿ÐµÑĢÐµÐ¼ÐµÑī":9643,"ĠÐ³Ð¾ÑģÑĥÐ´Ð°ÑĢÑģÑĤÐ²ÐµÐ½Ð½Ð¾Ð¹":9644,"ĠÐŁÑĢÐ¸Ð´":9645,"ĠÐ¿ÑĢÐµÐ´Ð»Ð¾Ð¶ÐµÐ½Ð¸Ñı":9646,"Ð°ÑĤÐ°Ð¼Ð¸":9647,"ĠÑĥÐ³Ð¾Ð´":9648,"ĠÐ±ÐµÑĢÐµÐ¼":9649,"ÑĥÐ·Ð°":9650,"ĠÐ§ÐµÑĢÑĤ":9651,"ĠÐºÑĢÐ¸Ð²":9652,"ÐŁÐ¾ÑĤÐ¾Ð¼":9653,"ĠÐ°ÑģÑģÐ¾ÑĨÐ¸":9654,"ĠÐ¼ÑıÑģÐ¾":9655,"ÑģÑĤÐ²ÑĥÑİÑīÐ¸Ñħ":9656,"ĠÐµÐ´Ð¸Ð½ÑģÑĤÐ²ÐµÐ½Ð½ÑĭÐ¼":9657,"ĠÐ½Ð°ÑĩÐ¸Ð½Ð°ÑİÑĤ":9658,"Ð¾ÑĤÐ¾Ð¼Ñĥ":9659,"ĠÐ¸Ð·Ð²ÐµÑģÑĤÐ½ÑĭÐ¹":9660,"ĠÑĢÐµÐ°Ð»ÑĮÐ½Ð¾ÑģÑĤÐ¸":9661,"ĠÐ´ÑĥÑħÐ°":9662,"Ð°Ð½ÐºÐ¸":9663,"ĠÐ¾Ð±ÑĬÐµÐºÑĤÐ¸Ð²":9664,"ĠÐ³ÐµÑĢÐ¾Ñı":9665,"ĠÑįÐºÑģÐ¿ÐµÑĢÐ¸Ð¼ÐµÐ½ÑĤ":9666,"ĠÐ½ÐµÐ´Ð¾ÑģÑĤÐ°ÑĤÐ¾ÑĩÐ½Ð¾":9667,"ĠÑģÐ¿Ð¾ÑģÐ¾Ð±Ð½Ð¾ÑģÑĤÑĮ":9668,"ĠÐ£Ð·":9669,"//":9670,"ĠÑĥÑģÑĤÐ°Ð½Ð¾Ð²Ð¸ÑĤÑĮ":9671,"Ð¾ÑģÐµ":9672,"Ð¸ÑģÑĤÑĭÐ¹":9673,"ĠÑĢÑĭÐ½Ð¾Ðº":9674,"ĠÐĲÑĦÑĢ":9675,"ĠÐ¿ÑĢÐ¾Ð²ÐµÐ»Ð¸":9676,"ĠÐ´Ð²ÐµÑĢÐµÐ¹":9677,"Ġ500":9678,"ĠÐºÑĥÐº":9679,"ĠÑıÑīÐ¸Ðº":9680,"ÐºÐ¾Ð²Ð½Ð¸Ðº":9681,"Ð¸Ð²Ð°Ð¹":9682,"ĠÐ¾Ð±Ð¾Ð¶":9683,"ĠÐ¿ÑĢÐµÐ´ÑģÑĤÐ°Ð²Ð»ÐµÐ½Ð¸Ðµ":9684,"ĠÐ¿ÑĢÐ¸Ð½ÑĨÐ¸Ð¿Ðµ":9685,"ĠÐ½Ð°Ð²Ð¾Ð´":9686,"ĠÑģÐµÐ¼ÑĮÑİ":9687,"ĠÐºÐ¸ÑĢÐ¿":9688,"ĠÐ¸Ð·Ð±ÐµÐ³":9689,"ĠÑĢÐ¸ÑĤ":9690,"ĠÑģÐ¾ÑĢÐµÐ²Ð½Ð¾Ð²":9691,"ĠÐ²ÑģÐ¿ÑĭÑĪ":9692,"Ð»ÐµÑĤÐ½Ð¸Ð¹":9693,"Ð±Ð¸ÑīÐµ":9694,"ÑĥÐ»Ð¸ÑĢ":9695,"ĠÐ»ÑİÐ±ÑıÑĤ":9696,"ĠÐ·Ð°Ð²Ð°Ð»":9697,"ĠÑĢÑĥÐºÐ¾Ð²Ð¾Ð´ÑģÑĤÐ²Ð¾Ð¼":9698,"ĠÑģÐ»ÑĥÑĩÐ°ÐµÐ²":9699,"Ġ2007":9700,"ĠÑģÐ»ÑĥÑĪÐ°Ð»":9701,"ÑĳÐº":9702,"ĠÐ¡ÑĥÐ´Ñı":9703,"ÐµÑħÐ¸":9704,"ÐµÑĢÐµÐ½ÑĨÐ¸Ð¸":9705,"ĠÐ¾ÐºÐ¾Ð½":9706,"ĠÐ±Ð»Ð°Ð³Ð¾Ð´":9707,"ÑĥÑģÑĤÐ¸Ð»Ð°":9708,"ĠÐ½Ð°ÑĪÐµÐ¼Ñĥ":9709,"Ð»Ð¾Ð²Ð°":9710,"Ð¸Ð½ÑģÑĤÐ²Ð¾":9711,"ĠÑĥÑģÑĤÐ°Ð²Ð¸Ð»ÑģÑı":9712,"ĠÐ²ÑģÐºÐ¾ÑĩÐ¸Ð»":9713,"ĠÐŀÐŀÐĿ":9714,"ĠÑĢÑĥÐºÐ¾":9715,"ĠÐ²ÐµÐºÐµ":9716,"ĠÐ·Ð°ÐºÐ¾Ð½Ð¾Ð¼":9717,"ĠÑĢÐ°Ð±Ð¾ÑĤÐ¾Ð¹":9718,"ÑģÐ¾":9719,"Ð²Ð¾Ð»Ñİ":9720,"ĠÐļÐ°ÑĤÑı":9721,"ĠÐĴÐ¾Ð¹":9722,"ĠÐ¾Ð¿ÑĤÐ¸Ð¼":9723,"ĠÐ¶ÐµÐ½ÑīÐ¸Ð½Ðµ":9724,"ĠÐ¿ÑĢÐ¸ÑĤÐ²Ð¾ÑĢ":9725,"ĠÐĺÑģÐº":9726,"ÑĳÐ¶":9727,"ĠÐ·Ð°Ð¿Ð¾Ð»":9728,"ĠÐŁÐ¸ÑĤ":9729,"ĠÑģÐ¼ÐµÑĢÑĤÑĮÑİ":9730,"ÑıÐ½ÑĥÐ²":9731,"ĠÐĴÐ°Ð»ÐµÑĢ":9732,"ĠÐ´Ð¾Ð±Ð°Ð²Ð¸ÑĤÑĮ":9733,"ĠÐ¿ÑĢÐ¸ÑģÐ¿":9734,"ĠÐ·Ð°Ð»Ð°":9735,"ĠÐĺÐ½Ð°ÑĩÐµ":9736,"ĠÐ¿ÑĢÐµÐ´ÑĪÐµ":9737,"ĠÐºÐ¾ÑģÑĤÑİÐ¼":9738,"ĠÑĢÐ°Ð·Ð¾Ð¼":9739,"Ð³Ð¸Ð½":9740,"ĠÐ½Ð°ÑģÐµÐ»ÐµÐ½Ð¸Ðµ":9741,"ĠÑįÐ¼":9742,"ĠÑĢÐ°ÑģÑģÑĤÑĢÐ¾":9743,"ĠÐ½ÐµÐ´Ð°Ð²":9744,"ĠÐ¿Ð¾Ð¼Ð¸Ð¼Ð¾":9745,"ĠÐ»Ð¸ÑħÐ¾ÑĢÐ°Ð´":9746,"ĠÐ¸ÑĢÐ¾":9747,"ĠÐ±ÐµÑģÐ¿Ð»Ð°ÑĤ":9748,"Ð°Ð½Ð´ÑĢ":9749,"ÐĹÐ°Ð¿":9750,"ĠÐ³ÑĥÐ±Ð°Ð¼Ð¸":9751,"ĠÐĺÑĤÐ°Ð»Ð¸Ð¸":9752,"ĠÐŁÐ°Ð²Ð»Ð¾Ð²":9753,"ĠÐ¸Ð³ÑĢÐµ":9754,"ĠÐļÐ°ÐºÐ¸Ðµ":9755,"ĠÐ¶Ð´ÑĥÑĤ":9756,"ĠÐ¿Ð¾Ð»Ð½ÑĥÑİ":9757,"ĠÐ¿ÐµÑĢÐµÑģÑĤÐ°Ð»":9758,"ĠÐ¿Ð¾Ð´Ð°ÑĢÐ¾Ðº":9759,"ĠÐļÐ»Ð¸":9760,"ĠÐ¿ÑĢÐµÐ´ÑģÑĤÐ¾Ñı":9761,"ĠÐ¾ÑĤÐ´ÐµÐ»ÑĮÐ½ÑĭÑħ":9762,"Ð¾Ð¶ÐµÐ½":9763,"ĠÐ¿ÑĢÐ°Ð²Ð´":9764,"ĠÐ²Ð½ÑĥÑĤÑĢÐµÐ½Ð½Ð¸Ñħ":9765,"ÐłÑĥÑģ":9766,"ĠÑģÐ¾Ð¾ÑĤÐ²ÐµÑĤÑģÑĤÐ²ÐµÐ½Ð½Ð¾":9767,"ĠÐ¾ÑħÑĢÐ°Ð½Ñĭ":9768,"ĠÐ¡Ñĥ":9769,"Ð°Ð½Ð¸ÑıÐ¼":9770,"ÑģÑİÐ´Ð°":9771,"ĠÐ¸ÑģÐºÐ°Ð»":9772,"ĠÐ¾Ð´Ð¸Ð½Ð¾Ñĩ":9773,"ÑĥÐ½ÑĤÐ¾Ð²":9774,"ĠÑģÐ¶Ð¸Ð¼":9775,"ĠÑĢÐ°ÑģÐ¿ÑĢÐ°Ð²":9776,"ĠÐ²ÐµÑĢÐ½ÐµÑĤÑģÑı":9777,"ÂłÐ¶Ðµ":9778,"ĠÑģÐµÑĢÐ¸Ð¸":9779,"ĠÑģÐ¿Ð¾ÑĢÑĤÐ°":9780,"ÐĿÐ¾Ð²":9781,"ĠÐ´Ð¾ÑģÑĤÐ°ÑĤÐ¾Ñĩ":9782,"ĠÐ¿Ð¾Ð½ÐµÑģ":9783,"ĠÐ±ÑĥÑĤÑĭÐ»ÐºÑĥ":9784,"??":9785,"ĠÐ½Ð°ÑĨÐ¸Ð¾Ð½Ð°Ð»ÑĮÐ½Ð¾Ð¹":9786,"ĠÑĥÐ½Ð¸ÑĩÑĤÐ¾Ð¶Ð¸ÑĤÑĮ":9787,"ĠÐľÐ¾Ð¶":9788,"Ð°Ð²ÑĪÐµÐ³Ð¾ÑģÑı":9789,"ĠÐ¿Ð°ÑģÑģÐ°Ð¶Ð¸ÑĢ":9790,"ĠÐ¿Ð¾Ð´Ð°Ð»":9791,"ĠÐ½ÐµÐ¿Ð¾Ð´Ð°Ð»ÐµÐºÑĥ":9792,"ĠÑĤÐµÑĢÑĢÐ¾ÑĢÐ¸ÑģÑĤ":9793,"ĠÑĥÑĤÑĢÐ°ÑĤ":9794,"ĠÑĩÐ°ÑģÑĤÐµÐ¹":9795,"Ð¢ÑĥÑĤ":9796,"ÑıÑīÑĥÑİ":9797,"ĠÐľÐµÑĤ":9798,"ĠÐ¿Ð¾ÑĩÐ¸ÑĤ":9799,"ĠÐ¿Ð¾Ð´Ð½ÑıÑĤÑĮÑģÑı":9800,"Ð¾Ð¿ÑĢÐµÐ´ÐµÐ»":9801,"ĠÑĥÐ¼ÐµÐ»":9802,"ĠÑģÐºÐ°Ð¶ÐµÑĪÑĮ":9803,"ĠÐ´ÑĥÑĢÐ°":9804,"ĠÐºÐ°Ð·Ð°Ð»ÑģÑı":9805,"ĠÐºÐ¾Ð³":9806,"ĠÑħÐ»ÐµÐ±Ð°":9807,"ĠÐ³Ð°Ð·Ð°":9808,"ĠÐŀÐ»Ð¸Ð¼Ð¿":9809,"ĠÐ±ÑĢÐ¾ÑģÐ¸Ð»Ð°":9810,"ĠÐ½Ð¾Ð²Ð¾Ð¼":9811,"Ð¾ÑĢÐ¾Ð¶Ð½Ð¾":9812,"Ð´Ð°Ð²":9813,"ĠÐ¿ÑĢÐ¾Ð¸Ð·Ð½Ð¾Ñģ":9814,"ÐºÑĢÐ°Ñģ":9815,"ĠÐ¿Ð¾Ð±Ð»Ð¸Ð¶Ðµ":9816,"ĠÑģÐ¿Ð¾ÑģÐ¾Ð±Ð½Ñĭ":9817,"ĠÐ¿ÐµÑĢÐµÐ´Ð°Ð»":9818,"ĠÑģÑĤÑĥÑĩ":9819,"ĠÑģÑĥÑīÐµÑģÑĤÐ²Ð¾Ð²Ð°Ð½Ð¸Ñı":9820,"ĠÐºÐ°Ð¶Ð´Ð°Ñı":9821,"ĠÐ½ÐµÐ¾Ð±Ñĭ":9822,"ĠÑĢÑĥÐºÐ¾Ð²Ð¾Ð´ÑģÑĤÐ²Ð¾":9823,"ĠÐĵÐµÐ¾ÑĢÐ³":9824,"ĠÐ´Ð¸ÑĢÐµÐºÑĤÐ¾ÑĢÐ°":9825,"ÑĥÐ»ÑĮÐ¼Ð°Ð½":9826,"ĠÐ°ÑĢÐ°Ð±":9827,"ĠÑĢÐ¸ÑĤÑĥ":9828,"ĠÐ¿Ð°ÑģÐ¿":9829,"ĠÐ¿ÑĢÐµÐ´Ð¾ÑģÑĤ":9830,"ÐµÑĢÐµÐ´ÐºÐ¾":9831,"ĠÐłÐµÐ´":9832,"ÐµÐ¼Ðµ":9833,"ÐŁÑĢÐ¾":9834,"ĠÐ²Ð¾Ð´Ð¸ÑĤÐµÐ»ÑĮ":9835,"ĠÑĩÐµÑĤÐºÐ¾":9836,"ĠÐ´Ð°Ð±Ñĭ":9837,"ĠÐ¿Ð¾Ð»Ðº":9838,"ĠÑĢÐ°ÑģÑģÑĤÐ¾ÑıÐ½Ð¸Ðµ":9839,"ÐµÐ²ÑĪÐ¸Ñħ":9840,"Ð»ÑĭÐ²":9841,"ÐµÐ¼Ñĭ":9842,"ĠÐ¾ÐºÐ¾Ð½ÑĩÐ°Ð½Ð¸Ñı":9843,"ĠÐ¡Ð»Ð°Ð²":9844,"ĠÐ±Ð»ÐµÑģÐº":9845,"Ð´ÑĢÐ°Ð²":9846,"ĠÑģÐ°ÑħÐ°ÑĢ":9847,"ĠÐ·Ð½Ð°Ð¼":9848,"ĠÑģÐµÐºÑĥÐ½Ð´Ñĭ":9849,"ĠÐĽÐ¸Ð²":9850,"ĠÐ¿Ð¾Ð¿Ð°Ð»Ð¸":9851,"ĠÐľÐ¸":9852,"Ð¸Ð»Ð¸Ñİ":9853,"Ð±Ð°ÑĤ":9854,"ÑģÐ¾Ð½Ð°":9855,"ĠÐ±ÐµÐ»Ð¾Ð¹":9856,"ĠÐ¾ÑĤÐºÑĢÑĭÑĤÐ¾":9857,"Ð¼Ð¸Ð½Ð°":9858,"ĠÑĨÐ²ÐµÑĤÑĭ":9859,"ĠÑĤÐ¸ÑĢ":9860,"ĠÐ½ÐµÐ³Ð°ÑĤÐ¸Ð²":9861,"ĠÐ¿Ð¾ÑıÐ²Ð»ÑıÐµÑĤÑģÑı":9862,"ĠÐ¿Ð¾ÑģÐ»ÐµÐ´Ð½ÑİÑİ":9863,"ĠÐ¾Ð±Ð¾Ð³":9864,"ĠÐ¾ÑģÑĤÐ°Ð²Ð¸Ð»Ð¸":9865,"ÑĤÐµÑħ":9866,"ÐµÐ»Ð»Ð°":9867,"ĠÐ»ÑİÐ±ÑĥÑİ":9868,"ĠÐĶÐ¾Ð½Ð±Ð°Ñģ":9869,"ĠÑĦÐ¾ÑĢÐ¼Ð°":9870,"ĠÐ¿ÑĢÐ¸Ð·Ð½Ð°Ð»ÑģÑı":9871,"ĠÑģÐ¾ÑĤÑĢÑĥÐ´Ð½Ð¸ÐºÐ¸":9872,"ĠÐ²ÑĢÐ°Ð¶Ð´":9873,"Ð½Ð°Ð´ÐµÐ¶":9874,"ÐµÑģÐ»Ð°Ð²":9875,"ĠÑģÑĤÐ¸ÑħÐ¸":9876,"ÐĲÐ»ÐµÐºÑģ":9877,"ĠÐ¾ÑĤÐ¿ÑĢÐ°Ð²Ð¸ÑĤÑĮÑģÑı":9878,"ĠÐ¾Ð±ÑıÐ·Ð°Ð½Ð½Ð¾ÑģÑĤÐ¸":9879,"Ð¢Ð¾Ð»ÑĮÐºÐ¾":9880,"ĠÐ¾Ð±ÑĢÐ°Ð·Ð¾Ð²Ð°Ð½Ð¸Ðµ":9881,"ĠÐ¼Ð°Ð³Ð¸Ð¸":9882,"ĠÐ³Ð¾ÑĢÐ¾Ð´ÑģÐºÐ¾Ð¹":9883,"ĠÐ¿Ð¾ÑģÐ¿ÐµÑĪÐ½Ð¾":9884,"ÐµÑĩÐ½ÑĭÐ¹":9885,"ĠÐ¶Ð¸Ð²Ð¾Ð¿Ð¸Ñģ":9886,"ĠÐºÑĢÐ¸Ð·Ð¸Ñģ":9887,"Ð¸ÑĩÐ½Ð¾Ð³Ð¾":9888,"ĠÑģÑĤÐ¾Ð¿":9889,"ĠÐ¾Ð¿ÑĢÐµÐ´ÐµÐ»ÐµÐ½":9890,"ĠÑģÐ¾Ð¾Ð±ÑīÐµÐ½Ð¸Ñı":9891,"ĠÐ¿ÐµÐ¿":9892,"ĠÐ¿Ð¾ÐºÐ¾Ð½Ñĩ":9893,"ĠÐºÐ¾Ð¼Ð¸ÑģÑģÐ¸Ð¸":9894,"ÑĭÐ²Ð°Ð½Ð¸Ðµ":9895,"ĠÐ·Ð°Ð¼ÐµÐ´":9896,"ĠÐ³Ð¾ÑģÑĥÐ´Ð°ÑĢÑģÑĤÐ²":9897,"ÂłÐŁÐ¾Ð´":9898,"ĠÐ²ÑĭÐ·Ð²Ð°ÑĤÑĮ":9899,"ĠÐ²Ð¾Ð·Ð¼ÑĥÑĤ":9900,"Ð²Ð¾Ð»Ð½Ð¾Ð²":9901,"ĠÐ²ÑģÑĤÐ°ÑĤÑĮ":9902,"ĠÑĥÐ´Ð¸Ð²Ð¸ÑĤÐµÐ»ÑĮÐ½Ð¾":9903,"ĠÐļÐ¾Ñģ":9904,"ĠÐĽÐ°ÑĤ":9905,"ĠÑģÑĩÐ¸ÑĤÐ°Ð»Ð¸":9906,"ĠÐ´Ð¸Ð·":9907,"ÐµÐ½Ð¾Ñģ":9908,"ÐŁÐ°ÑĢ":9909,"Ð¾Ð½Ð¾Ñģ":9910,"ĠÐ¾Ð¿ÑĭÑĤÐ°":9911,"ÑĤÑĢÐ¾Ð¼":9912,"ĠÐ¿Ð¾Ð·Ð¸ÑĨÐ¸Ñİ":9913,"ĠÐ¿Ð¾Ð»ÑĮÐ·Ð¾Ð²Ð°ÑĤÑĮÑģÑı":9914,"Ð°ÑĤÐ¾ÑĢ":9915,"ĠÐľÑįÑĢÐ¸":9916,"ĠÐłÐ°Ð·ÑĥÐ¼ÐµÐµÑĤÑģÑı":9917,"Ð±Ð¾Ð²":9918,"ĠÐ±Ð¸Ð»":9919,"ÑĢÐ¾ÑģÐ¾Ð²":9920,"ĠÐľÐ¸Ð½Ð¸ÑģÑĤÐµÑĢ":9921,"ĠÑģÑĥÐ¶Ð´":9922,"ĠÐ¾ÑĤÑĤÐµÐ½":9923,"ĠÑĢÐ¾Ð¼Ð°Ð½ÑĤ":9924,"ĠÑĪÐ²ÐµÐ´":9925,"ĠÑĢÑĭÑĩ":9926,"ĠÐŀÐ´Ð½Ð°Ð¶Ð´Ñĭ":9927,"ĠÐ²Ð¾ÑģÐ¿Ð¾Ð»ÑĮÐ·Ð¾Ð²Ð°ÑĤÑĮÑģÑı":9928,"ĠÐŁÐ¾ÑĩÑĤÐ¸":9929,"ĠÐ·Ð°ÑĤÑĢÑĥÐ´":9930,"ĠÐ¾ÑĦÐ¸ÑĨÐ¸Ð°Ð»ÑĮÐ½Ð¾":9931,"Ð¾Ð±Ð½Ð¾Ð²":9932,"ĠÐ²ÑĭÐ³Ð»Ñı":9933,"ĠÐ²Ð¾Ð»Ðµ":9934,"ĠÐ¾Ð´Ð¸Ð½Ð¾Ðº":9935,"ĠÑĥÐ³Ð¾":9936,"Ð±ÐµÑĢÑĤ":9937,"ĠÐ³Ð¾ÑĢÐ¸Ð·Ð¾Ð½":9938,"ĠÐĵÐ»Ð°Ð²Ð½Ð¾Ðµ":9939,"ĠÐ±ÐµÑģÐ¿Ð¾ÑĢÑıÐ´":9940,"ĠÐ½Ð¾Ð³Ð¾Ð¹":9941,"ĠÐ´Ð¾ÐºÐ°Ð·ÑĭÐ²":9942,"ĠÐ½ÐµÐ¶ÐµÐ»Ð¸":9943,"Ð±Ð°Ð½":9944,"ĠÐ²ÐµÑģÑĤ":9945,"ĠÐ¼ÐµÑģÑĤÐ½ÑĭÐµ":9946,"ĠÐ²Ð°ÑĪÐ¸Ð¼":9947,"ĠÐ½ÐµÑĥÐ²ÐµÑĢ":9948,"ĠÐ²Ð¸Ð´Ð¸Ð¼":9949,"ĠÐ¾Ð±Ð¾ÑģÐ½Ð¾Ð²":9950,"ĠÐ¡Ð°ÑĪÐ°":9951,"Ð¸Ð¾":9952,"ĠÐ½Ð°Ð·ÑĭÐ²Ð°ÑĤÑĮ":9953,"Ð½ÑıÑİÑĤ":9954,"ÑĳÑĪÑĮ":9955,"ĠÐĿÐ¸Ð¶":9956,"ĠÐ´ÐµÐ¹ÑģÑĤÐ²ÑĥÐµÑĤ":9957,"ÑĥÑīÐµÐ¹":9958,"ĠÐ²Ð¾Ð¿ÑĢÐ¾ÑģÐ¾Ð¼":9959,"ĠÐ²Ð°Ð½":9960,"ĠÐ¿ÑĢÐ¾ÑĤÑıÐ½ÑĥÐ»Ð°":9961,"ĠÑģÑĥÑĤÐ¾Ðº":9962,"48":9963,"ĠÐ¿ÐµÑĢÐ²Ð¾Ð½Ð°Ñĩ":9964,"ĠÐºÐ¾Ð¼Ð°Ð½Ð´Ðµ":9965,"ĠÑĢÐ°Ð·Ð±Ð¾Ð¹":9966,"ĠÐ²Ð¾ÐºÐ·":9967,"Ð±ÐµÐ·":9968,"ĠÐ°ÑįÑĢÐ¾Ð¿Ð¾ÑĢÑĤ":9969,"ĠÑģÐ¿Ð¾ÑģÐ¾Ð±Ð¾Ð¼":9970,"ĠÑĥÐ¿ÑĢÐ°Ð¶":9971,"Ð´Ð¾ÑĢ":9972,"Ð¸ÑĩÐ½Ð°Ñı":9973,"ĠÐ½ÐµÐ¿ÑĢÐµÑĢÑĭÐ²":9974,"ĠÐ·Ð°ÑħÐ¾ÑĤÐµÐ»Ð¾ÑģÑĮ":9975,"ĠÑģÑĦÐµÑĢÐµ":9976,"ÑıÐ¹":9977,"ĠÐ¸ÑģÐ¿Ð¾Ð»ÑĮÐ·Ð¾Ð²Ð°Ð½Ð¸Ñı":9978,"ÑĩÐµÐ½":9979,"ĠÐºÐ¸ÑĪ":9980,"Ð¸Ð²ÑĭÐ¹":9981,"ĠÐ½Ð°Ð¿Ð¸ÑģÐ°ÑĤÑĮ":9982,"ĠÐ»ÑİÐ±Ð¸ÑĤÑĮ":9983,"ĠÐ¿ÑĢÐ¸ÑģÑĤÐ°Ð»ÑĮÐ½Ð¾":9984,"ÐµÑģÑĥ":9985,"ĠÑĤÑĥÑĪ":9986,"ĠÐľÐ°":9987,"ĠÑĢÐ°Ð·Ð½Ð¸ÑĨÐ°":9988,"ĠÐĽÐµÐ¹":9989,"ĠÐ·Ð°ÐºÐ¾Ð½Ñĭ":9990,"ĠÑĨÐ²ÐµÑĤÐ¾Ð²":9991,"ÐŁÐ¾ÐºÐ°":9992,"ĠÑħÐ¾ÑĢÐ¾ÑĪÐ¸Ðµ":9993,"Ð°ÑıÐ½":9994,"ĠÑĥÐ»ÐµÑĤ":9995,"ĠÐ²ÑģÑıÐºÐ¾Ð¹":9996,"ĠÑĥÐ½Ð¸Ðº":9997,"ĠÐ¿ÑĤÐ¸ÑĨ":9998,"ĠÐ¿Ð¾ÑģÑĤÑĥÐ¿Ð¸Ð»":9999,"ĠÐĴÑĭÐ±":10000,"ĠÐ¸Ð·Ð»ÑĥÑĩ":10001,"ĠÐłÐ°":10002,"ĠÐ´Ð¾ÐºÐ°Ð·Ð°ÑĤÑĮ":10003,"ĠÐ¸Ð·Ð´Ð°Ð»":10004,"ĠÑĥÐ¼ÐµÑĢÐ»Ð°":10005,"32":10006,"ĠÑħÐ¾Ðº":10007,"ĠÑģÑĩÐ¸ÑĤÐ°ÐµÑĤÑģÑı":10008,"Ð»Ð°Ð¼Ð¸":10009,"ĠÐ¿Ð¾ÑģÑĤÑĥÑĩ":10010,"ĠÐ¿ÑĢÐµÐ´Ð¿ÑĢÐ¸ÑıÑĤÐ¸Ñı":10011,"ĠÐ¼Ð°ÑħÐ½ÑĥÐ»":10012,"Ð°ÐµÐ¼Ð¾Ð³Ð¾":10013,"ĠÑģÐ¾Ð¾Ð±ÑīÐ¸ÑĤÑĮ":10014,"ĠÐ±Ð°Ð½ÐºÐ°":10015,"ĠÐ¼Ð½Ð¾Ð³Ð¾Ð¼":10016,"ĠÐ·Ð°ÑīÐ¸ÑĤÑĥ":10017,"ĠÐ²ÑĭÑıÑģÐ½Ð¸Ð»Ð¾ÑģÑĮ":10018,"ĠÐ»ÑİÐ±Ð¾Ðµ":10019,"55":10020,"Ð³ÐµÐ½ÑĤ":10021,"ĠÐŀÐ»":10022,"ĠÐłÑıÐ´Ð¾Ð¼":10023,"Ð¡Ðł":10024,"ĠÐ±ÐµÐ·ÑĢÐ°Ð·":10025,"ĠÑĥÐµÑħÐ°Ð»":10026,"ĠÑģÐºÐ¾ÑĢÐ¾ÑģÑĤÑĮÑİ":10027,"ÑĩÐ°Ð¹":10028,"ĠÐ±Ð°Ð±ÑĥÑĪÐºÐ°":10029,"ĠÐ²Ð¾Ð·Ð½Ð¸ÐºÐ°ÐµÑĤ":10030,"ÐĿÐ°ÐºÐ¾Ð½ÐµÑĨ":10031,"47":10032,"ĠÐ¤ÐµÐ´Ð¾ÑĢ":10033,"ĠÐ¾ÑĤÐ²ÐµÑĤÑģÑĤÐ²ÐµÐ½Ð½Ð¾ÑģÑĤÐ¸":10034,"ĠÑĥÑħÐ²Ð°ÑĤ":10035,"ĠÐ¿Ð»Ð°ÑĤÐ¸ÑĤÑĮ":10036,"ĠÐ¼ÐµÑĤÑĢÐ¾":10037,"ĠÑģÑĤÐ°Ð½Ñĥ":10038,"ĠÐ¸ÑģÑĩÐµÐ·Ð»Ð°":10039,"ĠÐĵÐ¾Ð»Ð¾Ñģ":10040,"ĠÐ»Ð°Ð³ÐµÑĢÑĮ":10041,"ĠÐ¼Ð¸ÑĢÐ¾Ð¼":10042,"ĠÐ²ÑĭÑĢÐ°ÑģÑĤ":10043,"ĠÐ´Ð¾Ð»Ñİ":10044,"ĠÐ²ÑĤÐ¾ÑĢÑĥÑİ":10045,"ĠÑģÑİÑĢ":10046,"ĠÑĩÑĥÐ´Ð¾":10047,"Ð½Ð¾Ð²ÐµÑģ":10048,"ĠÐŁÑĥÑĤÐ¸Ð½Ð°":10049,"ĠÑģÐ¾Ð´ÐµÑĢÐ¶Ð°Ð½Ð¸Ðµ":10050,"ĠÐĳÐµÐ»Ð¾ÑĢÑĥÑģ":10051,"ĠÐ½ÐµÐ¾Ð´Ð½Ð¾Ðº":10052,"ĠÑģÐ¼Ð¾ÑĤÑĢÐ¸":10053,"ĠÐ¿Ð¾ÑģÐ»ÐµÐ´Ð½Ð¸Ð¼":10054,"ĠÑĩÐµÑĢÑĤÑĭ":10055,"ĠÐ²Ð¾Ð¿Ð»Ð¾Ñī":10056,"ĠÐ¿ÑĢÐ¾ÑĪÐ»Ð¾Ðµ":10057,"ĠÑĦÐ°Ð»ÑĮ":10058,"ÑģÑĤÐ²ÐµÐ½Ð½Ð¾ÑģÑĤÑĮ":10059,"Ð°ÑĢÐ¸Ñı":10060,"ĠÐ·Ð°Ð¿Ð¸ÑģÐ¸":10061,"ĠÐ¾ÑĩÐ¸ÑģÑĤ":10062,"ÑĢÐ°ÑģÑģ":10063,"ÑĤÐ¾Ð±":10064,"ÑįÑĤÐ°Ð¶":10065,"ÑĸÐ²":10066,"ĠÐ¿Ð¾ÐºÐ¸Ð½ÑĥÐ»":10067,"ÐĴÐµÑĢ":10068,"ĠÐ±Ð¾ÑĢÐ¾ÑĤÑĮÑģÑı":10069,"ĠÐ»ÑĥÐ½":10070,"ĠÐ½Ð°ÑĢÑı":10071,"ĠÐ¾ÑĤÐ²ÑĢÐ°ÑĤ":10072,"ĠÐĳÐ°Ð»":10073,"ĠÐ·Ð°Ð½ÑıÑĤÑĮÑģÑı":10074,"Ð¾Ð·ÑĢ":10075,"ĠÐ¾ÑģÑĤÐ°ÑĤÐºÐ¸":10076,"ĠÑģÐ½ÐµÐ¶":10077,"ĠÐ´Ð¸ÑģÑĨÐ¸Ð¿":10078,"Ð¾Ð¶Ð¸ÑĤÑĮ":10079,"ĠÐ¸Ð¼ÐµÑı":10080,"ĠÐ²Ð¾Ð»Ð¾ÑģÐ°Ð¼Ð¸":10081,"ÂłÐ¡ÑĤ":10082,"ĠÑģÐ½ÑıÑĤ":10083,"Ð¸ÑĤÐµÑĤÐµ":10084,"ĠÑģÐ´ÐµÐ»Ð°ÐµÑĤ":10085,"ĠÐ´Ð¾ÑĢÐ¾Ð³Ð¾":10086,"ĠÑĢÐµÑģÐ¿":10087,"ĠÐ·Ð»Ð¾Ð²":10088,"ĠÑģÐ¾Ð¾Ð±ÑīÐµÐ½Ð¸Ð¸":10089,"ÐľÐĲ":10090,"ĠÑĤÐµÐ½":10091,"Ð°Ð±ÐµÐ»ÑĮ":10092,"ÑİÑģ":10093,"ĠÐ·ÑĥÐ±Ð°Ð¼Ð¸":10094,"Ð¢Ð°Ð¼":10095,"Ġ300":10096,"ĠÐ¾Ð¶Ð¸Ð´Ð°Ñı":10097,"ĠÐ¿ÑĢÐµÐ¾Ð±ÑĢÐ°Ð·":10098,"ĠÑģÐ¿ÑĢÐ°Ð²Ð°":10099,"Ð½ÑıÑĤ":10100,"ĠÐ¿ÑĢÑıÐ¼Ð¾Ð¹":10101,"Ð¾Ð½Ð°Ñħ":10102,"Ð¢Ð¬":10103,"ĠÑĩÑĥÐ²ÑģÑĤÐ²Ð¾Ð²Ð°ÑĤÑĮ":10104,"ĠÐºÐ°Ð½ÑĨ":10105,"ĠÐ·Ð½Ð°ÐºÐ¾Ð¼ÑĭÐ¹":10106,"ĠÐ¿ÑĢÐ¸ÑģÑĥÑĤÑģÑĤÐ²Ð¸Ðµ":10107,"ĠÐ²ÑĭÑģÐ¾ÐºÐ¾Ð³Ð¾":10108,"ĠÐĴÐ°ÑĪÐ¸Ð½Ð³":10109,"ĠÐ¡Ð¸Ð»ÑĮ":10110,"ĠÐ½ÐµÑİ":10111,"ĠÑģÑĦÐ¾ÑĢÐ¼":10112,"ĠÐ¿Ð°ÑĢÐ°Ð»Ð»":10113,"ÑĥÐ»Ðµ":10114,"ĠÐ¿Ð¾ÐºÐ°ÑĩÐ°Ð»Ð°":10115,"ÑĢÑĥÑİ":10116,"ĠÐĽÐµÐ³":10117,"ĠÐ½ÐµÐ·Ð°Ð¼":10118,"ĠÐ¼Ð¾ÑĢÑī":10119,"Ð»Ð¸Ð²ÑĭÐ¼":10120,"199":10121,"ÑĢÐ°ÑĨÐ¸Ñı":10122,"ĠÐ¿Ð¾Ð»ÑĤÐ¾ÑĢÐ°":10123,"ĠÐ¿Ð¾Ð»Ð¾Ð²Ð¸Ð½Ñĭ":10124,"ĠÐ¿ÑĢÐ¸Ð½ÑıÐ»Ð°":10125,"Ð¾ÑĪÐ»Ð¾":10126,"ĠÐ½Ð°ÑĨ":10127,"ĠÐ¼ÐµÐ´Ð¸ÑĨÐ¸Ð½":10128,"ÐºÑĥÐ»ÑĮ":10129,"ĠÐ²Ð¾Ð·Ð²ÑĢÐ°ÑīÐ°ÑĤÑĮÑģÑı":10130,"ĠÐºÐ°Ð±Ð¸Ð½ÐµÑĤÐ°":10131,"ĠÐ¸Ð½Ð´ÐµÐ¹":10132,"ĠÐ²Ð½ÐµÐ·Ð°Ð¿":10133,"Ð³ÑĢÐ°":10134,"ĠÑģÑĤÑĢÐ¾Ð¸ÑĤÐµÐ»ÑĮÑģÑĤÐ²Ð¾":10135,"ĠÐ¾Ð±ÐµÑģÐ¿ÐµÑĩÐ¸ÑĤÑĮ":10136,"ĠÐļÑĥ":10137,"ĠÐºÐ¾Ð¼Ð°Ð½Ð´Ð¸ÑĢÐ°":10138,"ĠÐ¼Ð¾Ð³ÑĥÑĩ":10139,"ĠÐ·Ð¾Ð»Ð¾ÑĤÐ¾":10140,"ÐĲÐ²":10141,"ÐµÑĤÐºÑĥ":10142,"ĠÐ¼Ð¾Ð»Ð¾Ð´ÑĭÐµ":10143,"Ġ188":10144,"ĠÐºÐ°ÑĢÑĤÐ¸Ð½Ð°":10145,"ĠÑĤÑĥÑĢÐµÑĨ":10146,"ĠÑģÐ°Ð¼Ð¾Ð´":10147,"ĠÐ´ÐµÑĤÑģÑĤÐ²Ðµ":10148,"ĠÑģÑĤÐ°Ð»Ðº":10149,"ĠÐ¿Ð¾ÐºÐ°Ð·ÑĭÐ²Ð°ÐµÑĤ":10150,"ĠÐ¿Ð°Ñĩ":10151,"Ð°ÐµÐ¼Ð¾Ð¹":10152,"ĠÐ±Ð¾Ð¼Ð±Ð°ÑĢÐ´":10153,"ĠÐĵÑĢÐµ":10154,"ĠÐºÐ°ÑĤÐ¾Ð»":10155,"Ð°Ð»Ð¸Ð·Ð¼":10156,"ĠÐ¾Ð±Ð½Ð¸Ð¼":10157,"ĠÑģÐ´ÐµÐ»Ð°Ð½Ð¾":10158,"ĠÑģÐ¿ÑĢÐ°Ð²Ð¸ÑĤÑĮÑģÑı":10159,"ĠÐļÐ¾ÑĤ":10160,"ĠÑĤÐ¾ÑĢÐ³":10161,"ĠÐ°ÐºÑĨÐ¸Ð¸":10162,"ĠÑģÐ¾Ð±Ð¸ÑĢÐ°Ð»Ð°ÑģÑĮ":10163,"ÑĢÐ°ÑģÑĤÑĮ":10164,"Ð½ÑĥÑĤÑģÑı":10165,"ĠÐ±ÐµÐ»ÑĭÑħ":10166,"Ð¾ÐºÑĢÑĥÐ³":10167,"ĠÐ¿Ð¾Ð´Ð´ÐµÑĢÐ¶ÐºÐ¸":10168,"Ð¸Ð»Ð¸Ð½":10169,"ĠÐ¼Ð°ÑĢÐºÐ¸":10170,"ĠÑĥÑģÑĤÑĢÐ°Ð½":10171,"ĠÑģÐ¼ÐµÑı":10172,"ĠÐ¼Ð¸Ð»Ð»Ð¸Ð°ÑĢÐ´":10173,"Ð¾Ð³Ð¾Ð¹":10174,"ÂłÐŁÐ¾Ñģ":10175,"ĠÑĥÐ±Ð¸Ð²Ð°ÑĤÑĮ":10176,"ĠÑĦÐµÐ²ÑĢ":10177,"ĠÑĥÑİÑĤ":10178,"ĠÐ¾ÑģÐ½Ð¾Ð²Ð½ÑĭÑħ":10179,"ĠÐºÑĥÑĢÑģÐµ":10180,"ĠÐ²ÐµÐ»Ð°":10181,"ĠÑĪÐºÑĥ":10182,"ĠÐ¿Ð¾Ð¼ÐµÑīÐµÐ½Ð¸Ðµ":10183,"ÑĪÐµÐ¹ÑģÑı":10184,"ĠÐ´Ð²Ð¾Ð¸Ñħ":10185,"ĠÑĪÐ°Ð³Ð¾Ð¼":10186,"ĠÑģÑĤÐµÑģ":10187,"ĠÐŁÑĢÑı":10188,"Ð¾ÑĪÐµÐ½":10189,"ĠÐ¾Ð·ÐµÑĢÐ°":10190,"ĠÐ½Ð¸Ð³Ð´Ðµ":10191,"Ð¸Ð¹ÑģÐºÐ°Ñı":10192,"ĠÐ¡ÑĤÐ°Ð½":10193,"ĠÐ½ÐµÐ³ÑĢÐ¾Ð¼":10194,"ĠÑĢÐ°ÑģÐ¿ÑĢÐµÐ´ÐµÐ»":10195,"ÂłÂłÂłÂłÂłÂłÂłÂłÂłÂłÂłÂłÂłÂłÂłÂł":10196,"ÐµÐ¾Ð´":10197,"ĠÐ¿ÑĢÐ¾ÑģÑĤÑĢÐ°Ð½ÑģÑĤÐ²Ð°":10198,"ÑĥÐ´Ð¸Ð»":10199,"ĠÑģÐ°Ð¹ÑĤ":10200,"ĠÐ¾ÑĤÐ¼ÐµÑĤÐ¸ÑĤÑĮ":10201,"ĠÐ½Ð°Ð´Ð¿Ð¸ÑģÑĮ":10202,"Ð¾ÑĩÐ¸ÑĤÑĮ":10203,"ĠÐ¿ÑĢÐ¾ÑĨÐµÑģÑģÐ°":10204,"ĠÐ²ÑĭÐ¿ÑĢÑıÐ¼":10205,"ĠÐ¿Ð¾ÑĢÐ¾Ð³Ðµ":10206,"ĠÐ·Ð°ÑĢÐ¿Ð»":10207,"ĠÐ£Ð²Ð¸Ð´":10208,"ĠÐ½Ð¸Ñī":10209,"ĠÐ²ÑĭÐ·Ð¾Ð²":10210,"ĠÐ·ÑĢÐµÐ»Ð¸":10211,"ĠÐ½ÐµÑĥÐº":10212,"ĠÐ±ÑĭÐ²Ð°ÑİÑĤ":10213,"ĠÐ²ÑĭÐ±Ð¾ÑĢÐ°":10214,"Ð¸Ð¼Ð¾Ð²":10215,"Ð¾Ð³Ð¾Ð¼":10216,"ĠÐ´Ð°Ð²Ð°Ð»":10217,"ĠÐ³Ð¾ÑģÑĥÐ´Ð°ÑĢÑģÑĤÐ²ÐµÐ½Ð½Ð¾Ð³Ð¾":10218,"ĠÐĵÑĢÑĥÐ·":10219,"ÐºÐ½Ð¾Ð²":10220,"Ð²Ð¾ÐµÐ¼Ñĥ":10221,"ĠÐ·Ð°ÐºÐ»ÑİÑĩÐ°ÐµÑĤÑģÑı":10222,"ĠÐ´ÐµÑĢÐµÐ²Ð½Ñı":10223,"ĠÐ¾Ð±Ð»Ð°Ñĩ":10224,"ĠÐ¯Ð¿Ð¾Ð½Ð¸Ð¸":10225,"ĠÐ²ÑĢÐ°Ð¶ÐµÑģÐº":10226,"ĠÑİÐ½Ð¾ÑĪÐ°":10227,"\">":10228,"ĠÑĢÐ°Ð·Ð³Ð¾Ð²Ð°ÑĢÐ¸Ð²Ð°ÑĤÑĮ":10229,"ĠÐ²ÑĩÐµÑĢÐ°ÑĪ":10230,"ĠÑģÑĤÑĢÑĥÐºÑĤÑĥÑĢ":10231,"ĠÐ¿Ð¾ÐºÐ°Ð·Ð°Ð»ÑģÑı":10232,"ĠÑĤÐ¾ÑĢÐ¾Ð¿Ð»Ð¸Ð²Ð¾":10233,"ÐµÑĤÐµÐ»ÑĮ":10234,"ĠÑįÐºÑģÐ¿Ð»Ñĥ":10235,"ĠÐ¾Ð±Ð½Ð¾Ð²":10236,"ÑİÐ»ÑĮ":10237,"ĠÑįÑģÑĤ":10238,"ÑİÐ¹":10239,"ĠÑĥÑĩÐ°ÑģÑĤÐ¾Ðº":10240,"ĠÑĤÐ¾ÑĩÐ½ÐµÐµ":10241,"Ð²Ð¾ÐµÐ¼":10242,"ĠÐ¡Ð¿Ð°Ñģ":10243,"ĠÐ¾Ð±ÑĢÐ°ÑĤÐ¸Ð»":10244,"ĠÐ¼Ð°ÑģÑģÐ¸Ð²":10245,"ĠÐ¢Ð°ÑĤÑĮÑı":10246,"Ð¿ÑĢÐ¾ÑģÐ¸Ð»":10247,"ĠÐ±ÑİÐ´Ð¶ÐµÑĤ":10248,"ĠÐ²Ð¸ÑĢ":10249,"ĠÑĥÑģÐ¿ÐµÑħÐ°":10250,"Ð¸Ð½ÐºÐµ":10251,"ĠÐ±Ð»Ð°Ð¶":10252,"ÂłÐĿÐ¸Ðº":10253,"ĠÑĢÐ¾Ð´Ð½Ð¾Ð¹":10254,"Ð¸ÑĤÑĭÐµ":10255,"ÐµÐ²ÑĢ":10256,"ĠÐĴÐµÑģÑĮ":10257,"ĠÑĥÐ·Ð½Ð°Ð»Ð¸":10258,"ÑİÑĪÐºÐ°":10259,"ĠÐ¾Ð±Ð¶":10260,"ĠÐ¿Ð¾Ð´Ð½ÑıÐ²":10261,"ĠÐŀÑħ":10262,"ĠÐ¾Ð±Ð¾Ð¹ÑĤÐ¸":10263,"ĠÑģÑĤÐ¾Ð»Ð¸ÑĨÑĭ":10264,"ĠÐ½Ð°ÑħÐ¾Ð´Ð¸ÑĤÑĮÑģÑı":10265,"ĠÑģÑĭÐ½Ð¾Ð¼":10266,"ĠÐ¼ÑıÑģÐ°":10267,"Ġ2006":10268,"ĠÐ¿Ð¾ÑģÐ»ÑĥÐ¶":10269,"ĠÑĥÐ³Ð°Ð´":10270,"ÐµÐ»ÐµÑĤ":10271,"ĠÑĤÐµÐ»Ñĥ":10272,"ĠÑģÑĤÑĢÐ¾Ð¸ÑĤÐµÐ»ÑĮÑģÑĤÐ²Ð°":10273,"ĠÐ²Ð·ÑıÐ²":10274,"ĠÐ¿Ð¾Ð·Ð²Ð¾Ð½Ð¸Ð»":10275,"ĠÐºÐ°ÑİÑĤ":10276,"ĠÑĤÑĢÐµÑī":10277,"ĠÑģÑĤÐ°ÑĢÑĪÐµ":10278,"ĠÐĿÐĲÐ¢Ðŀ":10279,"ĠÐĶÐ¾ÑģÑĤ":10280,"ĠÐ¾ÑĤÐ²ÐµÑĢÐ³":10281,"ĠÐĽÐ¸ÑĨÐ¾":10282,"Ð°Ð»ÐµÐ¹":10283,"ĠÐ¾ÑĤÐ¼ÐµÑĩÐ°ÐµÑĤ":10284,"ĠÑģÐµÐ¼Ð¸":10285,"ĠÐ´ÑĢÑĥÐ·ÑĮÑıÐ¼Ð¸":10286,"ÐµÑħÐ°":10287,"ÑĥÐ¼Ð½Ð¾":10288,"ĠÑıÐ´":10289,"ĠÐľÐµÐ¶Ð´ÑĥÐ½Ð°ÑĢÐ¾Ð´":10290,"ĠÐ½ÐµÐ²ÐµÐ´Ð¾Ð¼":10291,"ĠÐĵÐ¾ÑĢÐ¾Ð´":10292,"Ð½ÐµÐ½":10293,"ĠÐ³ÑĢÐ°Ð½Ð¸ÑĨ":10294,"ĠÐ½Ð¾Ð²Ð¾ÑģÑĤ":10295,"ĠÑģÐ¾Ð»Ð¸Ð´":10296,"ÐºÐ°Ð´":10297,"ĠÑĢÐµÐ³Ð¸ÑģÑĤ":10298,"ĠÑģÐ°Ð¼Ð¸Ñħ":10299,"ĠÑĨÐµÐ»Ð¸ÐºÐ¾Ð¼":10300,"ĠÑģÐ¾Ð¿ÑĢÐ¾Ð²Ð¾Ð¶":10301,"ÐµÑģÑĤÑĢÐ°":10302,"ÑģÑĤÐ°ÑĢ":10303,"Ð°Ð½ÑĨÐµÐ²":10304,"ĠÑĤÐ¾Ð»ÐºÑĥ":10305,"ĠÑģÐ¾Ð³Ð»Ð°ÑģÐµÐ½":10306,"ĠÐ¿ÐµÑĢÐµÐ¼ÐµÐ½":10307,"ĠÑĤÑĢÑıÐ¿":10308,"ÑģÑĤÑĢÐµÐ»Ñı":10309,"ĠÐ³Ð¾ÑģÐ¿Ð¾Ð´Ð°":10310,"ĠÐľÐ°Ð»Ð¾":10311,"Ð¼ÐµÐ½Ð½Ð¾":10312,"ĠÐ²ÐµÑĢÑĭ":10313,"ĠÐ£Ð¼":10314,"ÐµÐ»ÑıÐ¼Ð¸":10315,"ĠÐľÐµÐ¹":10316,"ÂłÐĹÐ½Ð°":10317,"ĠÑĪÐ¾ÑģÑģÐµ":10318,"ĠÐ½ÐµÐ¾Ð±ÑħÐ¾Ð´Ð¸Ð¼Ð¾ÑģÑĤÑĮ":10319,"ĠÐ¼Ð°ÑĤÑĩÐ°":10320,"ĠÐ¾ÑģÐ½Ð¾Ð²Ð°Ð½Ð¸Ð¸":10321,"ÂłÐŀÐ½Ð¸":10322,"ĠÐ´Ð¸ÑģÑĤÐ°Ð½":10323,"ĠÐ²ÑĭÐ¿Ð¾Ð»Ð½ÑıÑĤÑĮ":10324,"ĠÐ¿Ð¾ÑģÐ¾Ð»ÑĮ":10325,"ÑģÐ¸Ð´":10326,"ĠÐ¾ÑĢÐ³Ð°Ð½Ð¸Ð·Ð°ÑĨÐ¸Ñı":10327,"ĠÐ±Ð°Ðº":10328,"ĠÐ¸Ð·ÑıÑī":10329,"ĠÐŁÐ°ÑĤ":10330,"ĠÐ²ÑĭÐ·Ð²Ð°Ð»":10331,"ĠÑĩÑĥÐ¶Ð¾Ð¹":10332,"ĠÐ·Ð°Ð¿ÑĥÑģÐº":10333,"ĠÑĦÐ¸Ð³ÑĥÑĢÐ°":10334,"ĠÐ²ÑĤÐ¾ÑĢÐ¾Ðµ":10335,"ÐµÐ´ÐµÑĤ":10336,"Ð¾Ð²Ð°ÑĤÐµÐ»ÑĮÐ½Ð¾":10337,"ĠÐ½Ð°Ð¿ÑĢÐ°Ð²Ð»ÐµÐ½Ð¸Ðµ":10338,"Ð¾ÑĩÐ½Ð¾Ðµ":10339,"ÐµÑģÐºÐ¸":10340,"ĠÐ¾ÐºÑĢÑĥÐ³Ð°":10341,"ĠÑģÐ»ÑĭÑĪÐ°Ð»Ð¸":10342,"Ð¸ÑħÐ°":10343,"ĠÐ½Ð°Ð´ÐµÑıÐ»ÑģÑı":10344,"75":10345,"ĠÐ¿ÑĢÐµÐ´ÑģÑĤÐ°Ð²Ð»ÑıÐ»":10346,"ĠÐ´Ð²ÐµÐ½Ð°Ð´ÑĨÐ°ÑĤÑĮ":10347,"ĠÐŁÑĢÐµÐ·Ð¸Ð´ÐµÐ½ÑĤ":10348,"Ð»Ð¸Ð²ÑĭÐµ":10349,"ĠÑĩÑĮÐ¸":10350,"ĠÑģÑĤÐ¸ÑħÐ¾ÑĤÐ²Ð¾ÑĢ":10351,"ĠÐ¾ÑĤÐ¿ÑĢÐ°Ð²Ð¸Ð»Ð¸ÑģÑĮ":10352,"ÑĥÑĢÐ¾Ð²":10353,"ĠÐ¿ÑĢÐ¾ÑĩÐ¸Ñħ":10354,"ĠÐ¾Ð±ÑĬÐµÐºÑĤÐ¾Ð²":10355,"Ð°Ð´Ð¶":10356,"ĠÐ¼Ð¾ÑĤ":10357,"ĠÐŀÐ·":10358,"ĠÑģÑĢÐ¾ÑĩÐ½Ð¾":10359,"ĠÐ¾Ð±ÑĢÐ°Ð±Ð¾ÑĤ":10360,"ĠÐ±ÐµÑģÐ¿Ð¾Ð¼Ð¾Ñī":10361,"ĠÐ¾Ð¶Ð¸Ð´Ð°ÑĤÑĮ":10362,"ĠÐ±ÐµÑĪÐµÐ½":10363,"ĠÑģÐ¾Ð±ÑĢÐ°Ð»Ð¸ÑģÑĮ":10364,"ĠÑĥÐ´Ð°Ð²Ð°Ð»Ð¾ÑģÑĮ":10365,"ĠÐľÐ°Ð¼Ð°":10366,"ĠÐ¿Ð¾Ð·Ð²Ð¾Ð»Ð¸ÑĤ":10367,"ĠÐ¾ÑĩÐºÐ¸":10368,"Ð¸ÑĢÑĥÑĢ":10369,"ĠÑĢÐ°Ð·Ð²Ð¾Ð´":10370,"ÑĥÑģÑĤÑı":10371,"ÑĢÑĭÐ³":10372,"ĠÐ¼Ð°ÑĤÐµÑĢÑĮÑİ":10373,"ĠÐ½Ð°Ð¿Ð¾Ð¼Ð½Ð¸Ð»":10374,"ÐµÐ²Ð¸Ð´Ð½Ð¾":10375,"ĠÑĦÐ¾Ð½Ð´":10376,"Ð½Ð¸ÑĩÐ°ÑĤÑĮ":10377,"ĠÐ½Ð°Ð±Ð»ÑİÐ´Ð°ÑĤÑĮ":10378,"ĠÐ¿ÑĢÑĭÐ¶":10379,"ĠÐ½ÐµÐ²ÐµÑģÑĤ":10380,"Ð²Ð¸Ð½ÑĥÐ»":10381,"Ð¸ÑģÐºÐ°":10382,"ĠÐ·Ð°Ð½Ð¸Ð¼Ð°ÐµÑĤ":10383,"ĠÑįÑĤÐ°Ð¶Ðµ":10384,"ĠÑĤÑĢÑıÑģ":10385,"Ð¾ÐºÑĥÑģ":10386,"ĠÑĥÐ»ÑĭÐ±Ð°ÑıÑģÑĮ":10387,"ĠÐ¿Ð¾ÐµÐ´Ð¸Ð½":10388,"ĠÑģÑĤÑĢÐ°Ð¶":10389,"ÑĳÐ½Ð½Ð¾":10390,"ĠÐ¡ÐŁ":10391,"Ð°ÑİÑīÐµÐ¹ÑģÑı":10392,"ĠÐ¼ÑĥÐ¶ÑĩÐ¸Ð½Ñĥ":10393,"ĠÑĢÐµÐ¹ÑĤ":10394,"ĠÐĶÐ¼Ð¸ÑĤÑĢÐ¸":10395,"ÑĤÐ²Ð¾ÑĢ":10396,"ĠÐ²ÑĨÐµÐ¿":10397,"ÂłÐ¤":10398,"ĠÐĹÐ°ÑĢ":10399,"ĠÐ²Ð°Ð¶Ð½Ð¾Ðµ":10400,"ĠÐºÐ¾Ð½ÑĤÑĢÐ¾Ð»Ñı":10401,"ĠÐ´Ð²Ð¸Ð½ÑĥÐ»ÑģÑı":10402,"Ð°ÑĢÑĤÐ°Ð¼":10403,"Ð»ÐµÑĨ":10404,"ĠÑģÐµÐ´ÑĮ":10405,"ĠÐ·Ð²Ð°Ð»Ð¸":10406,"49":10407,"ÑĤÐµÑģÑĮ":10408,"ĠÐŁÑĢÐµÐ¶Ð´Ðµ":10409,"ĠÑĢÑĭÑĨ":10410,"ĠÐ¾Ð±ÐµÐ¸Ñħ":10411,"Ð²Ð¸Ñģ":10412,"ĠÐĶÐ°Ð¹":10413,"ĠÑģÐ¾Ð±Ð°ÐºÐ¸":10414,"ĠÐ¿ÑĢÐ¸ÑĢÐ¾Ð´Ðµ":10415,"ĠÐŁÐ°Ð½":10416,"Ð¢ÐµÐ¼":10417,"ĠÐ¾ÑĢÐ³Ð°Ð½Ð¸Ð·Ð°ÑĨÐ¸Ð¹":10418,"ÑĥÐ»ÑģÑı":10419,"ĠÐ²ÑĭÐ¿Ð¸ÑĤÑĮ":10420,"ĠÐ¾ÑĤÑĪ":10421,"ĠÐ²Ð·Ð²Ð¾Ð»Ð½Ð¾Ð²":10422,"ĠÐºÑĢÐµÐ¿Ð¾ÑģÑĤÐ¸":10423,"ĠÐ¿ÐµÑĢÐµÑĩÐ¸Ñģ":10424,"ĠÐºÐ¾ÑĢÐ·":10425,"ĠÑĤÑĢÑĳÑħ":10426,"ĠÐ¶ÐµÐ½Ðµ":10427,"Ð»ÑıÐ½Ð´":10428,"Ð·Ñĭ":10429,"ĠÑįÐ¼Ð¾ÑĨÐ¸Ð¾Ð½":10430,"ÐµÐ¹ÐºÐ¸":10431,"ÑĥÐ´Ñĭ":10432,"ĠÐ¿ÑĢÐµÐ´ÑģÐºÐ°Ð·":10433,"ĠÐºÐ°Ð·Ð°Ð»Ð°ÑģÑĮ":10434,"ĠÐĳÐ°ÑĪ":10435,"ĠÐĸÐ¸Ð²":10436,"ĠÐļÐµÑĢ":10437,"ĠÐ°ÑĢÐ³ÑĥÐ¼":10438,"ĠÑģÐµÐ·Ð¾Ð½Ð°":10439,"ĠÐ¶ÐµÐ½Ð¸":10440,"ÐłÐ£":10441,"ĠÐ¿ÑĢÐ¾Ð¸Ð·Ð²Ð¾Ð´ÑģÑĤÐ²Ð¾":10442,"ĠÐĽÐµÐ¾Ð½Ð¸":10443,"ĠÐ¿Ð»Ð°Ð½ÐµÑĤ":10444,"ĠÐ¿Ð°ÑĢÑĤÐ¸Ð·":10445,"ĠÐĲÐºÐ°Ð´ÐµÐ¼":10446,"ĠÐ¿Ð¾Ð³Ð°Ñģ":10447,"ÑĦÐ¾ÑĢÑĤ":10448,"ĠÐ¾Ð³ÑĢÐ¾Ð¼Ð½Ð¾Ð¹":10449,"ĠÐĽÐ¸Ð³":10450,"ĠÐ±ÑĢÐ°ÑĤÑĮÐµÐ²":10451,"ÑĦÐ¸ÐºÑģ":10452,"ĠÑĥÐ²ÐµÑĢÐµÐ½Ñĭ":10453,"ĠÐ¾ÑĤÐ¾ÑĢÐ²":10454,"Ð¾Ð¿ÑĤ":10455,"ĠÑģÐ»ÐµÐ²Ð°":10456,"ĠÐ¼Ð¾Ð´ÐµÐ»Ð¸":10457,"ÑĨÐºÐ¸Ð¹":10458,"ĠÐ¸Ð½ÑģÑĤÐ¸Ð½ÐºÑĤ":10459,"ÑĢÑĭÐ»Ð°":10460,"ĠÑĥÐ½Ñĭ":10461,"ĠÐ¿Ð¾Ð¿Ð°Ð»Ð°":10462,"ĠÐ°Ð²ÑĤÐ¾Ð¼Ð¾Ð±Ð¸Ð»Ñı":10463,"ĠÐ¤ÑĢÑįÐ½":10464,"Ð¾Ð½Ð¸Ð¼":10465,"ĠÐ¯Ñģ":10466,"ĠÐ¿Ð¾Ð´Ð³Ð¾ÑĤÐ¾Ð²ÐºÐ¸":10467,"ĠÐ½Ð°ÑĩÐ¸Ð½Ð°Ñı":10468,"ĠÐ´Ð¾Ð±ÑĢÐ¾Ð²Ð¾Ð»ÑĮ":10469,"ĠÐĴÐ¾Ð»Ð¾Ð´":10470,"ĠÐ²Ð¾Ð·Ð¾Ð±Ð½Ð¾Ð²":10471,"ĠÐľÐµÐ´Ð²ÐµÐ´":10472,"ĠÐ´ÐµÑĤÐ°Ð»Ð¸":10473,"ĠÐ²ÑĭÑħÐ¾Ð´Ñĥ":10474,"Ð¾ÐºÐ¾Ð»ÑĮ":10475,"Ð¸Ð´Ð¾Ð²":10476,"Ð»Ð°ÑĤÑĭ":10477,"ĠÐ½ÐµÐ±ÑĢÐµÐ¶":10478,"ĠÐ¿Ð¾Ð´ÑħÐ¾Ð´Ð¸ÑĤ":10479,"ĠÐ²ÑģÐºÑĢÐ¸Ðº":10480,"Ð°Ð»ÑĮÑı":10481,"Ð°Ð»Ð¸Ñı":10482,"ĠÐ¡Ð¸Ð±Ð¸ÑĢ":10483,"ĠÑĥÐ¼ÐµÐµÑĤ":10484,"ÑģÐ¸Ñİ":10485,"ĠÑĢÑĤÐ°":10486,"ĠÑĢÐµÐ¼Ð¾Ð½ÑĤ":10487,"ĠÐ³ÑĢÐ°Ð²":10488,"ĠÑĢÐµÑĪÐ°ÑĤÑĮ":10489,"ĠÑĩÐµÐ»Ð¾Ð²ÐµÑĩÐµÑģÐºÐ¾Ð³Ð¾":10490,"ĠÐ¿ÑĢÐ¾Ð²ÐµÐ»Ð°":10491,"ĠÑģÐ¾Ð²ÐµÑĢÑĪÐ¸Ð»":10492,"ĠÑĢÐ°ÑģÐºÑĢÑĭÐ²":10493,"ĠÐ¿ÑĢÐ¸Ð²ÐµÐ»":10494,"ÑĢÐ¾Ð²Ð¾Ð¹":10495,"ĠÐ¾ÑĢÐ³Ð°Ð½Ñĭ":10496,"ĠÐ´ÐµÑĤÑıÐ¼":10497,"ĠÑģÐºÐ¾Ð½Ñĩ":10498,"ĠÑģÑĢÐµÐ´Ñĥ":10499,"ĠÑģÑĤÐ°ÑĢÐ¸ÐºÐ°":10500,"ĠÐ»ÑĥÑĩÑĪÐ¸Ð¹":10501,"ĠÐ³Ð¾ÑģÐ¿Ð¸ÑĤ":10502,"ĠÐ´ÐµÑģÑıÑĤÐ¸Ð»ÐµÑĤ":10503,"ÑĥÐ»ÑĮÐ¿":10504,"ĠÐºÐ¾Ð»ÑĮÑĨÐ¾":10505,"ĠÑĢÐ¾ÑģÑģÐ¸Ð¹ÑģÐºÐ¸Ð¹":10506,"ÑĪÐ¸Ð¿":10507,"Ð²Ð¾Ñī":10508,"ĠÐ¿Ð¾Ð¼Ð¾Ð³Ð°ÐµÑĤ":10509,"ĠÐ¿ÑĢÐ¸Ð¾ÑĤÐº":10510,"ĠÐ½Ð°Ð·Ð½Ð°ÑĩÐµÐ½":10511,"ĠÑģÐµÑĢÑĮÑĳÐ·":10512,"ÑĢÐ°ÑĤÑĮÑģÑı":10513,"Ð±Ð°ÑĢ":10514,"ĠÐľÐ¸Ðº":10515,"ĠÑĢÐ¾ÑģÑģÐ¸ÑıÐ½":10516,"ĠÐ²Ð¾ÐµÐ½Ð½ÑĭÐ¹":10517,"ĠÐ¼ÐµÑħÐ°Ð½Ð¸Ð·Ð¼":10518,"ĠÑģÑĤÐ°Ð½Ð¾Ð²Ð¸Ð»Ð¾ÑģÑĮ":10519,"ĠÐ·Ð´Ð¾ÑĢÐ¾Ð²ÑĮÑı":10520,"ÐłÐķ":10521,"ĠÐĴÐ¾ÑĢÐ¾Ð½":10522,"ĠÐĶÐ¶ÑĥÐ»Ð¸":10523,"ĠÐ¿ÐµÑĢÐµÐ½ÐµÑģ":10524,"ĠÐ¸Ð½ÑĤÐµÑĢÐµÑģÑĭ":10525,"ĠÐ¿Ð¾Ð»Ð¸ÑĤÐ¸ÑĩÐµÑģÐºÐ¸Ñħ":10526,"ĠÑĤÐµÐ¼Ðµ":10527,"ĠÐºÐ»Ð¸ÐµÐ½ÑĤ":10528,"ĠÐ¾Ð±Ð´ÑĥÐ¼":10529,"ĠÐ¿ÑĢÐ¸Ð¼ÐµÑĤ":10530,"ĠÑĤÐµÐ°ÑĤÑĢÐ°":10531,"ĠÐºÐ¾Ð¶Ñĥ":10532,"ĠÑģÑĤÐ°ÑĤÑĥ":10533,"ĠÐ½ÐµÐ´Ð¾Ð»Ð³Ð¾":10534,"ĠÑģÐ¾Ð²ÐµÑĤÑģÐºÐ¸Ñħ":10535,"ĠÐľÐ¸ÑģÑģ":10536,"ĠÐ³Ð¾ÑģÑĤÐ¸Ð½Ð¾Ð¹":10537,"ĠÐ¾ÑĤÑĢÑıÐ´Ð°":10538,"Ð»ÐµÐ½Ð½Ð¾ÑģÑĤÑĮ":10539,"ĠÑĨÐµÐ»ÑĥÑİ":10540,"ÂłÐĵÐ´Ðµ":10541,"ĠÐ¿Ð¾ÐºÐ¾Ñı":10542,"ĠÑĥÑħÐ¾Ð´Ð¸ÑĤ":10543,"ĠÑıÐ²Ð¸Ð»ÑģÑı":10544,"ĠÑģÑĤÐ¾Ð¸Ð¼Ð¾ÑģÑĤÑĮ":10545,"ĠÐĽÐ¸Ð·":10546,"42":10547,"ĠÑĩÐµÐ»Ð¾Ð²ÐµÑĩÐµÑģÐºÐ¾Ð¹":10548,"ĠÑģÑĤÑĢÐ°Ð½Ð½Ð¾Ðµ":10549,"ĠÐ·Ð»Ð¾Ð±":10550,"ĠÐ¿ÑĢÐ¸Ð½ÑıÐ»Ð°ÑģÑĮ":10551,"ĠÑģÐ¾Ð²ÐµÑĤÑģÐºÐ¾Ð¹":10552,"ĠÑħÐ¾ÑĢÐ¾ÑĪÐ°Ñı":10553,"ĠÐ·Ð°Ð±ÑĭÐ»Ð°":10554,"ĠÐŁÐ¾Ð¼Ð½":10555,"ĠÑĤÑĢÐ°Ð´Ð¸ÑĨÐ¸Ð¸":10556,"ĠÑģÐ¾Ð±ÑģÑĤÐ²ÐµÐ½Ð½ÑĭÐ¹":10557,"ĠÑģÑĤÐ°ÑĤÑĮÐµ":10558,"ĠÑĥÐ´Ð¾Ð²Ð¾Ð»ÑĮÑģÑĤÐ²Ð¸Ñı":10559,"ĠÑĨÐµÐ»ÐµÐ¹":10560,"ĠÐ½Ð°Ð´ÐµÐ¶Ð´":10561,"ĠÐ²ÑĭÑģÐ¾ÑĤÑĭ":10562,"ÑĦÐµÐ¹":10563,"Â»âĢ¦":10564,"ĠÑģÑĥÑīÐ½Ð¾ÑģÑĤÐ¸":10565,"ĠÐ·Ð°Ð½ÑıÐ»":10566,"ÑģÑĮÐµ":10567,"Ġ=":10568,"ĠÐ³Ð»Ð°Ð²Ð½ÑĭÑħ":10569,"ĠÐ·Ð°Ð½Ð¸Ð¼Ð°ÐµÑĤÑģÑı":10570,"ĠÐĿÐ°ÑĢÐ¾Ð´":10571,"ĠÐ°Ð²ÑģÑĤÑĢ":10572,"ĠÑĢÑĥÐ¼":10573,"ĠÑģÑĥÐ´Ð¸ÑĤÑĮ":10574,"Ð°Ð²Ð°Ð»Ð°":10575,"ĠÐ¿ÑĢÐ¾Ð³Ð½Ð¾Ð·":10576,"ĠÑģÑĥÐ´ÑĮÐ±Ñĥ":10577,"Ð¾Ð»ÑĤ":10578,"ĠÐ´ÐµÐ»Ð°Ñħ":10579,"Ð»ÐµÑģÑĤ":10580,"ĠÐĺÐ½ÑĤÐµÑĢ":10581,"ĠÐ¾ÑģÑĤÐ°Ð½Ð¾Ð²Ð¸Ð»Ð¸ÑģÑĮ":10582,"ĠÐĿÐ°Ðº":10583,"ĠÐ°Ð½Ð³ÐµÐ»":10584,"ĠÑģÐ¾Ð±ÑĢÐ°Ð²":10585,"ĠÐ´ÐµÑĢÐ·":10586,"ĠÐ¿ÑĢÐ¾Ð¸Ð·Ð½":10587,"ĠÐ³ÑĥÐ¼Ð°Ð½":10588,"ĠÐ·Ð°Ð¼ÐµÑĪ":10589,"ĠÑĥÑħÐ¾Ð´Ð¸ÑĤÑĮ":10590,"ĠÐ½Ð°Ð¿ÑĥÐ³":10591,"ĠÐ¿Ð¾Ð²ÐµÑĢÐ½ÑĥÐ»":10592,"ĠÐ¾ÑĤÑĢÐ°Ð·":10593,"Ð³Ð¾Ð´Ð°":10594,"ĠÐ½Ð°Ð´ÐµÑıÑĤÑĮÑģÑı":10595,"ĠÐ¾Ð±ÑĪÐ¸ÑĢ":10596,"ĠÐ¡Ð¾ÐµÐ´Ð¸Ð½":10597,"ĠÑĩÑĥÐ²ÑģÑĤÐ²ÑĥÐµÑĤ":10598,"ĠÐ²ÑĭÐºÑĢÐ¸Ðº":10599,"ĠÑĤÐ¸":10600,"ĠÑģÑĤÐ°Ð½Ð¾Ð²ÑıÑĤÑģÑı":10601,"Ð¿Ð°Ð½Ð¸Ñı":10602,"ĠÑĤÐ¾Ð»Ð¿Ñĭ":10603,"Ð¾ÑĤÐ²":10604,"ĠÐ²Ð¾Ð¶":10605,"ĠÐ°ÑĢÐ¼ÐµÐ¹":10606,"Ġ36":10607,"ĠÑģÐ²ÑıÐ·Ð°Ð½Ñĭ":10608,"ĠÐºÑĢÑĥÐ¿Ð½ÑĭÐµ":10609,"ÑĦÐ°ÐºÑģ":10610,"ĠÐ¸Ð¼ÐµÐ»Ð¾":10611,"Ð´ÐµÐ»ÑĮ":10612,"46":10613,"ĠÑģÐ¾Ð¾Ð±ÑīÐµ":10614,"ĠÐ¿ÑĢÐ¾Ð´ÑĥÐºÑĤÐ¾Ð²":10615,"ĠÑĸ":10616,"ĠÐ²Ð¾ÑģÑĮÐ¼":10617,"ĠÐ²ÐµÐºÐ¾Ð²":10618,"ĠÐ¡Ð´ÐµÐ»":10619,"ĠÑĢÐµÐ³Ð¸Ð¾Ð½Ð°":10620,"ĠÐ½Ð°ÑĢÐµÐ·":10621,"ĠÐĴÐµÑģ":10622,"Ð²Ð¸Ð´Ð°":10623,"Ð½Ð¾ÑģÑĤÑıÐ¼":10624,"Ð¡Ð":10625,"ĠÐ¼ÑĥÐ¶Ð¸Ðº":10626,"ÑĸÐ¹":10627,"Ð»ÐµÐ¼Ñĥ":10628,"ÑĸÐ´":10629,"ĠÐ¿Ð°ÑĢÐ½Ð¸":10630,"ĠÐ¿ÐµÑĢÐµÐ¿ÑĢÐ°Ð²":10631,"ĠÐ²Ð°ÑĪÐµÐ¼":10632,"ĠÐ¿ÑĢÐ¾Ð½":10633,"Ð¾Ð²Ðµ":10634,"ĠÐ§Ð¸ÑĤ":10635,"ĠÐ¿ÑĢÐ¾Ð³Ð¾Ð²Ð¾ÑĢÐ¸Ð»Ð°":10636,"ĠÐĺÐ¸ÑģÑĥÑģÐ°":10637,"Ð¾ÑĩÐ½Ð¾Ð¼":10638,"ĠÐ²Ð¾ÑģÐºÑĢÐµÑģÐµÐ½ÑĮÐµ":10639,"ĠÐŁÐ¾ÑĢÑĤ":10640,"ĠÐºÐ¸ÑģÑĤ":10641,"ĠÐĿÐ°Ð¿Ð¾Ð»Ðµ":10642,"ĠÐ¿Ð¾Ð»Ð¸ÑĨÐ¸Ñı":10643,"ĠÑĢÐ°ÑģÐ¿Ð¾ÑĢÑıÐ´":10644,"ĠÐ²ÑģÑıÐºÐ¸Ðµ":10645,"ĠÐ´ÐµÐ»Ð°Ð»Ð°":10646,"ĠÐ³ÑĢÐ°Ð½Ð¸ÑĨÑĥ":10647,"ÐµÑĢÐ´ÑĨÐµ":10648,"ĠÐ½Ð°ÑģÐº":10649,"ĠÐ²Ð¾Ð¿ÑĢÐ¾ÑģÐ°Ð¼":10650,"ÑĪÐµÐ³Ð¾ÑģÑı":10651,"ĠÐ´Ð°Ð»ÑĮÐ½ÐµÐ¹ÑĪÐµÐ¼":10652,"ĠÐ¿Ð¸ÑģÑĮÐ¼ÐµÐ½":10653,"ÐŀÐ¿":10654,"ĠÐºÐ¾Ð»Ð¸ÑĩÐµÑģÑĤÐ²Ð°":10655,"Ð¡ÐļÐĲ":10656,"Ð°ÑģÑĭ":10657,"ĠÐµÐ´Ð¸Ð½Ð¾Ð³Ð¾":10658,"Ð¾ÑĢÐ°Ð·":10659,"ĠÐ¼ÑĥÐ·ÑĭÐºÐ°":10660,"ĠÐ»Ð¸Ð´ÐµÑĢ":10661,"ÐµÐºÑĤÐµ":10662,"ĠÐ·Ð½Ð°ÑĤ":10663,"ĠÐ´Ð¶Ð¸Ð½":10664,"ĠÑģÐ»ÑĥÑħÐ¸":10665,"ĠÐ³ÑĢÐ¾Ñħ":10666,"Ð¿ÑĢÐ¸Ð·":10667,"ĠÐļÐ¸ÑĤÐ°Ð¹":10668,"ĠÑĪÐ¿Ð¸Ð¾Ð½":10669,"ĠÐ¿Ð¾Ð¿ÑĢÐ¾ÑģÐ¸Ð»Ð°":10670,"Ð¿ÑĢÐ°Ð²ÐµÐ´Ð»Ð¸Ð²":10671,"ĠÑĦÐ¸ÑĢÐ¼Ñĭ":10672,"ĠÐ´ÑĥÐ¼Ð°Ð»Ð¸":10673,"ÑĥÑĢÐ°Ð²":10674,"ĠÐ¸Ð´Ð¸Ð¾ÑĤ":10675,"ĠÐºÑĥÐ¿Ð¸Ð»":10676,"Ð³Ð¾Ð´":10677,"ĠÐ¡ÐµÑĢÐ³ÐµÑı":10678,"ĠÐĳÑĥÐ´ÑĮ":10679,"ĠÐ¸Ð·Ð´ÐµÐ²":10680,"ĠÑĤÐµÐ¼Ð½ÑĭÐµ":10681,"ÂłÐļÐ¾Ð³Ð´Ð°":10682,"Ð¸ÑģÑĤÐ¾Ð¼":10683,"ÐĺÑģÑĤ":10684,"ĠÐ¾ÑĤÑĩÐ°ÑıÐ½Ð½Ð¾":10685,"Ġ186":10686,"ĠÑįÑģ":10687,"ĠÐ¿Ð°ÑģÑģÐ°Ð¶Ð¸ÑĢÐ¾Ð²":10688,"ĠÐĿÐµÐ»ÑĮÐ·Ñı":10689,"ĠÑĥÐ±ÐµÐ´Ð¸ÑĤÑĮ":10690,"ĠÐ±ÐµÑģÑģÑĤ":10691,"ĠÐ¿Ð¾Ð»Ð¾Ð²Ð¸Ð½Ð°":10692,"ĠÐ»Ð¸ÑĤÐµÑĢÐ°ÑĤÑĥÑĢÑĭ":10693,"ĠÑħÑĢÐ°Ð±ÑĢ":10694,"Ð°ÐºÐ¾Ð²Ð°":10695,"ĠÐ½ÑĥÐ¶Ð´":10696,"ĠÐ±Ð¾Ð¹ÑĨÐ¾Ð²":10697,"ĠÐ´Ð°Ð½Ð½Ð¾Ð¹":10698,"ĠÑĢÐ°Ð·ÑĭÑģÐº":10699,"ĠÑģÐ°Ð¼Ð¾ÑĥÐ±Ð¸Ð¹":10700,"ĠÐ¿ÑĢÐµÐ´ÑģÑĤÐ¾ÑıÑī":10701,"ĠÐ½ÐµÐ¾Ð´Ð½Ð¾ÐºÑĢÐ°ÑĤÐ½Ð¾":10702,"ÑĥÐ´ÐµÑĤ":10703,"ĠÑĢÐ°Ð·Ð²ÐµÐ´ÐºÐ¸":10704,"ÐµÐ½ÐµÐ±":10705,"ĠÐ¸Ð·Ð½Ð°Ñĩ":10706,"Ð¾ÑĢÐ´Ð¸Ð½":10707,"ĠÐĿÐ¸ÐºÐ¾Ð»Ð°Ñı":10708,"ĠÐ¿ÑĢÐ¾ÑģÑĤÑĢÐ°Ð½ÑģÑĤÐ²Ðµ":10709,"ĠÐŁÑĢÐ¸Ð²":10710,"ĠÐ¿Ð¾Ñī":10711,"ĠÐ¿Ð¾Ð½ÐµÐ´ÐµÐ»ÑĮÐ½Ð¸Ðº":10712,"Ð¾ÑĩÐ½ÑĥÑİ":10713,"ĠÐ¿ÑĢÑıÑĩ":10714,"ĠÐ½ÐµÐ¿Ð¾Ð½ÑıÑĤÐ½Ð¾":10715,"ÐµÑĩÐºÐ¸":10716,"ĠÐ¼Ð¸Ð»Ð»Ð¸Ð¾Ð½":10717,"ĠÐ¾Ð³Ð¾ÑĢÑĩ":10718,"ĠÑĢÐ°Ð·Ð³Ð¾Ð²Ð¾ÑĢÑĭ":10719,"ÑĢÐ¾ÑħÐ¾ÑĤ":10720,"ĠÐ¿ÑĢÐ¸ÐµÑħÐ°Ð»Ð¸":10721,"ĠÑģÐ¾Ð±Ð¸ÑĢÐ°Ð»Ð¸ÑģÑĮ":10722,".[":10723,"ĠÐ¿Ð¾Ð¼Ð¾ÑĢÑī":10724,"ĠÑģÑĤÐ¾Ð»Ð¸ÑĨÐµ":10725,"ĠÐºÐ°Ð¿Ð»Ð¸":10726,"ĠÑĤÐµÐ»ÐµÐºÐ°Ð½":10727,"ÑĢÐ¾ÑģÐ»Ð°Ð²":10728,"ÑĨÐµÐ¹":10729,"Ð½Ð¸ÑģÑĮ":10730,"ĠÑıÐ±Ð»":10731,"ĠÐ¿Ð¾Ð³ÑĢÐµÐ±":10732,"ĠÑģÐ»ÑĥÐ¶Ð±Ðµ":10733,"ĠÐ¾Ð¼":10734,"Ð½ÑĭÑĪ":10735,"Ð¡Ðķ":10736,"ĠÑĨÐµÐ»Ð¾Ð²":10737,"ĠÐ¿Ð¾Ð»ÑĥÑĩÐ°ÐµÑĤ":10738,"Ð¸ÑĢÐ°Ð»Ð¸":10739,"Ð¾Ð±Ð»Ð°Ð´":10740,"ĠÐ±ÑĢÐ°ÑĤÑĮÑı":10741,"ÐµÐ½ÐµÑĢÐ°":10742,"ĠÐ½ÐµÐ¿ÑĢÐ¾":10743,"ĠÐ¿Ð¾Ð´ÑĢÐ¾Ð±Ð½Ð¾":10744,"ĠÐ¾Ð¿Ð¾Ð»Ñĩ":10745,"ĠÐ²Ð¿Ð»Ð¾ÑĤÑĮ":10746,"ĠÐ¾ÑĤÐ²Ð¾ÑĢ":10747,"ĠÐºÐ¾Ð»ÐµÐ½ÑıÑħ":10748,"Ð»Ð¸Ð²Ð°Ñı":10749,"ĠÑģÐµÐ»Ð¾":10750,"ĠÑģÑĤÐµÐºÐ»ÑıÐ½":10751,"ÑĶ":10752,"ĠÑĢÐ°Ð·ÑĢÐµÑĪÐµÐ½Ð¸Ñı":10753,"ĠÐ°ÑĢÐ¾Ð¼Ð°ÑĤ":10754,"Ġ1990":10755,"ĠÐŁÑıÑĤ":10756,"ĠÐ¿Ð¾ÑıÐ²Ð¸ÑĤÑģÑı":10757,"ĠÐ²ÑĭÐ³Ð»ÑıÐ´ÐµÐ»Ð°":10758,"ĠÐ¿Ð¾Ð·Ð²Ð¾Ð»Ð¸Ð»":10759,"ÐµÑĢÐµÐ±":10760,"Ð¿ÑĢÐ¾Ð²":10761,"ÑĨÐµÐ½ÑĤÑĢ":10762,"ĠÐ¿ÐµÑĢÐµÑĢÑĭÐ²":10763,"Ð¾Ð²Ð°Ð½Ð½Ð¾Ð³Ð¾":10764,"ĠÑĢÐ°ÑģÑģÐºÐ°Ð·ÑĭÐ²Ð°ÐµÑĤ":10765,"ĠÐ³Ð»Ð¾Ð±":10766,"ĠÐŀÐ±ÑĭÑĩÐ½Ð¾":10767,"ĠÐºÑĢÑĥÐ³Ð¾Ð¼":10768,"Ð»Ð¸ÐºÐ°":10769,"ĠÑĥÑģÐ»Ð¾Ð²Ð¸Ð¹":10770,"Ð¾Ð¿Ð¾ÑģÑĤÐ°Ð²":10771,"ĠÑģÐ¾Ð²ÑĢÐµÐ¼ÐµÐ½Ð½Ð¾Ð¹":10772,"ÐļÑĢÐ°Ñģ":10773,"ĠÐºÐ¾Ð»Ð¾Ð½Ð¸":10774,"ĠÑģÐ²Ð¾Ð±Ð¾Ð´Ð½Ð¾":10775,"ĠÑıÑī":10776,"ĠÐļÐ°Ð¹":10777,"ĠÐ¾Ð±ÑģÑĤÐ¾ÑıÑĤÐµÐ»ÑĮÑģÑĤÐ²Ð°":10778,"ĠÐ°ÑĤÐ°ÐºÐ¸":10779,"ĠÑĢÐ°Ð´Ð¾ÑģÑĤÑĮÑİ":10780,"ĠÐ´Ð°Ð²Ð°Ð¹ÑĤÐµ":10781,"ĠÐ±Ð°Ð·Ñĭ":10782,"ĠÑįÐ²Ð°ÐºÑĥ":10783,"ĠÐ½ÐµÐ¶Ð½Ð¾":10784,"ĠÐ½ÐµÐ´Ð¾Ð²ÐµÑĢ":10785,"ĠÐºÐ¾Ð½ÑĨÐµÑĢÑĤ":10786,"ĠÐ¡Ð°Ð´":10787,"ĠÐ¿ÑĢÐ¸Ð·ÐµÐ¼":10788,"ĠÑıÐ·ÑĭÑĩ":10789,"ĠÑģÐ°Ð´Ñĥ":10790,"ĠÐ½ÐµÐ¹ÑĤÑĢ":10791,"ĠÑģÐ»Ð°Ð±Ð¾":10792,"Ġ2005":10793,"Ð°Ð·Ñĭ":10794,"ĠÐ¿ÑĢÐ¾Ð´Ð¾Ð»Ð¶Ð°Ð»Ð¸":10795,"ĠÐ°Ð²ÑĤÐ¾ÑĢÐ¸ÑĤÐµÑĤ":10796,"ĠÐ¿ÑĥÑģÑĤÐ¾Ð¹":10797,"ĠÑħÐ¾Ð»Ð¾Ð´Ð½Ð¾Ð¹":10798,"Ð¼Ð¸ÑĢÑĥ":10799,"ĠÐŀÑĤÐ²ÐµÑĤ":10800,"ĠÐ´Ð²Ð¾ÑĢÐ°":10801,"Ð¾Ð³Ð¾Ð´":10802,"ĠÑģÐ»ÑĥÑĩÐ¸ÑĤÑģÑı":10803,"ĠÐ»Ð°Ð´Ð¾Ð½ÑĮÑİ":10804,"ĠÐ³ÑĥÐ´":10805,"ĠÑģÐ¼Ð¾Ð¶ÐµÐ¼":10806,"ÐĽÑİ":10807,"ĠÑģÑĬÐµÐ¼":10808,"ĠÐ¿Ð¾Ð´ÑĢÑĥÐ¶":10809,"ĠÐ²ÑĭÑĢÐµÐ·":10810,"ĠÑĥÐ´Ð¸Ð²Ð»ÐµÐ½Ð¸Ðµ":10811,"ÑĮÐºÐ°":10812,"ĠÐľÐ°ÑĤÑĮ":10813,"ĠÑģÑĢÑĭÐ²":10814,"ĠÐºÐ°ÑģÑĤ":10815,"ĠÐĶÑĢ":10816,"ĠÐ¤Ð»Ð¾ÑĢ":10817,"ÐĵÐŀ":10818,"ĠÑģÐ¾Ð±Ð¾Ñİ":10819,"ĠÐ¸Ð´ÑĥÑī":10820,"ĠÑĤÐµÐ¼Ñĭ":10821,"ĠÐ±Ð¸ÑĢ":10822,"ĠÑĢÐ°Ð±Ð¾ÑĤÐ°Ð»Ð°":10823,"ĠÐ¿ÑĢÐ°Ð·Ð´Ð½Ð¸Ðº":10824,"ĠÑĥÑĩÐ¸ÑĤÑĮÑģÑı":10825,"ĠÐ½ÐµÑģÑĤ":10826,"ĠÑĢÐ°Ð·Ð³Ð»ÑıÐ´ÐµÑĤÑĮ":10827,"ĠÐ½Ð°ÐµÐ¼":10828,"ĠÐ´ÐµÑģÑıÑĤÐºÐ¸":10829,"ĠÐ¿Ð¾Ð»Ð½ÑĭÐ¼":10830,"Ð»Ð¸Ð½Ð³":10831,"ĠÐ²Ð¾Ð·Ð²ÑĢÐ°ÑīÐµÐ½Ð¸Ñı":10832,"ĠÑģÐ¾Ð¼Ð½ÐµÐ½Ð¸Ð¹":10833,"ĠÐ¿ÑĢÐ¾Ð¹Ð´":10834,"ĠÐ»Ð¸Ð±ÐµÑĢ":10835,"ĠÐ¿ÑĢÐ¾Ð¸Ð·Ð¾ÑĪÐµÐ»":10836,"ĠÑĥÐºÐ»Ð°Ð´":10837,"Ð¾ÑĩÐ½ÑĭÐ¼":10838,"ÐºÐ°Ð»":10839,"ĠÐ½Ð°Ð¿Ð¾Ð¼Ð¸Ð½Ð°ÐµÑĤ":10840,"ĠÑģÐ»ÑĥÐ¶ÐµÐ±":10841,"ĠÐ¿Ð¾Ð·Ð´ÑĢÐ°Ð²":10842,"Ð»Ð°Ð½ÑĤ":10843,"ĠÐ°Ñħ":10844,"Ð°Ð²ÑĪÐµÐ¹ÑģÑı":10845,"ĠÐ¿Ð°ÑĢÑĭ":10846,"ĠÐ·Ð°ÐºÐ°ÑĤ":10847,"ĠÐ¤Ð¾ÑĢ":10848,"ĠÐ¼Ð¼":10849,"ĠÑģÐºÐ¾ÑĤ":10850,"ĠÐ±Ð°Ð·Ðµ":10851,"ĠÐ»ÑİÐ±ÑĭÐµ":10852,"ĠÐºÐ°ÑĢÑĤÑĥ":10853,"ĠÐ¾ÑĤÐ²Ð¾Ð´":10854,"ĠÐ´ÐµÐ²ÑĥÑĪÐºÐµ":10855,"ĠÐ¿Ð»Ð°ÑĤÐµÐ¶":10856,"ĠÐŁÐ¸ÑĢ":10857,"ĠÐ±ÑĥÐ»":10858,"ÐµÐ·Ð°":10859,"ĠÐ¸ÑĤÐ¾Ð³Ð°Ð¼":10860,"ĠÐ¿Ð¾ÑĢÐ°Ð¶ÐµÐ½Ð¸Ðµ":10861,"ĠÐ¿Ð°Ñģ":10862,"ĠÑĢÐ°ÑģÐ¿Ð¸Ñģ":10863,"Ð¸Ð²Ð°Ð»Ð¾ÑģÑĮ":10864,"ĠÐ²ÑĭÐ±Ð¾ÑĢÐ¾Ð²":10865,"ĠÑħÐ¾ÑĢÐ¾ÑĪÐµÐµ":10866,"Ð¾Ð½Ñģ":10867,"ĠÐ¼Ð¾ÑĢÐ¾Ð·":10868,"ĠÐĲÐ½Ð°ÑĤÐ¾Ð»":10869,"ĠÐĴÐ¾Ð¿ÑĢÐ¾Ñģ":10870,"ĠÐ±Ð¾Ð»ÑĮÑĪÐ¸Ð¼Ð¸":10871,"ĠÑģÐ¿Ð»ÐµÑĤ":10872,"ĠÐ¿ÑĢÐ¾Ð²Ð¾Ð´Ð¸Ð»":10873,"ÐµÐ½Ð¾Ð¹":10874,"ĠÐĶÑĢÐ°Ðº":10875,"ÐµÐ¼Ð¾Ð½ÑģÑĤÑĢ":10876,"ĠÐ²ÑĭÐ±Ð¾ÑĢÐ°Ñħ":10877,"ÑģÑĤÐ²Ð¾Ð²Ð°Ð½Ð¸Ñı":10878,"ÐµÐ½ÑĤÐ»ÑĮ":10879,"ĠÐ±ÑĢÐ¾ÑģÐ¸ÑĤÑĮ":10880,"ĠÐ¾Ð±ÑĢÐµÑĤ":10881,"ĠÑĪÐ»Ð¾":10882,"ĠÑĤÑĥÑģÐº":10883,"ĠÐĳÐ¾Ð³Ð¾Ð¼":10884,"ĠÑĥÑĤÐ²ÐµÑĢÐ´":10885,"ĠÐ¾ÑģÑĤÑĢÐ¾Ð²Ðµ":10886,"ÐµÐ·Ñĥ":10887,"ĠÐ²ÐµÑĢÐ¸Ð»":10888,"ĠÐ´ÐµÐ²ÑĥÑĪÐµÐº":10889,"ÐµÑĤÐºÐ¸":10890,"ĠÐ·Ð°ÑģÑĭÐ¿":10891,"ĠÐ²ÑĭÑĤÐµÑĢ":10892,"ÐµÐ»ÑĮÑİ":10893,"ĠÐ²ÑĭÑģÐ¾ÐºÐ¸Ðµ":10894,"ĠÐ¾ÑĤÑĢÐ°Ñģ":10895,"ĠÐ´Ð¸Ð½":10896,"ĠÐ¿ÐµÑĢÐ¸Ð¾Ð´Ð°":10897,"Ð½ÐµÐ³":10898,"Ð»Ð°ÑĩÐ¸Ð²":10899,"ĠÐ°ÑįÑĢÐ¾Ð´":10900,"ĠÑģÐ¾Ð±ÑģÑĤÐ²ÐµÐ½Ð½ÑĥÑİ":10901,"ĠÑĦÐ¸Ð³ÑĥÑĢÑĭ":10902,"Ð»ÑĭÐ¼Ð¸":10903,"ÑĥÐ±ÐµÐ¶":10904,"ĠÑģÐµÑĢÐ¶Ð°Ð½ÑĤ":10905,"ĠÐ½Ð°Ð¼ÐµÑĢÐµÐ²":10906,"ĠÐŀÐ¿ÑıÑĤÑĮ":10907,"ĠÐ·Ð°Ð¼ÐµÑģÑĤÐ¸ÑĤÐµÐ»ÑĮ":10908,"ĠÐ¿Ð°Ð»ÑĮÑĤÐ¾":10909,"ĠÐļÐ¾Ð¼Ð°Ð½Ð´":10910,"41":10911,"ĠÐ¿ÐµÑĢÐµÐ³Ð¾Ð²Ð¾ÑĢÐ¾Ð²":10912,"ĠÐŀÐ±Ð°":10913,"ĠÐ·Ð°Ð²ÑĤÑĢÐ°Ðº":10914,"ĠÐ»ÐµÑĤÐ¾":10915,"ĠÐ¿Ð¾Ð·Ð½":10916,"Ð½ÑıÐ»ÑģÑı":10917,"ĠÑģÐ»Ð°Ð²Ð°":10918,"ĠÐ¿Ð¾ÑĢÑĤÑĢÐµÑĤ":10919,"ĠÐĶÐ°Ð¼":10920,"ĠÐĽÑĥÐ³":10921,"ĠÑĥÑĩÑĳ":10922,"ÑģÐ¼ÐµÐ½":10923,"ĠÐ¾ÐºÐ¾":10924,"ĠÐĶÐ²":10925,"ĠÐºÐ½ÑıÐ¶":10926,"ĠÐ¼Ð¸Ð»Ð»Ð¸Ð¾Ð½Ð°":10927,"Ð¾Ð±Ð¾Ð´Ð°":10928,"Ð¿ÐµÐ´":10929,"ĠÐ³Ð¾ÑģÑĤÑĮ":10930,"ĠÐ³ÑĥÐ»":10931,"ĠÐĿÐ°Ð±":10932,"ĠÐĲÐ³Ð°":10933,"ĠÑģÐºÑĥÐ»ÑĮÐ¿":10934,"Ð½ÐµÐ¹ÑĪÐ¸Ð¹":10935,"ĠÐ¿Ð°ÑĢÑĤÐ¸Ñı":10936,"ĠÐ½Ð°ÑĢÐ¸Ñģ":10937,"ĠÐ¾ÑĤÐºÑĢÐ¾Ð²ÐµÐ½Ð½Ð¾":10938,"ÐĳÐ°ÑĢ":10939,"ĠÐ¿Ð¾Ð»Ð¾Ð¶Ð¸Ð»Ð°":10940,"ĠÐ´Ð»Ð¸Ð½Ð½ÑĭÐ¹":10941,"ĠÑģÐ²Ð¾ÐµÐ¾Ð±ÑĢÐ°Ð·":10942,"ÑĢÐ°Ð»ÑģÑı":10943,"ĠÑĤÐ°ÐºÐ¾Ð¼Ñĥ":10944,"Ð¸Ð´Ðµ":10945,"ĠÐ½ÐµÐ´ÐµÐ»Ðµ":10946,"ĠÐ¿ÑĭÑĪ":10947,"Ð¢Ð¾":10948,"ĠÐ¼ÐµÑģÑĤÐ½Ð¾Ð³Ð¾":10949,"ÑĥÑĦ":10950,"ĠÐ¾ÑĤÐºÐ»Ð¾Ð½":10951,"ĠÑĩÐµÐ»Ñİ":10952,"Ð¸ÑĢÐ¾Ð²ÐºÐ°":10953,"ĠÐ´Ð¸Ð°Ð³":10954,"ĠÐĺÐ½ÑģÑĤ":10955,"ĠÑģÐ¾ÑĨÐ¸Ð°Ð»ÑĮÐ½ÑĭÑħ":10956,"ĠÐ¸ÑģÑĤÐµÑĢ":10957,"Ð°Ð·Ð°Ð»Ð¾ÑģÑĮ":10958,"ĠÑĥÑĤÐ²ÐµÑĢÐ¶Ð´Ð°ÐµÑĤ":10959,"ĠÐ¸Ð½ÑĨ":10960,"ÐºÐ¾Ð²ÑĭÑħ":10961,"ÑĭÐ²Ð°Ð»Ð¾ÑģÑĮ":10962,"ĠÐ²Ð¾Ð¿ÑĢÐ¾ÑģÑĥ":10963,"ĠÐ±ÑĢÐ¾Ð½Ð·":10964,"Ð¼Ð°Ð¹":10965,"ĠÐ²Ð¾ÐµÐ½":10966,"ĠÐ¿Ð¾Ð¸ÑģÐºÐ¸":10967,"ĠÐ²ÑĢÐµÐ·":10968,"ĠÐ½ÐµÐ¼ÑĨÑĭ":10969,"ĠÑħÐ¾Ð·ÑıÐµÐ²":10970,"ĠÐ¸ÑģÑģÐ»ÐµÐ´Ð¾Ð²":10971,"://":10972,"ĠÐ¾Ð±Ð¾ÑĪ":10973,"Ð¾ÑģÐºÐ¾Ð²":10974,"ĠÐ¾ÑĦÐ¸Ñģ":10975,"ĠÐ·Ð»Ð°":10976,"ĠÐĵÐ»ÐµÐ±":10977,"ĠÑģÐ´ÐµÐ»Ð°Ñİ":10978,"ĠÑĥÐ·Ð½Ð°ÐµÑĤ":10979,"ĠÐ¾Ð±Ð»Ð°Ð´Ð°ÐµÑĤ":10980,"Â»;":10981,"Ġ150":10982,"ĠÐ¼Ð¸ÑģÑĤÐµÑĢÐ°":10983,"ĠÐ°Ð¼ÐµÑĢÐ¸ÐºÐ°Ð½ÑģÐºÐ¸Ñħ":10984,"ĠÐ²Ð¸Ð´Ñı":10985,"ĠÑģÐµÑĢÐ´Ð¸":10986,"ĠÐ¼ÑĥÐ¶ÐµÐ¼":10987,"ĠÐ½Ð°ÑĩÐ°Ð»ÑģÑı":10988,"ÑħÐ¾Ð¼":10989,"ÑıÐ·Ð²":10990,"ĠÐ·Ð°ÑĦÐ¸ÐºÑģ":10991,"ÑĥÑİÑīÐµÐ¹":10992,"ĠÐ²Ð¸Ð·Ð¸ÑĤ":10993,"ĠÐ¿Ð¾Ð¹Ð´ÐµÐ¼":10994,"ĠÐ¿Ð¾ÑıÐ²Ð»ÐµÐ½Ð¸Ñı":10995,"ÐŀÐŀ":10996,"ĠÐ½Ð°ÑħÐ¼ÑĥÑĢÐ¸Ð»ÑģÑı":10997,"Ð¼ÐµÐ»ÑĮ":10998,"Ð¾Ð»Ð»":10999,"ĠÐ¿ÑĤÐ¸ÑĨÑĭ":11000,"Ð°Ð»Ð¸Ñİ":11001,"ĠÐºÐ¾Ð¶Ð°":11002,"Ð°ÑĩÐ¸":11003,"ÐµÐ½ÐºÐ¸":11004,"ĠÑĢÑĥÐºÐ¾Ð²Ð¾Ð´Ð¸ÑĤÐµÐ»ÑĮ":11005,"ÑĩÑĥÑĢ":11006,"ĠÐŀÐ³":11007,"ĠÐĹÐ½Ð°ÐµÑĪÑĮ":11008,"ĠÑĤÐµÐ¾ÑĢÐµÑĤ":11009,"ÐµÑĤÑĭÑĢÐµ":11010,"ĠÐĹÐ°Ð´":11011,"Ð°Ð½ÑĮÐµ":11012,"ĠÐĿÐ¸ÐºÐ¾Ð»Ð°ÐµÐ²Ð¸Ñĩ":11013,"ĠÐ¸Ð»Ð»ÑİÐ·":11014,"ÑĥÐ¼Ðµ":11015,"ĠÐŁÑĢÐ¾Ñħ":11016,"ÑĭÑģÐ¾Ðº":11017,"ĠÐºÐ¾ÑĢÐ¸ÑĩÐ½ÐµÐ²":11018,"ÑĥÑĪÐµÐº":11019,"ĠÐ²ÑĭÑħÐ¾Ð´Ð¸ÑĤÑĮ":11020,"ĠÐĶÑĢÑĥÐ³Ð¸Ðµ":11021,"ĠÐ¿Ð»Ð¾ÑĤÐ½Ð¾":11022,"ĠÑĩÐµÐ»Ð¾Ð²ÐµÑĩÐµÑģÑĤÐ²Ð°":11023,"ĠÐ¾ÑĤÐ¿ÑĢÐ°Ð²Ð¸Ð»":11024,"Ð½Ð¸ÐºÐ¾Ð²Ð°":11025,"Ð°Ð½ÑģÐ°":11026,"ĠÑĩÐµÑĢÐ½ÑĭÑħ":11027,"43":11028,"ÐµÐ´Ð»Ð¸Ð²Ð¾":11029,"ĠÐ¿Ð¾Ð»Ð½Ð¾Ð³Ð¾":11030,"ĠÐºÑĢÐ¸ÐºÐ¸":11031,"ĠÐ¾ÑģÐ²Ð¾":11032,"ĠÐŀÐ´Ð½Ð¾":11033,"ÐµÐ»Ð¾Ð²ÐµÑĩÐµÑģÐº":11034,"ĠÑĦÑĥÑĤÐ±Ð¾Ð»ÑĮ":11035,"ĠÐ¾ÑĪÐ¸Ð±ÐºÐ¸":11036,"!)":11037,"ĠÐ¿Ð°ÑĤÑĢÑĥ":11038,"Ð¿Ð¾Ð²":11039,"ÐµÐ»ÑİÐ±":11040,"ĠÐŁÑĢÐ¸ÑĪ":11041,"ĠÐ¿ÐµÑĢÑĩÐ°ÑĤ":11042,"ĠÐ¾ÑĤÐ²ÑĢÐ°Ñī":11043,"ÑĤÐµÐ¼":11044,"ÑĢÐµÐ°Ð³":11045,"ĠÑģÐ½Ð°ÑĢÑĥÐ¶Ð¸":11046,"ĠÐ´ÐµÑĤÐµÐºÑĤÐ¸Ð²":11047,"ĠÑģÑĤÑĢÐµÐ»ÑıÑĤÑĮ":11048,"ĠÐĲÐ½Ð´ÑĢÐµÑı":11049,"ĠÐ²Ð¸Ð´Ð½":11050,"ĠÑĢÐ°Ð·Ð¾Ð±":11051,"Ð´ÑĢÐ°Ð²ÑģÑĤÐ²Ñĥ":11052,"Ð°Ð²Ñĭ":11053,"ĠÑĢÐ°ÑģÑģÐ¼Ð¾ÑĤÑĢÐµÑĤÑĮ":11054,"ĠÐ²ÑĭÑģÑĤÑĢ":11055,"ĠÑģÐºÐ¾Ð¿":11056,"ĠÐĴÐµÑĩ":11057,"ĠÐ¾Ð²Ð¾Ñī":11058,"ÐĲÐŀ":11059,"Ð£Ðº":11060,"Ð½Ð¸ÑĢ":11061,"ĠÑĤÐµÐ½Ð´":11062,"ÐºÐ¾Ð¼Ð°":11063,"ĠÐ½ÐµÑĢÐµÐ´ÐºÐ¾":11064,"ĠÐľÐ°ÑĢÐ³Ð°ÑĢ":11065,"ĠÐ¿ÑıÑĤÐ½Ð¸ÑĨÑĥ":11066,"ĠÑģÑĤÐµÐºÐ»Ð¾":11067,"ĠÐ³ÑĥÐ±ÐµÑĢ":11068,"ĠÐĵÑĢÐ¸Ð³Ð¾ÑĢ":11069,"ĠÐ±Ð°ÑĪÐ½Ð¸":11070,"ĠÐ¿Ð¾Ð±Ð»Ð°Ð³Ð¾Ð´Ð°ÑĢ":11071,"ĠÐ¿ÑĢÐ¸ÑīÑĥÑĢ":11072,"Ð¸ÑģÑĤÐ¾ÐºÑĢÐ°ÑĤ":11073,"ĠÐĲÐ´Ð°Ð¼":11074,"ÐµÑĢÐºÐ¸":11075,"ĠÐ¿Ð¾ÑıÐ²Ð»ÐµÐ½Ð¸Ðµ":11076,"ĠÐ¾Ð¿ÑĥÑģÑĤÐ¸Ð»ÑģÑı":11077,"ĠÑģÐµÐ½ÑĤÑıÐ±ÑĢÐµ":11078,"ÐĿÐ°Ð¿":11079,"ĠÐĺÑģÐ¿Ð°Ð½Ð¸Ð¸":11080,"ĠÐ¾ÐºÑĢÐ°":11081,"ÑĦÐ¾ÑĢÐ¼Ñĥ":11082,"ĠÐºÑĥÐ²":11083,"ĠÐ°Ð¿Ð¿Ð°ÑĢÐ°ÑĤ":11084,"ĠÐ¸ÑģÑģÐ»ÐµÐ´Ð¾Ð²Ð°Ð½Ð¸Ð¹":11085,"ĠÐ½Ð°Ð´ÐµÐ¶Ð´Ð°":11086,"ĠÐ°Ð³ÐµÐ½ÑĤÑģÑĤÐ²Ð¾":11087,"ĠÐ¿ÑĢÐµÐ´Ð¿Ð¾Ð»Ð¾Ð¶Ð¸ÑĤÑĮ":11088,"ĠÐľÐµÑģÑĤ":11089,"ĠÐ¸Ð´ÐµÐ¹":11090,"ĠÐ¿Ð¾Ð¼Ð½Ð¸Ð»":11091,"ÑĥÑįÑĢ":11092,"Ð¼ÐµÐ½Ð°":11093,"ĠÑģÐµÑģÑĤÑĮ":11094,"ĠÑģÐ²Ð¾ÑĳÐ¼":11095,"ĠÐ±Ð°ÑĢÐ¾Ð½":11096,"Ð°Ð´Ð¸ÑĤÑĮ":11097,"ĠÑģÑĥÑīÐµÑģÑĤÐ²ÑĥÑİÑĤ":11098,"ĠÐ°Ð½Ð³Ð»Ð¸ÑĩÐ°Ð½":11099,"ĠÐĿÐµÐ·":11100,"ĠÐ½Ð°Ð²ÑıÐ·":11101,"ĠÐ·Ð°ÑģÑĤÑĢ":11102,"ĠÑĤÐ°ÐºÑģÐ¸":11103,"ĠÐĶÐ°Ð²Ð°Ð¹ÑĤÐµ":11104,"ĠÑģÑĤÑĢÐ¾Ð¸ÑĤÑĮ":11105,"ĠÐ²ÑĭÐ±ÑĢÐ°Ð»":11106,"ĠÐ¿Ð»Ð°Ð¼Ñı":11107,"ĠÐ½Ð¾ÑģÐ¸Ð»":11108,"ĠÐ¾ÑĤÑĤÐ¾Ð³Ð¾":11109,"ĠÐ»ÑĥÑĩÑĪÐ¸Ðµ":11110,"ĠÑĥÑĩÐ¸ÑĤÐµÐ»Ñı":11111,"Ð¾ÑģÐ¸ÑĦ":11112,"ĠÐ¼Ð½ÐµÐ½Ð¸Ñı":11113,"ĠÐ¿Ð¸Ð»Ð¾ÑĤ":11114,"ĠÐ·Ð°Ð¾Ð´Ð½Ð¾":11115,"Ð¸ÑģÑĤÐ¾Ð¹":11116,"Ð¸ÑģÑĤÑĭÐµ":11117,"ĠÐ¿ÑĢÐ¸Ð½Ð¸Ð¼Ð°Ð»":11118,"Ð¾Ð½ÑĮÐºÐ¾":11119,"ÑĥÐ·Ð¸":11120,"ĠÐ·ÐµÐ¼Ð»ÐµÐ¹":11121,"ĠÐ»Ð¸ÑĩÐ½Ð¾ÑģÑĤÑĮ":11122,"ĠÐ¼ÑĢÐ°ÑĩÐ½Ð¾":11123,"ÑĦÐ¾ÑĢÐ´":11124,"ĠÐ¿ÑĢÐµÐ½ÐµÐ±":11125,"ĠÑĥÐ¶Ð°ÑģÐ°":11126,"ĠÐ¼ÑĥÑģÑĥÐ»ÑĮÐ¼Ð°Ð½":11127,"Ð°ÑĤÐµÐ»ÑĮÐ½ÑĥÑİ":11128,"ĠÐ¤ÐµÑĢ":11129,"Ð°ÑİÑīÐµÐ³Ð¾ÑģÑı":11130,
[...]
